{
  "version": "1.0",
  "truncation": null,
  "padding": null,
  "added_tokens": [
    {
      "id": 0,
      "content": "[PAD]",
      "single_word": false,
      "lstrip": false,
      "rstrip": false,
      "normalized": false,
      "special": true
    },
    {
      "id": 1,
      "content": "[UNK]",
      "single_word": false,
      "lstrip": false,
      "rstrip": false,
      "normalized": false,
      "special": true
    },
    {
      "id": 2,
      "content": "[CLS]",
      "single_word": false,
      "lstrip": false,
      "rstrip": false,
      "normalized": false,
      "special": true
    },
    {
      "id": 3,
      "content": "[SEP]",
      "single_word": false,
      "lstrip": false,
      "rstrip": false,
      "normalized": false,
      "special": true
    },
    {
      "id": 4,
      "content": "[MASK]",
      "single_word": false,
      "lstrip": false,
      "rstrip": false,
      "normalized": false,
      "special": true
    }
  ],
  "normalizer": {
    "type": "BertNormalizer",
    "clean_text": true,
    "handle_chinese_chars": true,
    "strip_accents": true,
    "lowercase": false
  },
  "pre_tokenizer": {
    "type": "Whitespace"
  },
  "post_processor": null,
  "decoder": null,
  "model": {
    "type": "WordPiece",
    "unk_token": "[UNK]",
    "continuing_subword_prefix": "##",
    "max_input_chars_per_word": 100,
    "vocab": {
      "[PAD]": 0,
      "[UNK]": 1,
      "[CLS]": 2,
      "[SEP]": 3,
      "[MASK]": 4,
      "!": 5,
      "\"": 6,
      "#": 7,
      "$": 8,
      "%": 9,
      "&": 10,
      "'": 11,
      "(": 12,
      ")": 13,
      "*": 14,
      "+": 15,
      ",": 16,
      "-": 17,
      ".": 18,
      "/": 19,
      "0": 20,
      "1": 21,
      "2": 22,
      "3": 23,
      "4": 24,
      "5": 25,
      "6": 26,
      "7": 27,
      "8": 28,
      "9": 29,
      ":": 30,
      ";": 31,
      "<": 32,
      "=": 33,
      ">": 34,
      "?": 35,
      "@": 36,
      "A": 37,
      "B": 38,
      "C": 39,
      "D": 40,
      "E": 41,
      "F": 42,
      "G": 43,
      "H": 44,
      "I": 45,
      "J": 46,
      "K": 47,
      "L": 48,
      "M": 49,
      "N": 50,
      "O": 51,
      "P": 52,
      "Q": 53,
      "R": 54,
      "S": 55,
      "T": 56,
      "U": 57,
      "V": 58,
      "W": 59,
      "X": 60,
      "Y": 61,
      "Z": 62,
      "[": 63,
      "\\": 64,
      "]": 65,
      "^": 66,
      "_": 67,
      "`": 68,
      "a": 69,
      "b": 70,
      "c": 71,
      "d": 72,
      "e": 73,
      "f": 74,
      "g": 75,
      "h": 76,
      "i": 77,
      "j": 78,
      "k": 79,
      "l": 80,
      "m": 81,
      "n": 82,
      "o": 83,
      "p": 84,
      "q": 85,
      "r": 86,
      "s": 87,
      "t": 88,
      "u": 89,
      "v": 90,
      "w": 91,
      "x": 92,
      "y": 93,
      "z": 94,
      "{": 95,
      "|": 96,
      "}": 97,
      "~": 98,
      "¡": 99,
      "¢": 100,
      "£": 101,
      "¤": 102,
      "¥": 103,
      "¦": 104,
      "§": 105,
      "¨": 106,
      "©": 107,
      "ª": 108,
      "«": 109,
      "¬": 110,
      "®": 111,
      "¯": 112,
      "°": 113,
      "±": 114,
      "²": 115,
      "³": 116,
      "´": 117,
      "µ": 118,
      "¶": 119,
      "·": 120,
      "¸": 121,
      "¹": 122,
      "º": 123,
      "»": 124,
      "¼": 125,
      "½": 126,
      "¾": 127,
      "¿": 128,
      "Æ": 129,
      "Ð": 130,
      "Ø": 131,
      "Þ": 132,
      "ß": 133,
      "æ": 134,
      "ð": 135,
      "÷": 136,
      "ø": 137,
      "þ": 138,
      "ı": 139,
      "Ł": 140,
      "ł": 141,
      "Œ": 142,
      "œ": 143,
      "Ɛ": 144,
      "ƒ": 145,
      "Ɩ": 146,
      "ƞ": 147,
      "Ɵ": 148,
      "ɑ": 149,
      "ə": 150,
      "ɛ": 151,
      "ɜ": 152,
      "ɩ": 153,
      "ɪ": 154,
      "ɭ": 155,
      "ɳ": 156,
      "ʋ": 157,
      "ʎ": 158,
      "ʟ": 159,
      "ʺ": 160,
      "ʻ": 161,
      "ʼ": 162,
      "ˆ": 163,
      "ˇ": 164,
      "˘": 165,
      "˙": 166,
      "˚": 167,
      "˛": 168,
      "˜": 169,
      "˝": 170,
      "Α": 171,
      "Β": 172,
      "Γ": 173,
      "Δ": 174,
      "Ε": 175,
      "Ζ": 176,
      "Η": 177,
      "Θ": 178,
      "Ι": 179,
      "Κ": 180,
      "Λ": 181,
      "Μ": 182,
      "Ν": 183,
      "Ξ": 184,
      "Ο": 185,
      "Π": 186,
      "Ρ": 187,
      "Σ": 188,
      "Τ": 189,
      "Υ": 190,
      "Φ": 191,
      "Χ": 192,
      "Ψ": 193,
      "Ω": 194,
      "α": 195,
      "β": 196,
      "γ": 197,
      "δ": 198,
      "ε": 199,
      "ζ": 200,
      "η": 201,
      "θ": 202,
      "ι": 203,
      "κ": 204,
      "λ": 205,
      "μ": 206,
      "ν": 207,
      "ξ": 208,
      "ο": 209,
      "π": 210,
      "ρ": 211,
      "ς": 212,
      "σ": 213,
      "τ": 214,
      "υ": 215,
      "φ": 216,
      "χ": 217,
      "ψ": 218,
      "ω": 219,
      "ϐ": 220,
      "ϑ": 221,
      "ϒ": 222,
      "ϕ": 223,
      "ϖ": 224,
      "Ϛ": 225,
      "ϛ": 226,
      "Ϝ": 227,
      "Ϟ": 228,
      "ϥ": 229,
      "Ϧ": 230,
      "ϧ": 231,
      "Ϩ": 232,
      "ϩ": 233,
      "Ϭ": 234,
      "ϭ": 235,
      "ϰ": 236,
      "ϱ": 237,
      "ϲ": 238,
      "Є": 239,
      "В": 240,
      "Е": 241,
      "З": 242,
      "К": 243,
      "М": 244,
      "Н": 245,
      "П": 246,
      "С": 247,
      "Т": 248,
      "Ш": 249,
      "Ы": 250,
      "а": 251,
      "в": 252,
      "г": 253,
      "е": 254,
      "з": 255,
      "м": 256,
      "о": 257,
      "р": 258,
      "с": 259,
      "т": 260,
      "х": 261,
      "ѱ": 262,
      "Ӕ": 263,
      "ӕ": 264,
      "ә": 265,
      "Ր": 266,
      "׃": 267,
      "ב": 268,
      "ג": 269,
      "ד": 270,
      "ו": 271,
      "י": 272,
      "כ": 273,
      "ל": 274,
      "ם": 275,
      "נ": 276,
      "ס": 277,
      "פ": 278,
      "צ": 279,
      "ש": 280,
      "٫": 281,
      "޺": 282,
      "᾽": 283,
      "᾿": 284,
      "῾": 285,
      "–": 286,
      "—": 287,
      "―": 288,
      "‘": 289,
      "’": 290,
      "‚": 291,
      "‛": 292,
      "“": 293,
      "”": 294,
      "„": 295,
      "†": 296,
      "‡": 297,
      "•": 298,
      "…": 299,
      "‰": 300,
      "′": 301,
      "‹": 302,
      "›": 303,
      "※": 304,
      "⁄": 305,
      "€": 306,
      "℞": 307,
      "℟": 308,
      "™": 309,
      "℣": 310,
      "ℰ": 311,
      "Ↄ": 312,
      "∂": 313,
      "∆": 314,
      "∏": 315,
      "∑": 316,
      "∗": 317,
      "∙": 318,
      "√": 319,
      "∞": 320,
      "∨": 321,
      "∶": 322,
      "∹": 323,
      "≈": 324,
      "≥": 325,
      "⋆": 326,
      "⏑": 327,
      "⑊": 328,
      "─": 329,
      "┼": 330,
      "■": 331,
      "□": 332,
      "►": 333,
      "▼": 334,
      "★": 335,
      "♦": 336,
      "✝": 337,
      "✠": 338,
      "❇": 339,
      "❈": 340,
      "❖": 341,
      "〈": 342,
      "〉": 343,
      "ﬁ": 344,
      "ﬂ": 345,
      "︰": 346,
      "﹡": 347,
      "（": 348,
      "）": 349,
      "##o": 350,
      "##m": 351,
      "##b": 352,
      "##i": 353,
      "##n": 354,
      "##a": 355,
      "##t": 356,
      "##u": 357,
      "##r": 358,
      "##e": 359,
      "##s": 360,
      "##c": 361,
      "##4": 362,
      "##1": 363,
      "##5": 364,
      "##7": 365,
      "##v": 366,
      "##x": 367,
      "##g": 368,
      "##l": 369,
      "##d": 370,
      "##q": 371,
      "##p": 372,
      "##α": 373,
      "##λ": 374,
      "##ε": 375,
      "##ι": 376,
      "##ψ": 377,
      "##ς": 378,
      "##y": 379,
      "##f": 380,
      "##h": 381,
      "##N": 382,
      "##E": 383,
      "##U": 384,
      "##M": 385,
      "##0": 386,
      "##2": 387,
      "##8": 388,
      "##H": 389,
      "##V": 390,
      "##L": 391,
      "##A": 392,
      "##T": 393,
      "##I": 394,
      "##O": 395,
      "##B": 396,
      "##S": 397,
      "##œ": 398,
      "##9": 399,
      "##3": 400,
      "##6": 401,
      "##ξ": 402,
      "##ν": 403,
      "##τ": 404,
      "##ο": 405,
      "##æ": 406,
      "##z": 407,
      "##ρ": 408,
      "##σ": 409,
      "##κ": 410,
      "##υ": 411,
      "##η": 412,
      "##C": 413,
      "##μ": 414,
      "##χ": 415,
      "##ω": 416,
      "##θ": 417,
      "##D": 418,
      "##π": 419,
      "##γ": 420,
      "##ł": 421,
      "##X": 422,
      "##G": 423,
      "##δ": 424,
      "##R": 425,
      "##j": 426,
      "##w": 427,
      "##P": 428,
      "##_": 429,
      "##ϕ": 430,
      "##'": 431,
      "##,": 432,
      "##Q": 433,
      "##Ο": 434,
      "##Π": 435,
      "##k": 436,
      "##ϑ": 437,
      "##Y": 438,
      "##φ": 439,
      "##J": 440,
      "##K": 441,
      "##Z": 442,
      "##Α": 443,
      "##ζ": 444,
      "##.": 445,
      "##F": 446,
      "##Ν": 447,
      "##-": 448,
      "##β": 449,
      "##»": 450,
      "##Χ": 451,
      "##Λ": 452,
      "##\"": 453,
      "##—": 454,
      "##ϰ": 455,
      "##ϱ": 456,
      "##ϖ": 457,
      "##Μ": 458,
      "##)": 459,
      "##:": 460,
      "##\\": 461,
      "##Ι": 462,
      "##Θ": 463,
      "##Φ": 464,
      "##W": 465,
      "##*": 466,
      "##|": 467,
      "##ϒ": 468,
      "##Æ": 469,
      "##Γ": 470,
      "##!": 471,
      "##Η": 472,
      "##(": 473,
      "##?": 474,
      "##м": 475,
      "##/": 476,
      "##ϭ": 477,
      "##Τ": 478,
      "##Ε": 479,
      "##Ρ": 480,
      "##Ϭ": 481,
      "##Ω": 482,
      "##М": 483,
      "##Β": 484,
      "##Σ": 485,
      "##ϥ": 486,
      "##е": 487,
      "##º": 488,
      "##µ": 489,
      "##£": 490,
      "##ß": 491,
      "##Œ": 492,
      "##Κ": 493,
      "##§": 494,
      "##а": 495,
      "##^": 496,
      "##«": 497,
      "##х": 498,
      "##Ↄ": 499,
      "##В": 500,
      "##Ϩ": 501,
      "##Ψ": 502,
      "##+": 503,
      "##·": 504,
      "##Ϝ": 505,
      "##ʻ": 506,
      "##т": 507,
      "##Т": 508,
      "##о": 509,
      "##;": 510,
      "##„": 511,
      "##﹡": 512,
      "##∗": 513,
      "##ª": 514,
      "##Υ": 515,
      "##†": 516,
      "##ϲ": 517,
      "##ı": 518,
      "##>": 519,
      "##ӕ": 520,
      "##[": 521,
      "##<": 522,
      "##ø": 523,
      "##в": 524,
      "##]": 525,
      "##{": 526,
      "##“": 527,
      "##ϩ": 528,
      "##Ϛ": 529,
      "##Ø": 530,
      "##Ɛ": 531,
      "##ϧ": 532,
      "##&": 533,
      "##Ζ": 534,
      "##ɪ": 535,
      "##ϛ": 536,
      "##ﬂ": 537,
      "##‹": 538,
      "##$": 539,
      "##©": 540,
      "##ә": 541,
      "##Ξ": 542,
      "##٫": 543,
      "##ﬁ": 544,
      "##}": 545,
      "##′": 546,
      "##=": 547,
      "###": 548,
      "##з": 549,
      "##ϐ": 550,
      "##Ɵ": 551,
      "##ɛ": 552,
      "##~": 553,
      "##Þ": 554,
      "##ɩ": 555,
      "##※": 556,
      "##%": 557,
      "##З": 558,
      "##÷": 559,
      "##’": 560,
      "##с": 561,
      "##‰": 562,
      "##˝": 563,
      "##–": 564,
      "##Ð": 565,
      "##þ": 566,
      "##›": 567,
      "##ƒ": 568,
      "##√": 569,
      "##Н": 570,
      "##•": 571,
      "##Δ": 572,
      "##ð": 573,
      "##ˇ": 574,
      "##¶": 575,
      "##˙": 576,
      "##ʎ": 577,
      "##∞": 578,
      "##‘": 579,
      "##¥": 580,
      "##”": 581,
      "##р": 582,
      "##Ӕ": 583,
      "##）": 584,
      "##Ł": 585,
      "##Ϧ": 586,
      "##≈": 587,
      "##ʺ": 588,
      "##…": 589,
      "##■": 590,
      "##±": 591,
      "##er": 592,
      "##um": 593,
      "##it": 594,
      "##is": 595,
      "##us": 596,
      "##nt": 597,
      "##at": 598,
      "qu": 599,
      "##on": 600,
      "##em": 601,
      "##am": 602,
      "##or": 603,
      "##es": 604,
      "##ic": 605,
      "in": 606,
      "##ur": 607,
      "et": 608,
      "##en": 609,
      "##in": 610,
      "##st": 611,
      "##ae": 612,
      "##et": 613,
      "##li": 614,
      "##ar": 615,
      "##ent": 616,
      "##im": 617,
      "##ec": 618,
      "##qu": 619,
      "pr": 620,
      "##an": 621,
      "##os": 622,
      "##ib": 623,
      "##ia": 624,
      "##id": 625,
      "##ul": 626,
      "##ut": 627,
      "##od": 628,
      "##om": 629,
      "##ed": 630,
      "su": 631,
      "est": 632,
      "ad": 633,
      "##as": 634,
      "non": 635,
      "##ant": 636,
      "##ion": 637,
      "##el": 638,
      "##ac": 639,
      "de": 640,
      "##ol": 641,
      "##un": 642,
      "##al": 643,
      "##oc": 644,
      "##ud": 645,
      "ex": 646,
      "con": 647,
      "##ibus": 648,
      "##ir": 649,
      "per": 650,
      "##ab": 651,
      "##ere": 652,
      "ut": 653,
      "##unt": 654,
      "##il": 655,
      "quod": 656,
      "##se": 657,
      "##ot": 658,
      "##est": 659,
      "##iam": 660,
      "##io": 661,
      "##per": 662,
      "##end": 663,
      "##que": 664,
      "##orum": 665,
      "pro": 666,
      "##ius": 667,
      "##ra": 668,
      "dic": 669,
      "di": 670,
      "##gn": 671,
      "##ens": 672,
      "##pt": 673,
      "re": 674,
      "qui": 675,
      "##itat": 676,
      "##itur": 677,
      "##omin": 678,
      "##ium": 679,
      "co": 680,
      "##ist": 681,
      "##atur": 682,
      "##ect": 683,
      "##nim": 684,
      "si": 685,
      "il": 686,
      "##ct": 687,
      "aut": 688,
      "cum": 689,
      "##ost": 690,
      "ali": 691,
      "que": 692,
      "##ili": 693,
      "##mn": 694,
      "De": 695,
      "##ation": 696,
      "int": 697,
      "es": 698,
      "##ri": 699,
      "omn": 700,
      "sed": 701,
      "##cc": 702,
      "se": 703,
      "quae": 704,
      "ill": 705,
      "##eg": 706,
      "er": 707,
      "##und": 708,
      "##eb": 709,
      "##ta": 710,
      "##iss": 711,
      "##ip": 712,
      "##and": 713,
      "ip": 714,
      "un": 715,
      "me": 716,
      "ab": 717,
      "ver": 718,
      "##ort": 719,
      "##de": 720,
      "Qu": 721,
      "enim": 722,
      "fac": 723,
      "autem": 724,
      "##ver": 725,
      "ca": 726,
      "##uit": 727,
      "hab": 728,
      "##go": 729,
      "prae": 730,
      "im": 731,
      "##uc": 732,
      "##are": 733,
      "pot": 734,
      "ma": 735,
      "sunt": 736,
      "sc": 737,
      "quia": 738,
      "##fic": 739,
      "esse": 740,
      "cor": 741,
      "hoc": 742,
      "##re": 743,
      "quam": 744,
      "##uer": 745,
      "##ter": 746,
      "par": 747,
      "##ob": 748,
      "##etur": 749,
      "sic": 750,
      "com": 751,
      "##iae": 752,
      "cont": 753,
      "cons": 754,
      "##rat": 755,
      "quid": 756,
      "##iv": 757,
      "ips": 758,
      "##ess": 759,
      "##ell": 760,
      "sp": 761,
      "tu": 762,
      "nec": 763,
      "sub": 764,
      "##ust": 765,
      "ne": 766,
      "pos": 767,
      "tr": 768,
      "##ine": 769,
      "##op": 770,
      "##pl": 771,
      "ar": 772,
      "##ult": 773,
      "quo": 774,
      "##ig": 775,
      "##hr": 776,
      "sec": 777,
      "##ore": 778,
      "id": 779,
      "##ari": 780,
      "##imus": 781,
      "##isc": 782,
      "##av": 783,
      "Et": 784,
      "etiam": 785,
      "ap": 786,
      "##iter": 787,
      "san": 788,
      "vel": 789,
      "##aec": 790,
      "pl": 791,
      "tam": 792,
      "ter": 793,
      "pat": 794,
      "##ient": 795,
      "sol": 796,
      "qua": 797,
      "lib": 798,
      "sit": 799,
      "vid": 800,
      "aliqu": 801,
      "inter": 802,
      "##hrist": 803,
      "##bi": 804,
      "am": 805,
      "##arum": 806,
      "vir": 807,
      "anim": 808,
      "st": 809,
      "at": 810,
      "Christ": 811,
      "##ro": 812,
      "##jus": 813,
      "##ionem": 814,
      "##ih": 815,
      "cr": 816,
      "##eri": 817,
      "al": 818,
      "##ub": 819,
      "secund": 820,
      "an": 821,
      "homin": 822,
      "tem": 823,
      "ob": 824,
      "##unc": 825,
      "##quam": 826,
      "prop": 827,
      "res": 828,
      "##lig": 829,
      "##ata": 830,
      "##atus": 831,
      "Domin": 832,
      "##atum": 833,
      "acc": 834,
      "##inc": 835,
      "pec": 836,
      "##ione": 837,
      "nost": 838,
      "super": 839,
      "##ff": 840,
      "##ibi": 841,
      "##II": 842,
      "##erit": 843,
      "##ert": 844,
      "##ans": 845,
      "or": 846,
      "poss": 847,
      "##ior": 848,
      "##itate": 849,
      "##atis": 850,
      "##ap": 851,
      "bon": 852,
      "##itus": 853,
      "sicut": 854,
      "op": 855,
      "##eret": 856,
      "ser": 857,
      "##itas": 858,
      "##ui": 859,
      "##obis": 860,
      "##antur": 861,
      "##rum": 862,
      "##vers": 863,
      "post": 864,
      "ita": 865,
      "corp": 866,
      "sanct": 867,
      "##itatem": 868,
      "fili": 869,
      "inc": 870,
      "te": 871,
      "ac": 872,
      "##ali": 873,
      "##atione": 874,
      "##ad": 875,
      "##ug": 876,
      "potest": 877,
      "##issim": 878,
      "pecc": 879,
      "##isse": 880,
      "##erunt": 881,
      "secundum": 882,
      "##esc": 883,
      "##ven": 884,
      "##oris": 885,
      "Sed": 886,
      "mod": 887,
      "prim": 888,
      "##atio": 889,
      "##ris": 890,
      "##endum": 891,
      "##entia": 892,
      "ergo": 893,
      "leg": 894,
      "##ati": 895,
      "##itum": 896,
      "sim": 897,
      "inf": 898,
      "man": 899,
      "##ict": 900,
      "tamen": 901,
      "##entes": 902,
      "##ita": 903,
      "##eter": 904,
      "temp": 905,
      "fid": 906,
      "##antum": 907,
      "car": 908,
      "##ationem": 909,
      "##uct": 910,
      "##ific": 911,
      "comm": 912,
      "pra": 913,
      "vol": 914,
      "gen": 915,
      "##ing": 916,
      "##itud": 917,
      "loc": 918,
      "##uli": 919,
      "sum": 920,
      "##ii": 921,
      "Dei": 922,
      "##ex": 923,
      "##ag": 924,
      "mal": 925,
      "##isi": 926,
      "##ov": 927,
      "atque": 928,
      "##orem": 929,
      "part": 930,
      "##untur": 931,
      "##pr": 932,
      "div": 933,
      "##itatis": 934,
      "##rae": 935,
      "##udic": 936,
      "eius": 937,
      "du": 938,
      "eum": 939,
      "dix": 940,
      "##ando": 941,
      "dicit": 942,
      "natur": 943,
      "##pon": 944,
      "ven": 945,
      "ag": 946,
      "ant": 947,
      "deb": 948,
      "##inem": 949,
      "##iis": 950,
      "mult": 951,
      "ist": 952,
      "In": 953,
      "reg": 954,
      "nos": 955,
      "ejus": 956,
      "##entur": 957,
      "conc": 958,
      "##ull": 959,
      "eo": 960,
      "##aud": 961,
      "##ep": 962,
      "##icet": 963,
      "quibus": 964,
      "domin": 965,
      "sem": 966,
      "##ept": 967,
      "quas": 968,
      "ess": 969,
      "##erat": 970,
      "nisi": 971,
      "min": 972,
      "caus": 973,
      "vero": 974,
      "sac": 975,
      "##les": 976,
      "##eat": 977,
      "##tum": 978,
      "##ores": 979,
      "##avit": 980,
      "Deus": 981,
      "conf": 982,
      "##ina": 983,
      "dec": 984,
      "##ram": 985,
      "##eli": 986,
      "##bus": 987,
      "quem": 988,
      "##ias": 989,
      "ind": 990,
      "##ionis": 991,
      "##ate": 992,
      "##orm": 993,
      "##up": 994,
      "haec": 995,
      "mort": 996,
      "des": 997,
      "tot": 998,
      "##itt": 999,
      "imp": 1000,
      "oper": 1001,
      "##ian": 1002,
      "as": 1003,
      "##erum": 1004,
      "aud": 1005,
      "cap": 1006,
      "##fect": 1007,
      "##irc": 1008,
      "##dam": 1009,
      "quidem": 1010,
      "##ebat": 1011,
      "##inis": 1012,
      "##ass": 1013,
      "##itu": 1014,
      "hum": 1015,
      "cl": 1016,
      "nobis": 1017,
      "rec": 1018,
      "##eris": 1019,
      "spir": 1020,
      "##entis": 1021,
      "##enti": 1022,
      "##ihil": 1023,
      "##ccles": 1024,
      "ipse": 1025,
      "##ire": 1026,
      "grat": 1027,
      "cred": 1028,
      "dicitur": 1029,
      "red": 1030,
      "us": 1031,
      "omnia": 1032,
      "##iat": 1033,
      "##par": 1034,
      "ea": 1035,
      "fuer": 1036,
      "sal": 1037,
      "##ript": 1038,
      "pa": 1039,
      "vit": 1040,
      "cur": 1041,
      "null": 1042,
      "##uius": 1043,
      "exc": 1044,
      "##deo": 1045,
      "##pter": 1046,
      "disc": 1047,
      "##int": 1048,
      "fl": 1049,
      "virt": 1050,
      "##alis": 1051,
      "quis": 1052,
      "ep": 1053,
      "##ux": 1054,
      "##ont": 1055,
      "praec": 1056,
      "nihil": 1057,
      "##ihi": 1058,
      "magn": 1059,
      "mag": 1060,
      "eorum": 1061,
      "cogn": 1062,
      "##gitur": 1063,
      "##dic": 1064,
      "mihi": 1065,
      "omnes": 1066,
      "##lic": 1067,
      "##act": 1068,
      "ins": 1069,
      "##pos": 1070,
      "illi": 1071,
      "gl": 1072,
      "##ffic": 1073,
      "erat": 1074,
      "sibi": 1075,
      "##entum": 1076,
      "##ente": 1077,
      "princ": 1078,
      "##dit": 1079,
      "neque": 1080,
      "##amus": 1081,
      "ante": 1082,
      "##gr": 1083,
      "contra": 1084,
      "##oqu": 1085,
      "rem": 1086,
      "pop": 1087,
      "##sum": 1088,
      "act": 1089,
      "##iens": 1090,
      "mor": 1091,
      "##omo": 1092,
      "occ": 1093,
      "##oli": 1094,
      "##emus": 1095,
      "tibi": 1096,
      "Ad": 1097,
      "##ios": 1098,
      "num": 1099,
      "sine": 1100,
      "mis": 1101,
      "fec": 1102,
      "vest": 1103,
      "verb": 1104,
      "modo": 1105,
      "ei": 1106,
      "col": 1107,
      "voc": 1108,
      "ten": 1109,
      "fort": 1110,
      "Rom": 1111,
      "ann": 1112,
      "propter": 1113,
      "##ern": 1114,
      "Si": 1115,
      "##ile": 1116,
      "sign": 1117,
      "##rem": 1118,
      "##ulo": 1119,
      "mat": 1120,
      "##stant": 1121,
      "##ationis": 1122,
      "##ite": 1123,
      "serv": 1124,
      "ign": 1125,
      "inqu": 1126,
      "##ulum": 1127,
      "cae": 1128,
      "##entem": 1129,
      "nomin": 1130,
      "princip": 1131,
      "ubi": 1132,
      "eos": 1133,
      "Non": 1134,
      "##isset": 1135,
      "quasi": 1136,
      "##ign": 1137,
      "##uper": 1138,
      "el": 1139,
      "##erc": 1140,
      "nunc": 1141,
      "##iunt": 1142,
      "##xim": 1143,
      "##ilis": 1144,
      "##entiam": 1145,
      "##ula": 1146,
      "his": 1147,
      "Deo": 1148,
      "med": 1149,
      "circ": 1150,
      "##ulis": 1151,
      "sup": 1152,
      "##iet": 1153,
      "##ura": 1154,
      "##entibus": 1155,
      "##plic": 1156,
      "illa": 1157,
      "##irm": 1158,
      "##ord": 1159,
      "ul": 1160,
      "##ie": 1161,
      "ideo": 1162,
      "pers": 1163,
      "ben": 1164,
      "##ero": 1165,
      "quoque": 1166,
      "##mod": 1167,
      "doc": 1168,
      "##itis": 1169,
      "ille": 1170,
      "igitur": 1171,
      "nam": 1172,
      "def": 1173,
      "ost": 1174,
      "##sa": 1175,
      "ord": 1176,
      "ego": 1177,
      "intell": 1178,
      "##ujus": 1179,
      "praes": 1180,
      "##ini": 1181,
      "##oribus": 1182,
      "##ix": 1183,
      "##ve": 1184,
      "virtut": 1185,
      "iam": 1186,
      "esset": 1187,
      "mund": 1188,
      "##osc": 1189,
      "habet": 1190,
      "illud": 1191,
      "spec": 1192,
      "##oniam": 1193,
      "##ora": 1194,
      "##era": 1195,
      "alter": 1196,
      "##unct": 1197,
      "omnibus": 1198,
      "##endo": 1199,
      "##ellig": 1200,
      "frat": 1201,
      "##pe": 1202,
      "inv": 1203,
      "mem": 1204,
      "homo": 1205,
      "##rib": 1206,
      "form": 1207,
      "sus": 1208,
      "##endi": 1209,
      "Un": 1210,
      "fr": 1211,
      "##pet": 1212,
      "##ostol": 1213,
      "arg": 1214,
      "##ang": 1215,
      "sua": 1216,
      "##ato": 1217,
      "##ilicet": 1218,
      "carn": 1219,
      "magis": 1220,
      "fuit": 1221,
      "trans": 1222,
      "aliquid": 1223,
      "##endit": 1224,
      "ded": 1225,
      "proc": 1226,
      "scilicet": 1227,
      "Pr": 1228,
      "ext": 1229,
      "II": 1230,
      "intellig": 1231,
      "hic": 1232,
      "const": 1233,
      "dum": 1234,
      "glor": 1235,
      "quos": 1236,
      "##dem": 1237,
      "put": 1238,
      "##th": 1239,
      "Pat": 1240,
      "imper": 1241,
      "##if": 1242,
      "##oen": 1243,
      "eis": 1244,
      "unde": 1245,
      "##iscop": 1246,
      "test": 1247,
      "imm": 1248,
      "neg": 1249,
      "pon": 1250,
      "tantum": 1251,
      "Christi": 1252,
      "ibi": 1253,
      "##atem": 1254,
      "dis": 1255,
      "##ici": 1256,
      "Dominus": 1257,
      "quando": 1258,
      "iudic": 1259,
      "##tin": 1260,
      "##ch": 1261,
      "Er": 1262,
      "##ale": 1263,
      "cre": 1264,
      "Eccles": 1265,
      "sens": 1266,
      "##og": 1267,
      "##ulus": 1268,
      "human": 1269,
      "##enta": 1270,
      "##het": 1271,
      "##uisse": 1272,
      "##inus": 1273,
      "ur": 1274,
      "regn": 1275,
      "##ino": 1276,
      "eam": 1277,
      "Quod": 1278,
      "Deum": 1279,
      "dixit": 1280,
      "ipsa": 1281,
      "##ator": 1282,
      "del": 1283,
      "sequ": 1284,
      "unum": 1285,
      "##le": 1286,
      "tra": 1287,
      "volunt": 1288,
      "##sus": 1289,
      "sap": 1290,
      "civ": 1291,
      "##iones": 1292,
      "semper": 1293,
      "##erent": 1294,
      "abs": 1295,
      "tant": 1296,
      "Nam": 1297,
      "causa": 1298,
      "loqu": 1299,
      "apud": 1300,
      "mon": 1301,
      "##isti": 1302,
      "##ast": 1303,
      "##eretur": 1304,
      "##itia": 1305,
      "##quid": 1306,
      "quoniam": 1307,
      "episcop": 1308,
      "##anc": 1309,
      "##alem": 1310,
      "fact": 1311,
      "##antes": 1312,
      "hon": 1313,
      "##aris": 1314,
      "##si": 1315,
      "dom": 1316,
      "ipsum": 1317,
      "fer": 1318,
      "##pic": 1319,
      "##ectus": 1320,
      "##rig": 1321,
      "##ilia": 1322,
      "gra": 1323,
      "##ito": 1324,
      "##andum": 1325,
      "quantum": 1326,
      "##erea": 1327,
      "##tem": 1328,
      "##equ": 1329,
      "##ua": 1330,
      "fide": 1331,
      "ait": 1332,
      "usque": 1333,
      "mil": 1334,
      "suis": 1335,
      "suo": 1336,
      "dign": 1337,
      "solum": 1338,
      "##ies": 1339,
      "##asc": 1340,
      "##upt": 1341,
      "##aret": 1342,
      "##ilium": 1343,
      "viv": 1344,
      "Ergo": 1345,
      "script": 1346,
      "##urr": 1347,
      "ceter": 1348,
      "##ph": 1349,
      "##eo": 1350,
      "nov": 1351,
      "erit": 1352,
      "tim": 1353,
      "##ica": 1354,
      "##sequ": 1355,
      "##iant": 1356,
      "##iqu": 1357,
      "Unde": 1358,
      "necess": 1359,
      "##hib": 1360,
      "Sc": 1361,
      "cui": 1362,
      "10": 1363,
      "##enda": 1364,
      "##ider": 1365,
      "##inde": 1366,
      "sent": 1367,
      "An": 1368,
      "miser": 1369,
      "just": 1370,
      "cert": 1371,
      "##ebant": 1372,
      "##idit": 1373,
      "suam": 1374,
      "uni": 1375,
      "lab": 1376,
      "##iti": 1377,
      "ref": 1378,
      "##ique": 1379,
      "Quid": 1380,
      "praedic": 1381,
      "##sal": 1382,
      "Al": 1383,
      "##odo": 1384,
      "vis": 1385,
      "##ann": 1386,
      "pet": 1387,
      "poen": 1388,
      "accip": 1389,
      "sen": 1390,
      "##pir": 1391,
      "commun": 1392,
      "##res": 1393,
      "cog": 1394,
      "die": 1395,
      "##ill": 1396,
      "inst": 1397,
      "judic": 1398,
      "dicendum": 1399,
      "tur": 1400,
      "##icum": 1401,
      "##aliter": 1402,
      "##pect": 1403,
      "pass": 1404,
      "##mon": 1405,
      "suum": 1406,
      "##aver": 1407,
      "vos": 1408,
      "Con": 1409,
      "primum": 1410,
      "##inum": 1411,
      "##ue": 1412,
      "respon": 1413,
      "Roman": 1414,
      "##erv": 1415,
      "don": 1416,
      "fi": 1417,
      "prophet": 1418,
      "inquit": 1419,
      "##itut": 1420,
      "bene": 1421,
      "##omen": 1422,
      "##pell": 1423,
      "eff": 1424,
      "##uis": 1425,
      "perfect": 1426,
      "oc": 1427,
      "apostol": 1428,
      "aur": 1429,
      "auct": 1430,
      "##atu": 1431,
      "##apt": 1432,
      "tum": 1433,
      "sint": 1434,
      "uel": 1435,
      "##art": 1436,
      "obs": 1437,
      "##ox": 1438,
      "##uum": 1439,
      "maxim": 1440,
      "cael": 1441,
      "vobis": 1442,
      "prob": 1443,
      "urb": 1444,
      "tunc": 1445,
      "##ulos": 1446,
      "tempore": 1447,
      "##urg": 1448,
      "laud": 1449,
      "##ret": 1450,
      "##III": 1451,
      "##etern": 1452,
      "##aria": 1453,
      "##enter": 1454,
      "lit": 1455,
      "##inqu": 1456,
      "Sic": 1457,
      "rel": 1458,
      "simil": 1459,
      "Ap": 1460,
      "aff": 1461,
      "##sit": 1462,
      "sive": 1463,
      "Qui": 1464,
      "tua": 1465,
      "corpus": 1466,
      "sui": 1467,
      "em": 1468,
      "Domini": 1469,
      "Ex": 1470,
      "##uerunt": 1471,
      "idem": 1472,
      "##ong": 1473,
      "##iu": 1474,
      "##vis": 1475,
      "##entium": 1476,
      "aetern": 1477,
      "##ientia": 1478,
      "susc": 1479,
      "##ea": 1480,
      "trib": 1481,
      "inven": 1482,
      "oport": 1483,
      "simul": 1484,
      "plur": 1485,
      "aliud": 1486,
      "dilig": 1487,
      "fam": 1488,
      "iust": 1489,
      "##oll": 1490,
      "nomen": 1491,
      "Christus": 1492,
      "illum": 1493,
      "dictum": 1494,
      "rep": 1495,
      "##itio": 1496,
      "##erb": 1497,
      "omnis": 1498,
      "prof": 1499,
      "##esse": 1500,
      "##vit": 1501,
      "11": 1502,
      "Th": 1503,
      "aqu": 1504,
      "bonum": 1505,
      "mot": 1506,
      "host": 1507,
      "##empl": 1508,
      "Gr": 1509,
      "##itudinem": 1510,
      "Cum": 1511,
      "fal": 1512,
      "alia": 1513,
      "##ectum": 1514,
      "##iem": 1515,
      "prom": 1516,
      "exerc": 1517,
      "summ": 1518,
      "dist": 1519,
      "ang": 1520,
      "duc": 1521,
      "quant": 1522,
      "illis": 1523,
      "noc": 1524,
      "##abat": 1525,
      "##rip": 1526,
      "##ublic": 1527,
      "ed": 1528,
      "signific": 1529,
      "mater": 1530,
      "dol": 1531,
      "##ulta": 1532,
      "##lius": 1533,
      "ret": 1534,
      "uir": 1535,
      "XX": 1536,
      "substant": 1537,
      "omnium": 1538,
      "salut": 1539,
      "##ys": 1540,
      "arb": 1541,
      "dem": 1542,
      "uid": 1543,
      "Ph": 1544,
      "##rah": 1545,
      "person": 1546,
      "dil": 1547,
      "mir": 1548,
      "##imo": 1549,
      "supra": 1550,
      "lat": 1551,
      "##ationes": 1552,
      "##omodo": 1553,
      "##ugn": 1554,
      "primo": 1555,
      "##epit": 1556,
      "anima": 1557,
      "tert": 1558,
      "fuerit": 1559,
      "terra": 1560,
      "sing": 1561,
      "cognosc": 1562,
      "long": 1563,
      "ipso": 1564,
      "##ori": 1565,
      "##inae": 1566,
      "Sent": 1567,
      "contin": 1568,
      "##icis": 1569,
      "cuius": 1570,
      "Super": 1571,
      "Ar": 1572,
      "jam": 1573,
      "##yr": 1574,
      "luc": 1575,
      "Is": 1576,
      "12": 1577,
      "una": 1578,
      "adh": 1579,
      "##ym": 1580,
      "##ulc": 1581,
      "##entiae": 1582,
      "suae": 1583,
      "##ach": 1584,
      "videtur": 1585,
      "##ales": 1586,
      "pertin": 1587,
      "##ento": 1588,
      "fut": 1589,
      "contr": 1590,
      "##imon": 1591,
      "terr": 1592,
      "ha": 1593,
      "ult": 1594,
      "cal": 1595,
      "mens": 1596,
      "##abit": 1597,
      "##amn": 1598,
      "##erd": 1599,
      "natura": 1600,
      "huius": 1601,
      "eccles": 1602,
      "val": 1603,
      "##min": 1604,
      "liber": 1605,
      "bell": 1606,
      "##inam": 1607,
      "advers": 1608,
      "not": 1609,
      "gener": 1610,
      "aequ": 1611,
      "ing": 1612,
      "Prae": 1613,
      "##liqu": 1614,
      "univers": 1615,
      "##vert": 1616,
      "Spir": 1617,
      "parte": 1618,
      "illo": 1619,
      "##ianus": 1620,
      "public": 1621,
      "mea": 1622,
      "rect": 1623,
      "##terea": 1624,
      "##edit": 1625,
      "diff": 1626,
      "homines": 1627,
      "omni": 1628,
      "nomine": 1629,
      "hac": 1630,
      "saec": 1631,
      "loco": 1632,
      "Per": 1633,
      "prov": 1634,
      "##ilius": 1635,
      "ista": 1636,
      "facit": 1637,
      "##ath": 1638,
      "possit": 1639,
      "propr": 1640,
      "hanc": 1641,
      "At": 1642,
      "divers": 1643,
      "mut": 1644,
      "##oph": 1645,
      "##adem": 1646,
      "cast": 1647,
      "habere": 1648,
      "prius": 1649,
      "##arium": 1650,
      "##iorum": 1651,
      "nem": 1652,
      "rerum": 1653,
      "hominis": 1654,
      "##eper": 1655,
      "##itudo": 1656,
      "##ros": 1657,
      "ph": 1658,
      "Christo": 1659,
      "mand": 1660,
      "perm": 1661,
      "le": 1662,
      "dei": 1663,
      "spiritu": 1664,
      "idest": 1665,
      "Jo": 1666,
      "met": 1667,
      "##iles": 1668,
      "aliis": 1669,
      "dicens": 1670,
      "ch": 1671,
      "##ionibus": 1672,
      "##uerit": 1673,
      "##ifest": 1674,
      "prod": 1675,
      "##erem": 1676,
      "peccatum": 1677,
      "mun": 1678,
      "fieri": 1679,
      "Pa": 1680,
      "fug": 1681,
      "sae": 1682,
      "##dum": 1683,
      "Cor": 1684,
      "##ric": 1685,
      "amb": 1686,
      "filius": 1687,
      "praeter": 1688,
      "plac": 1689,
      "doct": 1690,
      "Dig": 1691,
      "##reh": 1692,
      "ipsi": 1693,
      "att": 1694,
      "dim": 1695,
      "fecit": 1696,
      "##itiam": 1697,
      "##ante": 1698,
      "##gu": 1699,
      "hominem": 1700,
      "unus": 1701,
      "hominum": 1702,
      "discip": 1703,
      "nostra": 1704,
      "##imum": 1705,
      "port": 1706,
      "Aug": 1707,
      "litter": 1708,
      "arm": 1709,
      "##alia": 1710,
      "pac": 1711,
      "##bid": 1712,
      "praed": 1713,
      "##udae": 1714,
      "sacerd": 1715,
      "coel": 1716,
      "circum": 1717,
      "Mat": 1718,
      "Ant": 1719,
      "conven": 1720,
      "damn": 1721,
      "dub": 1722,
      "cetera": 1723,
      "III": 1724,
      "Christum": 1725,
      "##lib": 1726,
      "ass": 1727,
      "minus": 1728,
      "##andi": 1729,
      "ev": 1730,
      "cel": 1731,
      "eadem": 1732,
      "iter": 1733,
      "perc": 1734,
      "adhuc": 1735,
      "corporis": 1736,
      "gratia": 1737,
      "##eres": 1738,
      "quomodo": 1739,
      "appell": 1740,
      "##cce": 1741,
      "manifest": 1742,
      "Ab": 1743,
      "##erant": 1744,
      "duo": 1745,
      "utrum": 1746,
      "dominus": 1747,
      "13": 1748,
      "Hoc": 1749,
      "exist": 1750,
      "tempus": 1751,
      "rebus": 1752,
      "stud": 1753,
      "##icus": 1754,
      "##iab": 1755,
      "dies": 1756,
      "bona": 1757,
      "stat": 1758,
      "spiritus": 1759,
      "fuisse": 1760,
      "quorum": 1761,
      "art": 1762,
      "##alibus": 1763,
      "sept": 1764,
      "Am": 1765,
      "merit": 1766,
      "14": 1767,
      "Psal": 1768,
      "plen": 1769,
      "ostend": 1770,
      "Praeterea": 1771,
      "det": 1772,
      "coll": 1773,
      "posse": 1774,
      "##str": 1775,
      "itaque": 1776,
      "facere": 1777,
      "corpore": 1778,
      "##itiae": 1779,
      "illius": 1780,
      "muli": 1781,
      "rei": 1782,
      "fidem": 1783,
      "exs": 1784,
      "15": 1785,
      "##ecund": 1786,
      "hujus": 1787,
      "dicere": 1788,
      "dict": 1789,
      "uol": 1790,
      "##ani": 1791,
      "##ico": 1792,
      "##uo": 1793,
      "cunct": 1794,
      "memor": 1795,
      "##ulit": 1796,
      "Ma": 1797,
      "equ": 1798,
      "erant": 1799,
      "##urum": 1800,
      "##icae": 1801,
      "##mo": 1802,
      "for": 1803,
      "August": 1804,
      "##ilio": 1805,
      "ipsius": 1806,
      "gaud": 1807,
      "no": 1808,
      "##ima": 1809,
      "desc": 1810,
      "en": 1811,
      "licet": 1812,
      "terram": 1813,
      "inn": 1814,
      "facta": 1815,
      "inde": 1816,
      "nulla": 1817,
      "##..": 1818,
      "##utus": 1819,
      "Ita": 1820,
      "alt": 1821,
      "factum": 1822,
      "redd": 1823,
      "Il": 1824,
      "reliqu": 1825,
      "##ientes": 1826,
      "##ebr": 1827,
      "Domino": 1828,
      "pater": 1829,
      "##itudine": 1830,
      "ordin": 1831,
      "multa": 1832,
      "aper": 1833,
      "alien": 1834,
      "##asse": 1835,
      "vita": 1836,
      "##modi": 1837,
      "##aes": 1838,
      "trad": 1839,
      "Matth": 1840,
      "fit": 1841,
      "err": 1842,
      "circa": 1843,
      "ratione": 1844,
      "Mar": 1845,
      "add": 1846,
      "ped": 1847,
      "auctor": 1848,
      "miseric": 1849,
      "##ebatur": 1850,
      "##anda": 1851,
      "off": 1852,
      "##odem": 1853,
      "filii": 1854,
      "comp": 1855,
      "cujus": 1856,
      "cust": 1857,
      "consul": 1858,
      "satis": 1859,
      "##uen": 1860,
      "propri": 1861,
      "diu": 1862,
      "ir": 1863,
      "##ilem": 1864,
      "nesc": 1865,
      "lum": 1866,
      "##uet": 1867,
      "oportet": 1868,
      "Pet": 1869,
      "exempl": 1870,
      "##prob": 1871,
      "16": 1872,
      "##ulg": 1873,
      "præ": 1874,
      "##eant": 1875,
      "ius": 1876,
      "fidei": 1877,
      "Pro": 1878,
      "opt": 1879,
      "peccat": 1880,
      "##ne": 1881,
      "sermon": 1882,
      "sacram": 1883,
      "quaedam": 1884,
      "##uv": 1885,
      "od": 1886,
      "den": 1887,
      "arbit": 1888,
      "praest": 1889,
      "##yn": 1890,
      "tuum": 1891,
      "gr": 1892,
      "##gress": 1893,
      "possunt": 1894,
      "vi": 1895,
      "Jes": 1896,
      "meum": 1897,
      "soc": 1898,
      "##ationibus": 1899,
      "verum": 1900,
      "fur": 1901,
      "nol": 1902,
      "offic": 1903,
      "opus": 1904,
      "iniqu": 1905,
      "ratio": 1906,
      "##antem": 1907,
      "##onis": 1908,
      "cup": 1909,
      "sangu": 1910,
      "pal": 1911,
      "sacerdot": 1912,
      "##issime": 1913,
      "##ientiam": 1914,
      "quin": 1915,
      "##ane": 1916,
      "corr": 1917,
      "debet": 1918,
      "uen": 1919,
      "##rag": 1920,
      "patr": 1921,
      "hunc": 1922,
      "cord": 1923,
      "praecept": 1924,
      "##erus": 1925,
      "exp": 1926,
      "requ": 1927,
      "scrib": 1928,
      "mov": 1929,
      "##itionem": 1930,
      "lae": 1931,
      "Hi": 1932,
      "maxime": 1933,
      "bapt": 1934,
      "misericord": 1935,
      "propos": 1936,
      "pen": 1937,
      "##antibus": 1938,
      "##iri": 1939,
      "vict": 1940,
      "appar": 1941,
      "##vi": 1942,
      "praecip": 1943,
      "quæ": 1944,
      "##uris": 1945,
      "Dic": 1946,
      "##ice": 1947,
      "omne": 1948,
      "##ilos": 1949,
      "be": 1950,
      "custod": 1951,
      "potius": 1952,
      "quidam": 1953,
      "##libet": 1954,
      "sex": 1955,
      "##ebit": 1956,
      "##rin": 1957,
      "sancti": 1958,
      "##angeli": 1959,
      "ux": 1960,
      "fruct": 1961,
      "##anus": 1962,
      "habent": 1963,
      "capt": 1964,
      "aliqua": 1965,
      "vitae": 1966,
      "##ers": 1967,
      "cul": 1968,
      "Haec": 1969,
      "naturae": 1970,
      "infirm": 1971,
      "Nec": 1972,
      "rationem": 1973,
      "verba": 1974,
      "##uere": 1975,
      "nostri": 1976,
      "inim": 1977,
      "perd": 1978,
      "##lia": 1979,
      "17": 1980,
      "##lud": 1981,
      "##ism": 1982,
      "nim": 1983,
      "mont": 1984,
      "##uisset": 1985,
      "eodem": 1986,
      "##aretur": 1987,
      "##lim": 1988,
      "forte": 1989,
      "locum": 1990,
      "##inct": 1991,
      "##ilosoph": 1992,
      "##issent": 1993,
      "##uf": 1994,
      "quaer": 1995,
      "malum": 1996,
      "lap": 1997,
      "succ": 1998,
      "##sc": 1999,
      "##iliter": 2000,
      "Graec": 2001,
      "Gal": 2002,
      "##urus": 2003,
      "uno": 2004,
      "Secund": 2005,
      "minist": 2006,
      "creatur": 2007,
      "lac": 2008,
      "##istis": 2009,
      "vide": 2010,
      "Ev": 2011,
      "noct": 2012,
      "##icem": 2013,
      "##ario": 2014,
      "##one": 2015,
      "##ecta": 2016,
      "rex": 2017,
      "vult": 2018,
      "Ut": 2019,
      "consc": 2020,
      "Quia": 2021,
      "animae": 2022,
      "##ure": 2023,
      "##ativ": 2024,
      "##ered": 2025,
      "aliquis": 2026,
      "quaest": 2027,
      "deus": 2028,
      "quip": 2029,
      "##atam": 2030,
      "Ang": 2031,
      "##ites": 2032,
      "cruc": 2033,
      "la": 2034,
      "vitam": 2035,
      "Dominum": 2036,
      "##uti": 2037,
      "ostendit": 2038,
      "##iores": 2039,
      "Vid": 2040,
      "##issimum": 2041,
      "18": 2042,
      "##la": 2043,
      "etc": 2044,
      "relig": 2045,
      "filium": 2046,
      "##abant": 2047,
      "##enus": 2048,
      "is": 2049,
      "manus": 2050,
      "Item": 2051,
      "postea": 2052,
      "##abitur": 2053,
      "mortem": 2054,
      "beat": 2055,
      "consequ": 2056,
      "um": 2057,
      "##essit": 2058,
      "Im": 2059,
      "dir": 2060,
      "philosoph": 2061,
      "quippe": 2062,
      "Omn": 2063,
      "##ibile": 2064,
      "##cum": 2065,
      "can": 2066,
      "##itati": 2067,
      "peric": 2068,
      "asc": 2069,
      "sumus": 2070,
      "plus": 2071,
      "##uxta": 2072,
      "##inta": 2073,
      "tuam": 2074,
      "adm": 2075,
      "gratiam": 2076,
      "grav": 2077,
      "epist": 2078,
      "aed": 2079,
      "##atos": 2080,
      "respond": 2081,
      "##yl": 2082,
      "mundi": 2083,
      "genus": 2084,
      "modum": 2085,
      "th": 2086,
      "impl": 2087,
      "intelleg": 2088,
      "##put": 2089,
      "##itione": 2090,
      "alii": 2091,
      "memb": 2092,
      "##ial": 2093,
      "##uri": 2094,
      "pars": 2095,
      "##icam": 2096,
      "##XX": 2097,
      "totum": 2098,
      "congr": 2099,
      "Luc": 2100,
      "puer": 2101,
      "fin": 2102,
      "lic": 2103,
      "##uram": 2104,
      "sequitur": 2105,
      "##erint": 2106,
      "mitt": 2107,
      "aet": 2108,
      "##ung": 2109,
      "Sal": 2110,
      "##abo": 2111,
      "##etis": 2112,
      "pul": 2113,
      "##endam": 2114,
      "##rim": 2115,
      "The": 2116,
      "##xit": 2117,
      "rest": 2118,
      "prima": 2119,
      "pros": 2120,
      "coni": 2121,
      "sust": 2122,
      "##atae": 2123,
      "fund": 2124,
      "##empt": 2125,
      "ignor": 2126,
      "##edi": 2127,
      "fig": 2128,
      "turb": 2129,
      "deinde": 2130,
      "utique": 2131,
      "omnem": 2132,
      "delect": 2133,
      "##itam": 2134,
      "##abilis": 2135,
      "naturam": 2136,
      "##arius": 2137,
      "illam": 2138,
      "diss": 2139,
      "##ulorum": 2140,
      "suos": 2141,
      "agn": 2142,
      "##ientiae": 2143,
      "clam": 2144,
      "animam": 2145,
      "desider": 2146,
      "##rog": 2147,
      "opera": 2148,
      "##uta": 2149,
      "##umus": 2150,
      "Ch": 2151,
      "##modum": 2152,
      "accid": 2153,
      "causam": 2154,
      "dedit": 2155,
      "Script": 2156,
      "conv": 2157,
      "Ne": 2158,
      "Ecclesiae": 2159,
      "19": 2160,
      "tui": 2161,
      "vic": 2162,
      "praem": 2163,
      "pauper": 2164,
      "aest": 2165,
      "hominibus": 2166,
      "##ingu": 2167,
      "##anis": 2168,
      "potentia": 2169,
      "alio": 2170,
      "##con": 2171,
      "uest": 2172,
      "##avi": 2173,
      "##ana": 2174,
      "Caes": 2175,
      "av": 2176,
      "proxim": 2177,
      "crim": 2178,
      "##atores": 2179,
      "pert": 2180,
      "domini": 2181,
      "tuo": 2182,
      "culp": 2183,
      "char": 2184,
      "tamquam": 2185,
      "necesse": 2186,
      "consider": 2187,
      "maj": 2188,
      "20": 2189,
      "##elis": 2190,
      "manu": 2191,
      "magna": 2192,
      "convers": 2193,
      "nemo": 2194,
      "iterum": 2195,
      "##edict": 2196,
      "perven": 2197,
      "##itae": 2198,
      "testimon": 2199,
      "effic": 2200,
      "cond": 2201,
      "finem": 2202,
      "fratres": 2203,
      "##iorem": 2204,
      "virg": 2205,
      "##issima": 2206,
      "Ecclesia": 2207,
      "rev": 2208,
      "##quis": 2209,
      "eg": 2210,
      "##rep": 2211,
      "miss": 2212,
      "simplic": 2213,
      "omnino": 2214,
      "soli": 2215,
      "##plex": 2216,
      "partic": 2217,
      "opin": 2218,
      "##orr": 2219,
      "venit": 2220,
      "##ereb": 2221,
      "nostrum": 2222,
      "##tus": 2223,
      "subj": 2224,
      "##antis": 2225,
      "##icos": 2226,
      "forma": 2227,
      "##antia": 2228,
      "verbum": 2229,
      "##lus": 2230,
      "##issimi": 2231,
      "mar": 2232,
      "cop": 2233,
      "XV": 2234,
      "Post": 2235,
      "##na": 2236,
      "##idem": 2237,
      "##uic": 2238,
      "scriptum": 2239,
      "pauc": 2240,
      "Quae": 2241,
      "regnum": 2242,
      "##arent": 2243,
      "##endere": 2244,
      "##elli": 2245,
      "mei": 2246,
      "magist": 2247,
      "pugn": 2248,
      "arbitr": 2249,
      "demon": 2250,
      "vig": 2251,
      "recip": 2252,
      "Domine": 2253,
      "quot": 2254,
      "##amur": 2255,
      "firm": 2256,
      "##ax": 2257,
      "##lin": 2258,
      "virtus": 2259,
      "quamvis": 2260,
      "sanctus": 2261,
      "meam": 2262,
      "##ano": 2263,
      "Hic": 2264,
      "posset": 2265,
      "prot": 2266,
      "bre": 2267,
      "sin": 2268,
      "Apostol": 2269,
      "terrae": 2270,
      "21": 2271,
      "##itates": 2272,
      "##anum": 2273,
      "ipsis": 2274,
      "Lib": 2275,
      "constitut": 2276,
      "separ": 2277,
      "##ebus": 2278,
      "mer": 2279,
      "##iz": 2280,
      "sper": 2281,
      "##iatur": 2282,
      "mala": 2283,
      "Int": 2284,
      "Spiritus": 2285,
      "##imur": 2286,
      "compar": 2287,
      "meus": 2288,
      "tuae": 2289,
      "orb": 2290,
      "##ypt": 2291,
      "nasc": 2292,
      "praet": 2293,
      "corde": 2294,
      "##erre": 2295,
      "diem": 2296,
      "motus": 2297,
      "dici": 2298,
      "##pret": 2299,
      "##ola": 2300,
      "##emn": 2301,
      "perpet": 2302,
      "dest": 2303,
      "patet": 2304,
      "illos": 2305,
      "tab": 2306,
      "populi": 2307,
      "salv": 2308,
      "Ibid": 2309,
      "doctr": 2310,
      "factus": 2311,
      "##uus": 2312,
      "##utum": 2313,
      "libert": 2314,
      "secundo": 2315,
      "dilect": 2316,
      "##isit": 2317,
      "##dus": 2318,
      "##entus": 2319,
      "##oss": 2320,
      "divina": 2321,
      "##rael": 2322,
      "lege": 2323,
      "partem": 2324,
      "divin": 2325,
      "Pater": 2326,
      "##rorum": 2327,
      "pecun": 2328,
      "carnis": 2329,
      "vinc": 2330,
      "22": 2331,
      "##ilibus": 2332,
      "adj": 2333,
      "Res": 2334,
      "multis": 2335,
      "##erentur": 2336,
      "arc": 2337,
      "meo": 2338,
      "CA": 2339,
      "nostris": 2340,
      "IV": 2341,
      "Io": 2342,
      "profect": 2343,
      "Lat": 2344,
      "subi": 2345,
      "priv": 2346,
      "##ensis": 2347,
      "iste": 2348,
      "##ida": 2349,
      "sil": 2350,
      "gest": 2351,
      "##iora": 2352,
      "##icorum": 2353,
      "prec": 2354,
      "caput": 2355,
      "Israel": 2356,
      "occid": 2357,
      "suffic": 2358,
      "superb": 2359,
      "exter": 2360,
      "mali": 2361,
      "##so": 2362,
      "His": 2363,
      "##iendum": 2364,
      "uerb": 2365,
      "unius": 2366,
      "tac": 2367,
      "##ivit": 2368,
      "##ena": 2369,
      "##issimus": 2370,
      "interpret": 2371,
      "IIae": 2372,
      "diab": 2373,
      "Judae": 2374,
      "##urrect": 2375,
      "cogitat": 2376,
      "dex": 2377,
      "##iret": 2378,
      "##ime": 2379,
      "mol": 2380,
      "23": 2381,
      "Isa": 2382,
      "##iarum": 2383,
      "XI": 2384,
      "24": 2385,
      "templ": 2386,
      "ecce": 2387,
      "antiqu": 2388,
      "episcopus": 2389,
      "uero": 2390,
      "prohib": 2391,
      "fides": 2392,
      "verbis": 2393,
      "provinc": 2394,
      "hos": 2395,
      "aux": 2396,
      "peccata": 2397,
      "tota": 2398,
      "rur": 2399,
      "##alium": 2400,
      "##auit": 2401,
      "##onem": 2402,
      "materia": 2403,
      "Christian": 2404,
      "patris": 2405,
      "nequ": 2406,
      "Mo": 2407,
      "##edere": 2408,
      "##ecit": 2409,
      "actus": 2410,
      "imag": 2411,
      "##abatur": 2412,
      "Paulus": 2413,
      "quat": 2414,
      "ecclesia": 2415,
      "##ene": 2416,
      "potuit": 2417,
      "gloria": 2418,
      "concup": 2419,
      "##elic": 2420,
      "Joan": 2421,
      "##erm": 2422,
      "partes": 2423,
      "sep": 2424,
      "dicat": 2425,
      "perf": 2426,
      "##lam": 2427,
      "opp": 2428,
      "##ioribus": 2429,
      "orat": 2430,
      "pret": 2431,
      "##yst": 2432,
      "hered": 2433,
      "essent": 2434,
      "adul": 2435,
      "##ectu": 2436,
      "noster": 2437,
      "intellectus": 2438,
      "legis": 2439,
      "##ulam": 2440,
      "nullo": 2441,
      "genere": 2442,
      "##athol": 2443,
      "lect": 2444,
      "##ebantur": 2445,
      "aug": 2446,
      "patri": 2447,
      "##averunt": 2448,
      "nob": 2449,
      "aliquando": 2450,
      "iis": 2451,
      "parv": 2452,
      "dev": 2453,
      "##ates": 2454,
      "eas": 2455,
      "saepe": 2456,
      "##eps": 2457,
      "psal": 2458,
      "deo": 2459,
      "accept": 2460,
      "sanctum": 2461,
      "populo": 2462,
      "resurrect": 2463,
      "mart": 2464,
      "##ioni": 2465,
      "uoc": 2466,
      "deum": 2467,
      "nav": 2468,
      "consum": 2469,
      "statim": 2470,
      "aliquo": 2471,
      "dicuntur": 2472,
      "vell": 2473,
      "amp": 2474,
      "fuerat": 2475,
      "appet": 2476,
      "angel": 2477,
      "und": 2478,
      "##uln": 2479,
      "Ul": 2480,
      "##ionum": 2481,
      "nostrae": 2482,
      "apostolus": 2483,
      "##anquam": 2484,
      "populus": 2485,
      "Filius": 2486,
      "25": 2487,
      "CAP": 2488,
      "alic": 2489,
      "##ras": 2490,
      "quad": 2491,
      "anno": 2492,
      "regis": 2493,
      "St": 2494,
      "animo": 2495,
      "##ei": 2496,
      "intra": 2497,
      "##andem": 2498,
      "poenit": 2499,
      "rog": 2500,
      "veritate": 2501,
      "Car": 2502,
      "domum": 2503,
      "fest": 2504,
      "##eros": 2505,
      "lux": 2506,
      "alios": 2507,
      "tres": 2508,
      "##ines": 2509,
      "species": 2510,
      "pertinet": 2511,
      "##itudinis": 2512,
      "boni": 2513,
      "mo": 2514,
      "confess": 2515,
      "prud": 2516,
      "Vers": 2517,
      "substantia": 2518,
      "ingen": 2519,
      "gem": 2520,
      "illic": 2521,
      "dicunt": 2522,
      "conting": 2523,
      "virtute": 2524,
      "gloriam": 2525,
      "domus": 2526,
      "assum": 2527,
      "quodam": 2528,
      "##arem": 2529,
      "legem": 2530,
      "##aem": 2531,
      "##anct": 2532,
      "##issa": 2533,
      "peccato": 2534,
      "uer": 2535,
      "supplic": 2536,
      "laet": 2537,
      "Evangeli": 2538,
      "clar": 2539,
      "piet": 2540,
      "ipsam": 2541,
      "##uos": 2542,
      "indic": 2543,
      "##iit": 2544,
      "tanto": 2545,
      "dep": 2546,
      "##verunt": 2547,
      "tran": 2548,
      "##obus": 2549,
      "##ibilis": 2550,
      "##sis": 2551,
      "vet": 2552,
      "##onum": 2553,
      "recte": 2554,
      "eu": 2555,
      "##eribus": 2556,
      "corpor": 2557,
      "multo": 2558,
      "##arg": 2559,
      "deter": 2560,
      "cas": 2561,
      "corrupt": 2562,
      "compl": 2563,
      "patrem": 2564,
      "##ilii": 2565,
      "sancto": 2566,
      "##prim": 2567,
      "sacri": 2568,
      "sententia": 2569,
      "abst": 2570,
      "Pl": 2571,
      "om": 2572,
      "sollic": 2573,
      "concupisc": 2574,
      "tanta": 2575,
      "##idi": 2576,
      "##yp": 2577,
      "##oth": 2578,
      "aliter": 2579,
      "Num": 2580,
      "##uetud": 2581,
      "quanto": 2582,
      "##ου": 2583,
      "##unti": 2584,
      "hinc": 2585,
      "suas": 2586,
      "##endis": 2587,
      "habeat": 2588,
      "##ulas": 2589,
      "domino": 2590,
      "pont": 2591,
      "##enn": 2592,
      "defin": 2593,
      "labor": 2594,
      "negot": 2595,
      "##avid": 2596,
      "##æc": 2597,
      "male": 2598,
      "huic": 2599,
      "diebus": 2600,
      "vin": 2601,
      "##pens": 2602,
      "##atoris": 2603,
      "benefic": 2604,
      "scel": 2605,
      "##ER": 2606,
      "os": 2607,
      "##eh": 2608,
      "Ies": 2609,
      "bonis": 2610,
      "nostro": 2611,
      "adv": 2612,
      "tuis": 2613,
      "27": 2614,
      "Marc": 2615,
      "adversus": 2616,
      "Ip": 2617,
      "accus": 2618,
      "Cont": 2619,
      "nullus": 2620,
      "##pectu": 2621,
      "##atorem": 2622,
      "honor": 2623,
      "libro": 2624,
      "Augustinus": 2625,
      "dicta": 2626,
      "Cl": 2627,
      "##ioc": 2628,
      "Deinde": 2629,
      "filio": 2630,
      "##omn": 2631,
      "ore": 2632,
      "##urae": 2633,
      "VI": 2634,
      "integ": 2635,
      "##ru": 2636,
      "##arii": 2637,
      "ration": 2638,
      "mortis": 2639,
      "condit": 2640,
      "28": 2641,
      "26": 2642,
      "##ariis": 2643,
      "ct": 2644,
      "##eatur": 2645,
      "##cumque": 2646,
      "Quis": 2647,
      "suscip": 2648,
      "29": 2649,
      "nar": 2650,
      "##ον": 2651,
      "##iuntur": 2652,
      "##ete": 2653,
      "ini": 2654,
      "scrip": 2655,
      "certe": 2656,
      "##umb": 2657,
      "viri": 2658,
      "alius": 2659,
      "ard": 2660,
      "##ecut": 2661,
      "##ech": 2662,
      "pleb": 2663,
      "conj": 2664,
      "infin": 2665,
      "caeter": 2666,
      "fem": 2667,
      "aedific": 2668,
      "possess": 2669,
      "haeret": 2670,
      "por": 2671,
      "bl": 2672,
      "medio": 2673,
      "populum": 2674,
      "As": 2675,
      "cogit": 2676,
      "spiritum": 2677,
      "filios": 2678,
      "mentis": 2679,
      "##andam": 2680,
      "Est": 2681,
      "namque": 2682,
      "obl": 2683,
      "glad": 2684,
      "##aus": 2685,
      "existim": 2686,
      "David": 2687,
      "##amp": 2688,
      "quare": 2689,
      "similiter": 2690,
      "##oria": 2691,
      "rad": 2692,
      "##rus": 2693,
      "rap": 2694,
      "audi": 2695,
      "reper": 2696,
      "oct": 2697,
      "aqua": 2698,
      "corpora": 2699,
      "##modo": 2700,
      "iu": 2701,
      "qc": 2702,
      "sensus": 2703,
      "Quam": 2704,
      "##eph": 2705,
      "##ard": 2706,
      "##requ": 2707,
      "specie": 2708,
      "proced": 2709,
      "morte": 2710,
      "##ulae": 2711,
      "habit": 2712,
      "##ertur": 2713,
      "cathol": 2714,
      "malo": 2715,
      "dico": 2716,
      "huiusmodi": 2717,
      "peccati": 2718,
      "tent": 2719,
      "sola": 2720,
      "cad": 2721,
      "myst": 2722,
      "##atorum": 2723,
      "##ide": 2724,
      "expos": 2725,
      "##ulli": 2726,
      "Aeg": 2727,
      "homine": 2728,
      "loquitur": 2729,
      "tract": 2730,
      "carnem": 2731,
      "famili": 2732,
      "hi": 2733,
      "##ota": 2734,
      "temporis": 2735,
      "seu": 2736,
      "animi": 2737,
      "##ictum": 2738,
      "Joann": 2739,
      "elect": 2740,
      "##anti": 2741,
      "tit": 2742,
      "ads": 2743,
      "##press": 2744,
      "baptiz": 2745,
      "quidquid": 2746,
      "inm": 2747,
      "on": 2748,
      "##ich": 2749,
      "confirm": 2750,
      "Iª": 2751,
      "son": 2752,
      "caelest": 2753,
      "cess": 2754,
      "Secundo": 2755,
      "##idum": 2756,
      "principium": 2757,
      "Iudae": 2758,
      "XXX": 2759,
      "Ego": 2760,
      "ignis": 2761,
      "praef": 2762,
      "##esb": 2763,
      "cult": 2764,
      "##ons": 2765,
      "Primo": 2766,
      "##abile": 2767,
      "##amen": 2768,
      "Sicut": 2769,
      "30": 2770,
      "regem": 2771,
      "lev": 2772,
      "relinqu": 2773,
      "##red": 2774,
      "##entius": 2775,
      "##omm": 2776,
      "syn": 2777,
      "merc": 2778,
      "##US": 2779,
      "sanctorum": 2780,
      "fortun": 2781,
      "unam": 2782,
      "cens": 2783,
      "iub": 2784,
      "##itium": 2785,
      "cib": 2786,
      "sustin": 2787,
      "##ute": 2788,
      "##uerat": 2789,
      "quaes": 2790,
      "fo": 2791,
      "adi": 2792,
      "##erium": 2793,
      "##ago": 2794,
      "solus": 2795,
      "##erusalem": 2796,
      "##αι": 2797,
      "numero": 2798,
      "intr": 2799,
      "Ecce": 2800,
      "veter": 2801,
      "##antium": 2802,
      "frequ": 2803,
      "numquam": 2804,
      "nullum": 2805,
      "subd": 2806,
      "gentes": 2807,
      "oculos": 2808,
      "spect": 2809,
      "oculis": 2810,
      "tanquam": 2811,
      "bib": 2812,
      "virtutem": 2813,
      "tertium": 2814,
      "##iamus": 2815,
      "requir": 2816,
      "adf": 2817,
      "sacrific": 2818,
      "actu": 2819,
      "impet": 2820,
      "longe": 2821,
      "diffic": 2822,
      "toll": 2823,
      "indign": 2824,
      "ren": 2825,
      "observ": 2826,
      "ponit": 2827,
      "vestra": 2828,
      "annis": 2829,
      "Tert": 2830,
      "dulc": 2831,
      "VII": 2832,
      "##ones": 2833,
      "spirit": 2834,
      "##aph": 2835,
      "incip": 2836,
      "faci": 2837,
      "interrog": 2838,
      "melius": 2839,
      "##su": 2840,
      "alterum": 2841,
      "##ientem": 2842,
      "##issimo": 2843,
      "mundo": 2844,
      "differ": 2845,
      "auf": 2846,
      "extra": 2847,
      "##uam": 2848,
      "Ulp": 2849,
      "Par": 2850,
      "bellum": 2851,
      "multip": 2852,
      "cant": 2853,
      "##ilitatem": 2854,
      "Id": 2855,
      "##ribus": 2856,
      "congreg": 2857,
      "urbem": 2858,
      "intent": 2859,
      "##egor": 2860,
      "Verb": 2861,
      "testam": 2862,
      "vera": 2863,
      "Ulpianus": 2864,
      "exhib": 2865,
      "##ruct": 2866,
      "tribus": 2867,
      "Abrah": 2868,
      "quic": 2869,
      "amplius": 2870,
      "##ev": 2871,
      "nub": 2872,
      "juxta": 2873,
      "toto": 2874,
      "ordinem": 2875,
      "orn": 2876,
      "Man": 2877,
      "exper": 2878,
      "uos": 2879,
      "carne": 2880,
      "locus": 2881,
      "subs": 2882,
      "meli": 2883,
      "annos": 2884,
      "##atibus": 2885,
      "Aegypt": 2886,
      "caro": 2887,
      "##admodum": 2888,
      "etsi": 2889,
      "Constant": 2890,
      "lex": 2891,
      "exig": 2892,
      "##ipot": 2893,
      "coram": 2894,
      "nondum": 2895,
      "Imper": 2896,
      "Reg": 2897,
      "dicimus": 2898,
      "Respon": 2899,
      "flag": 2900,
      "##olum": 2901,
      "##all": 2902,
      "salutem": 2903,
      "talis": 2904,
      "velut": 2905,
      "##emur": 2906,
      "Sanct": 2907,
      "formam": 2908,
      "uti": 2909,
      "##acta": 2910,
      "##usc": 2911,
      "profic": 2912,
      "lign": 2913,
      "##ido": 2914,
      "vere": 2915,
      "##atim": 2916,
      "##iva": 2917,
      "divis": 2918,
      "absol": 2919,
      "fiat": 2920,
      "obi": 2921,
      "##unquam": 2922,
      "somn": 2923,
      "Ali": 2924,
      "trium": 2925,
      "##enis": 2926,
      "##itatibus": 2927,
      "##ientibus": 2928,
      "dominum": 2929,
      "gratiae": 2930,
      "##ecim": 2931,
      "##ella": 2932,
      "##atuor": 2933,
      "##exand": 2934,
      "sapientia": 2935,
      "mans": 2936,
      "discipl": 2937,
      "multi": 2938,
      "##inibus": 2939,
      "##abunt": 2940,
      "teneb": 2941,
      "patre": 2942,
      "obt": 2943,
      "vac": 2944,
      "persona": 2945,
      "convert": 2946,
      "Cap": 2947,
      "Ven": 2948,
      "multum": 2949,
      "propria": 2950,
      "##quidem": 2951,
      "statu": 2952,
      "inferi": 2953,
      "inquantum": 2954,
      "inj": 2955,
      "possid": 2956,
      "generis": 2957,
      "mente": 2958,
      "estis": 2959,
      "##escit": 2960,
      "##elicet": 2961,
      "fab": 2962,
      "virtutis": 2963,
      "Vel": 2964,
      "tuus": 2965,
      "cordis": 2966,
      "dispos": 2967,
      "trist": 2968,
      "occas": 2969,
      "vix": 2970,
      "##TI": 2971,
      "##urb": 2972,
      "postquam": 2973,
      "subt": 2974,
      "praeb": 2975,
      "institut": 2976,
      "fuerint": 2977,
      "via": 2978,
      "extrem": 2979,
      "honest": 2980,
      "sententiam": 2981,
      "tria": 2982,
      "Gen": 2983,
      "dat": 2984,
      "orig": 2985,
      "compos": 2986,
      "##uxit": 2987,
      "##eunt": 2988,
      "humana": 2989,
      "##endus": 2990,
      "Eth": 2991,
      "Ep": 2992,
      "alterius": 2993,
      "##itibus": 2994,
      "ibid": 2995,
      "septem": 2996,
      "jus": 2997,
      "ordine": 2998,
      "##au": 2999,
      "32": 3000,
      "##uro": 3001,
      "duobus": 3002,
      "cod": 3003,
      "##rehend": 3004,
      "##ma": 3005,
      "quinque": 3006,
      "CJ": 3007,
      "##eron": 3008,
      "inh": 3009,
      "determin": 3010,
      "suorum": 3011,
      "homini": 3012,
      "potestate": 3013,
      "mare": 3014,
      "fuerunt": 3015,
      "mundum": 3016,
      "aduer": 3017,
      "##yter": 3018,
      "postul": 3019,
      "##idie": 3020,
      "##acob": 3021,
      "sor": 3022,
      "##num": 3023,
      "divinae": 3024,
      "natus": 3025,
      "##idia": 3026,
      "##dict": 3027,
      "erunt": 3028,
      "VIII": 3029,
      "##ara": 3030,
      "facile": 3031,
      "dixi": 3032,
      "Ac": 3033,
      "meis": 3034,
      "decem": 3035,
      "item": 3036,
      "vox": 3037,
      "hod": 3038,
      "donec": 3039,
      "nostram": 3040,
      "##te": 3041,
      "flum": 3042,
      "app": 3043,
      "sermo": 3044,
      "seip": 3045,
      "peccatorum": 3046,
      "31": 3047,
      "mors": 3048,
      "##emor": 3049,
      "##averit": 3050,
      "Alexand": 3051,
      "mox": 3052,
      "##tu": 3053,
      "propheta": 3054,
      "##verit": 3055,
      "occult": 3056,
      "##uda": 3057,
      "caelo": 3058,
      "##exit": 3059,
      "coelest": 3060,
      "totius": 3061,
      "##abili": 3062,
      "vuln": 3063,
      "potestatem": 3064,
      "##iantur": 3065,
      "quemadmodum": 3066,
      "consist": 3067,
      "tempor": 3068,
      "Vir": 3069,
      "finis": 3070,
      "##ioris": 3071,
      "constant": 3072,
      "monast": 3073,
      "defic": 3074,
      "aestim": 3075,
      "mend": 3076,
      "domo": 3077,
      "sab": 3078,
      "amic": 3079,
      "refer": 3080,
      "dimitt": 3081,
      "aeg": 3082,
      "consuetud": 3083,
      "agnosc": 3084,
      "##ilitas": 3085,
      "felic": 3086,
      "nut": 3087,
      "ling": 3088,
      "Filium": 3089,
      "innoc": 3090,
      "abund": 3091,
      "##olus": 3092,
      "inp": 3093,
      "consec": 3094,
      "aliquod": 3095,
      "33": 3096,
      "Tunc": 3097,
      "tut": 3098,
      "##iente": 3099,
      "bono": 3100,
      "##eth": 3101,
      "ori": 3102,
      "summa": 3103,
      "##ecti": 3104,
      "##esbyter": 3105,
      "##ares": 3106,
      "inu": 3107,
      "eloqu": 3108,
      "iudicium": 3109,
      "multiplic": 3110,
      "##ilitate": 3111,
      "##ensum": 3112,
      "##ecto": 3113,
      "operibus": 3114,
      "opere": 3115,
      "metu": 3116,
      "cuncta": 3117,
      "quatuor": 3118,
      "caelum": 3119,
      "trah": 3120,
      "vers": 3121,
      "singul": 3122,
      "voluntas": 3123,
      "manum": 3124,
      "denique": 3125,
      "Gregor": 3126,
      "scientia": 3127,
      "Apostolus": 3128,
      "usus": 3129,
      "misit": 3130,
      "ses": 3131,
      "membra": 3132,
      "##iano": 3133,
      "##iore": 3134,
      "##gressus": 3135,
      "commend": 3136,
      "##nic": 3137,
      "speciem": 3138,
      "voluntate": 3139,
      "##entorum": 3140,
      "##itionis": 3141,
      "aliquam": 3142,
      "fra": 3143,
      "primus": 3144,
      "quibusdam": 3145,
      "ambul": 3146,
      "tribun": 3147,
      "40": 3148,
      "all": 3149,
      "occup": 3150,
      "Angel": 3151,
      "veritatem": 3152,
      "habuit": 3153,
      "Trin": 3154,
      "voluntatem": 3155,
      "agit": 3156,
      "po": 3157,
      "Heb": 3158,
      "##asset": 3159,
      "##umn": 3160,
      "faciunt": 3161,
      "uirt": 3162,
      "##erio": 3163,
      "ultra": 3164,
      "poena": 3165,
      "tertio": 3166,
      "\\'": 3167,
      "Af": 3168,
      "past": 3169,
      "Ethic": 3170,
      "##ensi": 3171,
      "manibus": 3172,
      "pol": 3173,
      "faciem": 3174,
      "alias": 3175,
      "possumus": 3176,
      "##edic": 3177,
      "proprium": 3178,
      "cupid": 3179,
      "##abis": 3180,
      "##LI": 3181,
      "admon": 3182,
      "##aginta": 3183,
      "desid": 3184,
      "##ostoli": 3185,
      "locis": 3186,
      "##ria": 3187,
      "particip": 3188,
      "accepit": 3189,
      "dare": 3190,
      "fat": 3191,
      "##iosa": 3192,
      "disput": 3193,
      "##gred": 3194,
      "##pterea": 3195,
      "##ti": 3196,
      "sanguine": 3197,
      "significat": 3198,
      "##uros": 3199,
      "rursus": 3200,
      "duplic": 3201,
      "##erta": 3202,
      "##ratus": 3203,
      "pariter": 3204,
      "principio": 3205,
      "omnipot": 3206,
      "pron": 3207,
      "utrumque": 3208,
      "##uimus": 3209,
      "##olis": 3210,
      "nocte": 3211,
      "##eta": 3212,
      "Le": 3213,
      "demonstr": 3214,
      "Mart": 3215,
      "arma": 3216,
      "hor": 3217,
      "plures": 3218,
      "indig": 3219,
      "stult": 3220,
      "sur": 3221,
      "##acula": 3222,
      "##utis": 3223,
      "##iderunt": 3224,
      "uolunt": 3225,
      "##eram": 3226,
      "##uat": 3227,
      "rum": 3228,
      "35": 3229,
      "bonorum": 3230,
      "tor": 3231,
      "##eas": 3232,
      "agere": 3233,
      "consilium": 3234,
      "alium": 3235,
      "transf": 3236,
      "duas": 3237,
      "IIª": 3238,
      "##ga": 3239,
      "pedes": 3240,
      "##item": 3241,
      "meae": 3242,
      "frater": 3243,
      "umb": 3244,
      "##issimis": 3245,
      "larg": 3246,
      "Patre": 3247,
      "Neque": 3248,
      "monach": 3249,
      "##rahel": 3250,
      "nunt": 3251,
      "##ituit": 3252,
      "34": 3253,
      "38": 3254,
      "qual": 3255,
      "iure": 3256,
      "fall": 3257,
      "pacem": 3258,
      "coron": 3259,
      "##arentur": 3260,
      "##uas": 3261,
      "obsc": 3262,
      "##pp": 3263,
      "Dicit": 3264,
      "aus": 3265,
      "Br": 3266,
      "contempl": 3267,
      "quisque": 3268,
      "##itor": 3269,
      "##irco": 3270,
      "##egit": 3271,
      "##actus": 3272,
      "merito": 3273,
      "videlicet": 3274,
      "##angel": 3275,
      "adeo": 3276,
      "43": 3277,
      "illorum": 3278,
      "pur": 3279,
      "##enim": 3280,
      "ira": 3281,
      "##imis": 3282,
      "exst": 3283,
      "poterit": 3284,
      "##arb": 3285,
      "XII": 3286,
      "presbyter": 3287,
      "lumen": 3288,
      "##ce": 3289,
      "##ides": 3290,
      "apt": 3291,
      "pati": 3292,
      "testimonium": 3293,
      "##piter": 3294,
      "nunquam": 3295,
      "volupt": 3296,
      "##uisti": 3297,
      "fidel": 3298,
      "retin": 3299,
      "viam": 3300,
      "signa": 3301,
      "expl": 3302,
      "sancta": 3303,
      "##ittit": 3304,
      "pun": 3305,
      "design": 3306,
      "divid": 3307,
      "##ixit": 3308,
      "39": 3309,
      "animum": 3310,
      "##circo": 3311,
      "ment": 3312,
      "##rius": 3313,
      "argum": 3314,
      "term": 3315,
      "Contra": 3316,
      "malis": 3317,
      "LXX": 3318,
      "Theod": 3319,
      "veritatis": 3320,
      "Jesu": 3321,
      "uobis": 3322,
      "fine": 3323,
      "Gl": 3324,
      "absque": 3325,
      "mori": 3326,
      "ador": 3327,
      "##oni": 3328,
      "scire": 3329,
      "praedict": 3330,
      "cura": 3331,
      "dorm": 3332,
      "##ebunt": 3333,
      "praesum": 3334,
      "##iebat": 3335,
      "datur": 3336,
      "regni": 3337,
      "fuisset": 3338,
      "flam": 3339,
      "nupt": 3340,
      "medium": 3341,
      "##aculum": 3342,
      "##itos": 3343,
      "diximus": 3344,
      "Val": 3345,
      "nonn": 3346,
      "##abantur": 3347,
      "expon": 3348,
      "poterat": 3349,
      "intellectu": 3350,
      "##libus": 3351,
      "hodie": 3352,
      "36": 3353,
      "Israhel": 3354,
      "castra": 3355,
      "Circ": 3356,
      "##lium": 3357,
      "Patris": 3358,
      "##....": 3359,
      "Hisp": 3360,
      "##atas": 3361,
      "##asti": 3362,
      "caec": 3363,
      "ipsos": 3364,
      "cern": 3365,
      "Quo": 3366,
      "similitudinem": 3367,
      "magnum": 3368,
      "dia": 3369,
      "solis": 3370,
      "##eamus": 3371,
      "Chr": 3372,
      "filiis": 3373,
      "##to": 3374,
      "##ει": 3375,
      "cec": 3376,
      "pud": 3377,
      "signum": 3378,
      "##err": 3379,
      "promiss": 3380,
      "marty": 3381,
      "uiu": 3382,
      "##cis": 3383,
      "fideli": 3384,
      "##ania": 3385,
      "Jesus": 3386,
      "gentium": 3387,
      "##uctus": 3388,
      "earum": 3389,
      "excus": 3390,
      "actum": 3391,
      "diceret": 3392,
      "##lo": 3393,
      "Romani": 3394,
      "stip": 3395,
      "essentia": 3396,
      "capit": 3397,
      "##olo": 3398,
      "##ων": 3399,
      "aliam": 3400,
      "##lis": 3401,
      "Eph": 3402,
      "font": 3403,
      "Ag": 3404,
      "##enum": 3405,
      "##erius": 3406,
      "descend": 3407,
      "imped": 3408,
      "pect": 3409,
      "##etip": 3410,
      "##iori": 3411,
      "Itaque": 3412,
      "faciat": 3413,
      "ciu": 3414,
      "amore": 3415,
      "xx": 3416,
      "praepar": 3417,
      "##idis": 3418,
      "uis": 3419,
      "virtutes": 3420,
      "isti": 3421,
      "minime": 3422,
      "consol": 3423,
      "vener": 3424,
      "saeculi": 3425,
      "##inas": 3426,
      "siue": 3427,
      "veh": 3428,
      "brev": 3429,
      "Bapt": 3430,
      "dur": 3431,
      "secret": 3432,
      "perse": 3433,
      "invicem": 3434,
      "tol": 3435,
      "accep": 3436,
      "##iper": 3437,
      "##escere": 3438,
      "dux": 3439,
      "benedict": 3440,
      "antequam": 3441,
      "misericordia": 3442,
      "tempora": 3443,
      "##iæ": 3444,
      "duos": 3445,
      "temper": 3446,
      "tribul": 3447,
      "tri": 3448,
      "##ationi": 3449,
      "##ej": 3450,
      "##gredi": 3451,
      "##eruntur": 3452,
      "crud": 3453,
      "viol": 3454,
      "abb": 3455,
      "fructus": 3456,
      "iniur": 3457,
      "##ef": 3458,
      "41": 3459,
      "##ustra": 3460,
      "##idus": 3461,
      "persecut": 3462,
      "judicium": 3463,
      "exemplum": 3464,
      "respondit": 3465,
      "horum": 3466,
      "suff": 3467,
      "Pom": 3468,
      "procul": 3469,
      "litteris": 3470,
      "Verbum": 3471,
      "inuen": 3472,
      "confit": 3473,
      "##ortun": 3474,
      "##VI": 3475,
      "Patrem": 3476,
      "proprie": 3477,
      "haud": 3478,
      "Inter": 3479,
      "verbo": 3480,
      "locutus": 3481,
      "37": 3482,
      "nomina": 3483,
      "exspect": 3484,
      "Nunc": 3485,
      "deos": 3486,
      "quar": 3487,
      "videre": 3488,
      "tandem": 3489,
      "##ense": 3490,
      "sese": 3491,
      "##lum": 3492,
      "##icumque": 3493,
      "hort": 3494,
      "quint": 3495,
      "lingu": 3496,
      "auctoritate": 3497,
      "celebr": 3498,
      "Sim": 3499,
      "50": 3500,
      "##rehens": 3501,
      "sanctis": 3502,
      "rob": 3503,
      "##RI": 3504,
      "##mus": 3505,
      "voluit": 3506,
      "hist": 3507,
      "voce": 3508,
      "##ract": 3509,
      "##eperit": 3510,
      "##essus": 3511,
      "##iani": 3512,
      "##endae": 3513,
      "##quir": 3514,
      "##eam": 3515,
      "bello": 3516,
      "fa": 3517,
      "distinct": 3518,
      "Ubi": 3519,
      "mendac": 3520,
      "adhib": 3521,
      "conss": 3522,
      "humanae": 3523,
      "data": 3524,
      "aeternum": 3525,
      "##verat": 3526,
      "coh": 3527,
      "sensu": 3528,
      "virum": 3529,
      "mulier": 3530,
      "induc": 3531,
      "magno": 3532,
      "possint": 3533,
      "compet": 3534,
      "##UT": 3535,
      "lud": 3536,
      "dixerunt": 3537,
      "##ienter": 3538,
      "lingua": 3539,
      "partibus": 3540,
      "insid": 3541,
      "urbe": 3542,
      "sort": 3543,
      "Maxim": 3544,
      "##ationum": 3545,
      "ub": 3546,
      "##epta": 3547,
      "##etus": 3548,
      "veritas": 3549,
      "frig": 3550,
      "##antiam": 3551,
      "##ote": 3552,
      "Act": 3553,
      "abscon": 3554,
      "praecepta": 3555,
      "iac": 3556,
      "ponitur": 3557,
      "peccatis": 3558,
      "elig": 3559,
      "Hinc": 3560,
      "urbis": 3561,
      "cub": 3562,
      "beati": 3563,
      "adulter": 3564,
      "42": 3565,
      "Tu": 3566,
      "matr": 3567,
      "baptism": 3568,
      "pereg": 3569,
      "ole": 3570,
      "sensum": 3571,
      "captiv": 3572,
      "##aquam": 3573,
      "vindic": 3574,
      "purg": 3575,
      "episcopi": 3576,
      "##uers": 3577,
      "##strat": 3578,
      "proeli": 3579,
      "repet": 3580,
      "Salv": 3581,
      "spem": 3582,
      "sanctific": 3583,
      "cunctis": 3584,
      "sublim": 3585,
      "Ecclesiam": 3586,
      "subdit": 3587,
      "perfic": 3588,
      "necessitate": 3589,
      "accipere": 3590,
      "collig": 3591,
      "##idium": 3592,
      "der": 3593,
      "##nam": 3594,
      "##ps": 3595,
      "bonus": 3596,
      "##andis": 3597,
      "spes": 3598,
      "Tim": 3599,
      "Verum": 3600,
      "ov": 3601,
      "ulla": 3602,
      "consilio": 3603,
      "manduc": 3604,
      "##eus": 3605,
      "rever": 3606,
      "##eperunt": 3607,
      "fraud": 3608,
      "vocem": 3609,
      "perman": 3610,
      "Moys": 3611,
      "temporibus": 3612,
      "secum": 3613,
      "exercitus": 3614,
      "habens": 3615,
      "44": 3616,
      "depr": 3617,
      "respic": 3618,
      "##abilem": 3619,
      "ascend": 3620,
      "simpliciter": 3621,
      "##etum": 3622,
      "##ierunt": 3623,
      "##ientis": 3624,
      "senatus": 3625,
      "defect": 3626,
      "constitu": 3627,
      "##queb": 3628,
      "suspic": 3629,
      "##arn": 3630,
      "##ela": 3631,
      "vert": 3632,
      "fiunt": 3633,
      "intellectum": 3634,
      "semel": 3635,
      "Mac": 3636,
      "iuxta": 3637,
      "dext": 3638,
      "aeterna": 3639,
      "milia": 3640,
      "##rump": 3641,
      "constat": 3642,
      "##endas": 3643,
      "Hieron": 3644,
      "ecclesiae": 3645,
      "contemn": 3646,
      "nud": 3647,
      "debemus": 3648,
      "ger": 3649,
      "Met": 3650,
      "provid": 3651,
      "videntur": 3652,
      "success": 3653,
      "pan": 3654,
      "Ath": 3655,
      "occurr": 3656,
      "##uerint": 3657,
      "asper": 3658,
      "Aud": 3659,
      "caeli": 3660,
      "animus": 3661,
      "nox": 3662,
      "##ilitatis": 3663,
      "principes": 3664,
      "substantiam": 3665,
      "idcirco": 3666,
      "exercitu": 3667,
      "##ON": 3668,
      "manifestum": 3669,
      "ferre": 3670,
      "uxorem": 3671,
      "nit": 3672,
      "condic": 3673,
      "dicatur": 3674,
      "percus": 3675,
      "##imi": 3676,
      "secunda": 3677,
      "##ulchr": 3678,
      "45": 3679,
      "Leg": 3680,
      "##mis": 3681,
      "coepit": 3682,
      "convenit": 3683,
      "erud": 3684,
      "futurum": 3685,
      "##anae": 3686,
      "foed": 3687,
      "##itatum": 3688,
      "elem": 3689,
      "duod": 3690,
      "cler": 3691,
      "effectus": 3692,
      "templum": 3693,
      "amor": 3694,
      "Petrus": 3695,
      "gloriae": 3696,
      "animal": 3697,
      "turp": 3698,
      "facult": 3699,
      "cat": 3700,
      "posuit": 3701,
      "affirm": 3702,
      "solv": 3703,
      "incon": 3704,
      "dexter": 3705,
      "##az": 3706,
      "mentem": 3707,
      "commemor": 3708,
      "##men": 3709,
      "operis": 3710,
      "misericordiam": 3711,
      "propterea": 3712,
      "Hieronym": 3713,
      "Quare": 3714,
      "gentibus": 3715,
      "49": 3716,
      "Ben": 3717,
      "##abuntur": 3718,
      "##inop": 3719,
      "obtin": 3720,
      "##greg": 3721,
      "dubit": 3722,
      "defens": 3723,
      "conspectu": 3724,
      "ru": 3725,
      "##itias": 3726,
      "Cur": 3727,
      "##ices": 3728,
      "pasc": 3729,
      "pror": 3730,
      "sacramentum": 3731,
      "CAPUT": 3732,
      "Prop": 3733,
      "##inos": 3734,
      "alb": 3735,
      "salutis": 3736,
      "civitatis": 3737,
      "vim": 3738,
      "ii": 3739,
      "beatus": 3740,
      "voluntatis": 3741,
      "Spiritu": 3742,
      "vidit": 3743,
      "##ni": 3744,
      "conserv": 3745,
      "multos": 3746,
      "##abiliter": 3747,
      "aliquem": 3748,
      "iudicio": 3749,
      "##no": 3750,
      "str": 3751,
      "dig": 3752,
      "singulis": 3753,
      "imperium": 3754,
      "Ist": 3755,
      "prol": 3756,
      "##ejun": 3757,
      "sermone": 3758,
      "fun": 3759,
      "dicam": 3760,
      "condem": 3761,
      "##ivi": 3762,
      "commod": 3763,
      "##ileg": 3764,
      "tradit": 3765,
      "##idic": 3766,
      "##onia": 3767,
      "lun": 3768,
      "hosp": 3769,
      "habetur": 3770,
      "habitat": 3771,
      "##itter": 3772,
      "scripta": 3773,
      "rationis": 3774,
      "##eni": 3775,
      "##lar": 3776,
      "ceteris": 3777,
      "admir": 3778,
      "more": 3779,
      "##ectis": 3780,
      "Abraham": 3781,
      "ot": 3782,
      "Job": 3783,
      "habebat": 3784,
      "pontific": 3785,
      "triumph": 3786,
      "##andus": 3787,
      "exh": 3788,
      "##cip": 3789,
      "ora": 3790,
      "mundus": 3791,
      "Adam": 3792,
      "##esa": 3793,
      "barb": 3794,
      "Phili": 3795,
      "aliorum": 3796,
      "armis": 3797,
      "altera": 3798,
      "daem": 3799,
      "aquae": 3800,
      "uict": 3801,
      "IX": 3802,
      "Videtur": 3803,
      "culpa": 3804,
      "##uae": 3805,
      "revoc": 3806,
      "revel": 3807,
      "hujusmodi": 3808,
      "Qua": 3809,
      "angust": 3810,
      "explic": 3811,
      "desert": 3812,
      "ast": 3813,
      "civitatem": 3814,
      "##ebam": 3815,
      "##eria": 3816,
      "##venit": 3817,
      "resist": 3818,
      "##uras": 3819,
      "facti": 3820,
      "dissim": 3821,
      "causae": 3822,
      "##sec": 3823,
      "##thag": 3824,
      "tali": 3825,
      "nominis": 3826,
      "surg": 3827,
      "Sam": 3828,
      "##arch": 3829,
      "ejusdem": 3830,
      "revert": 3831,
      "##nis": 3832,
      "quandoque": 3833,
      "substantiae": 3834,
      "##ioch": 3835,
      "mortuus": 3836,
      "Ideo": 3837,
      "##va": 3838,
      "imposs": 3839,
      "aa": 3840,
      "aquam": 3841,
      "propon": 3842,
      "debeat": 3843,
      "##ibilia": 3844,
      "contum": 3845,
      "##di": 3846,
      "cand": 3847,
      "officium": 3848,
      "ster": 3849,
      "##otum": 3850,
      "sane": 3851,
      "##VIII": 3852,
      "videatur": 3853,
      "46": 3854,
      "##umque": 3855,
      "futura": 3856,
      "spon": 3857,
      "tabern": 3858,
      "viro": 3859,
      "condemn": 3860,
      "Magn": 3861,
      "##yri": 3862,
      "##αν": 3863,
      "Hab": 3864,
      "##ogn": 3865,
      "##endos": 3866,
      "Idem": 3867,
      "##rac": 3868,
      "persequ": 3869,
      "loqui": 3870,
      "imperator": 3871,
      "regno": 3872,
      "Circa": 3873,
      "totam": 3874,
      "debere": 3875,
      "uerum": 3876,
      "ui": 3877,
      "##eno": 3878,
      "intelligi": 3879,
      "valde": 3880,
      "genera": 3881,
      "##issum": 3882,
      "studio": 3883,
      "nequaquam": 3884,
      "48": 3885,
      "ordo": 3886,
      "virtutum": 3887,
      "pisc": 3888,
      "obed": 3889,
      "communic": 3890,
      "reman": 3891,
      "##idere": 3892,
      "jub": 3893,
      "ecclesiast": 3894,
      "sapientiae": 3895,
      "servi": 3896,
      "tang": 3897,
      "parum": 3898,
      "resp": 3899,
      "credere": 3900,
      "##itit": 3901,
      "hom": 3902,
      "Tertio": 3903,
      "##entu": 3904,
      "infid": 3905,
      "sanguinem": 3906,
      "##entio": 3907,
      "necessaria": 3908,
      "##εν": 3909,
      "infra": 3910,
      "capite": 3911,
      "##igit": 3912,
      "scientiam": 3913,
      "quon": 3914,
      "imb": 3915,
      "transm": 3916,
      "Fl": 3917,
      "Quoniam": 3918,
      "paulo": 3919,
      "jejun": 3920,
      "47": 3921,
      "Anton": 3922,
      "apostoli": 3923,
      "##itiis": 3924,
      "##arios": 3925,
      "penitus": 3926,
      "Spiritum": 3927,
      "nimis": 3928,
      "##erii": 3929,
      "iug": 3930,
      "##icta": 3931,
      "patres": 3932,
      "fals": 3933,
      "prope": 3934,
      "53": 3935,
      "hostium": 3936,
      "Tr": 3937,
      "talia": 3938,
      "sag": 3939,
      "propinqu": 3940,
      "##undum": 3941,
      "Ipse": 3942,
      "Quomodo": 3943,
      "solet": 3944,
      "conced": 3945,
      "quanta": 3946,
      "itin": 3947,
      "publica": 3948,
      "Cons": 3949,
      "quisquam": 3950,
      "accidens": 3951,
      "Antioch": 3952,
      "inquam": 3953,
      "litteras": 3954,
      "praeced": 3955,
      "pu": 3956,
      "acced": 3957,
      "##irent": 3958,
      "fere": 3959,
      "maior": 3960,
      "##aribus": 3961,
      "consumm": 3962,
      "oratio": 3963,
      "belli": 3964,
      "##abula": 3965,
      "##amentum": 3966,
      "numerus": 3967,
      "anni": 3968,
      "fecerit": 3969,
      "honorem": 3970,
      "olim": 3971,
      "epistol": 3972,
      "##atium": 3973,
      "loca": 3974,
      "cit": 3975,
      "##abiles": 3976,
      "Gregorius": 3977,
      "expect": 3978,
      "exclud": 3979,
      "ae": 3980,
      "Or": 3981,
      "##inti": 3982,
      "vas": 3983,
      "spl": 3984,
      "societ": 3985,
      "sumpt": 3986,
      "credit": 3987,
      "creatura": 3988,
      "irr": 3989,
      "profecto": 3990,
      "praev": 3991,
      "usum": 3992,
      "doctrina": 3993,
      "conl": 3994,
      "##ule": 3995,
      "numquid": 3996,
      "abstin": 3997,
      "clem": 3998,
      "similis": 3999,
      "remiss": 4000,
      "##asph": 4001,
      "Jacob": 4002,
      "suscept": 4003,
      "##aur": 4004,
      "pond": 4005,
      "quer": 4006,
      "##ulerunt": 4007,
      "dispens": 4008,
      "##enditur": 4009,
      "spe": 4010,
      "##ravit": 4011,
      "gratias": 4012,
      "##abus": 4013,
      "##olv": 4014,
      "##entiles": 4015,
      "rege": 4016,
      "best": 4017,
      "tenebr": 4018,
      "vehem": 4019,
      "quadam": 4020,
      "##erimus": 4021,
      "camp": 4022,
      "invenitur": 4023,
      "fructum": 4024,
      "intro": 4025,
      "##ος": 4026,
      "ampl": 4027,
      "au": 4028,
      "nef": 4029,
      "##IV": 4030,
      "##uitur": 4031,
      "legit": 4032,
      "virtutibus": 4033,
      "coelo": 4034,
      "memoria": 4035,
      "##quisque": 4036,
      "Romae": 4037,
      "Sap": 4038,
      "mus": 4039,
      "concord": 4040,
      "semetip": 4041,
      "XIII": 4042,
      "confus": 4043,
      "claus": 4044,
      "propriet": 4045,
      "Respondeo": 4046,
      "resurg": 4047,
      "civitate": 4048,
      "sanctae": 4049,
      "huc": 4050,
      "haberet": 4051,
      "matrimon": 4052,
      "Cr": 4053,
      "curr": 4054,
      "vivere": 4055,
      "mari": 4056,
      "ignem": 4057,
      "decret": 4058,
      "ubique": 4059,
      "pacis": 4060,
      "facie": 4061,
      "##yrann": 4062,
      "percip": 4063,
      "fratrem": 4064,
      "patern": 4065,
      "##AN": 4066,
      "ipsorum": 4067,
      "##ittere": 4068,
      "##ariam": 4069,
      "videri": 4070,
      "isto": 4071,
      "humili": 4072,
      "nullam": 4073,
      "##iii": 4074,
      "Jerusalem": 4075,
      "causas": 4076,
      "Amen": 4077,
      "eiusdem": 4078,
      "##οι": 4079,
      "##raque": 4080,
      "judicio": 4081,
      "superius": 4082,
      "praesc": 4083,
      "fuerant": 4084,
      "poenam": 4085,
      "victor": 4086,
      "##yll": 4087,
      "splend": 4088,
      "##aed": 4089,
      "servus": 4090,
      "pag": 4091,
      "plura": 4092,
      "oblig": 4093,
      "interim": 4094,
      "quarum": 4095,
      "##liv": 4096,
      "##asch": 4097,
      "istis": 4098,
      "lucem": 4099,
      "senti": 4100,
      "nescio": 4101,
      "centum": 4102,
      "corn": 4103,
      "numerum": 4104,
      "quart": 4105,
      "calc": 4106,
      "##ive": 4107,
      "honore": 4108,
      "tuos": 4109,
      "tale": 4110,
      "##arunt": 4111,
      "##olog": 4112,
      "termin": 4113,
      "Atque": 4114,
      "##ellis": 4115,
      "##rare": 4116,
      "dicentes": 4117,
      "##VII": 4118,
      "inclin": 4119,
      "tertia": 4120,
      "Sententia": 4121,
      "##essum": 4122,
      "##ista": 4123,
      "naturaliter": 4124,
      "audire": 4125,
      "habitus": 4126,
      "operatur": 4127,
      "Ps": 4128,
      "##EN": 4129,
      "solo": 4130,
      "##ubern": 4131,
      "reges": 4132,
      "praefect": 4133,
      "inop": 4134,
      "lim": 4135,
      "prav": 4136,
      "Ver": 4137,
      "fratribus": 4138,
      "pap": 4139,
      "Nem": 4140,
      "certam": 4141,
      "depos": 4142,
      "pertinent": 4143,
      "pluribus": 4144,
      "consens": 4145,
      "##ialis": 4146,
      "scand": 4147,
      "seru": 4148,
      "##aei": 4149,
      "##iac": 4150,
      "Filii": 4151,
      "contingit": 4152,
      "##otis": 4153,
      "##angu": 4154,
      "##ona": 4155,
      "##ring": 4156,
      "blasph": 4157,
      "arch": 4158,
      "sacr": 4159,
      "##issimam": 4160,
      "Acc": 4161,
      "praecipue": 4162,
      "filiorum": 4163,
      "insign": 4164,
      "Ecc": 4165,
      "indiv": 4166,
      "Ille": 4167,
      "##iosum": 4168,
      "##uissent": 4169,
      "morta": 4170,
      "sch": 4171,
      "##minist": 4172,
      "##atore": 4173,
      "##inianus": 4174,
      "Den": 4175,
      "Sequ": 4176,
      "##τα": 4177,
      "ced": 4178,
      "intus": 4179,
      "tempt": 4180,
      "divinis": 4181,
      "corda": 4182,
      "##uto": 4183,
      "grad": 4184,
      "##ossa": 4185,
      "dixerit": 4186,
      "fav": 4187,
      "qualis": 4188,
      "##eras": 4189,
      "necessarium": 4190,
      "Conc": 4191,
      "cognov": 4192,
      "Nihil": 4193,
      "nulli": 4194,
      "vent": 4195,
      "venire": 4196,
      "na": 4197,
      "##ialiter": 4198,
      "Filio": 4199,
      "tyrann": 4200,
      "timore": 4201,
      "causis": 4202,
      "recept": 4203,
      "##abilia": 4204,
      "videb": 4205,
      "pulchr": 4206,
      "imaginem": 4207,
      "utraque": 4208,
      "igne": 4209,
      "##illa": 4210,
      "prou": 4211,
      "except": 4212,
      "fornic": 4213,
      "mac": 4214,
      "fulg": 4215,
      "quinqu": 4216,
      "##fac": 4217,
      "memin": 4218,
      "debent": 4219,
      "velle": 4220,
      "##olit": 4221,
      "##arus": 4222,
      "ens": 4223,
      "Aut": 4224,
      "##UM": 4225,
      "##psit": 4226,
      "subsist": 4227,
      "##enae": 4228,
      "personae": 4229,
      "synod": 4230,
      "ire": 4231,
      "52": 4232,
      "sempiter": 4233,
      "videt": 4234,
      "obst": 4235,
      "Dec": 4236,
      "intelligere": 4237,
      "excell": 4238,
      "obsequ": 4239,
      "diversa": 4240,
      "##erere": 4241,
      "modis": 4242,
      "remed": 4243,
      "quadrag": 4244,
      "interc": 4245,
      "maris": 4246,
      "quaerit": 4247,
      "Scriptura": 4248,
      "repl": 4249,
      "domine": 4250,
      "publicae": 4251,
      "##erumque": 4252,
      "##amenta": 4253,
      "apparet": 4254,
      "annum": 4255,
      "##erim": 4256,
      "hora": 4257,
      "umquam": 4258,
      "Aqu": 4259,
      "oppos": 4260,
      "##acia": 4261,
      "etenim": 4262,
      "dicis": 4263,
      "sacra": 4264,
      "prem": 4265,
      "exaud": 4266,
      "##ellus": 4267,
      "philosophus": 4268,
      "illumin": 4269,
      "lo": 4270,
      "##ors": 4271,
      "parc": 4272,
      "Ez": 4273,
      "greg": 4274,
      "plag": 4275,
      "scientiae": 4276,
      "mur": 4277,
      "diut": 4278,
      "##elix": 4279,
      "quondam": 4280,
      "animos": 4281,
      "transe": 4282,
      "Bab": 4283,
      "princeps": 4284,
      "quamquam": 4285,
      "blasphem": 4286,
      "##rata": 4287,
      "naturalis": 4288,
      "alibi": 4289,
      "concept": 4290,
      "Pompe": 4291,
      "coniug": 4292,
      "procedit": 4293,
      "unusquisque": 4294,
      "eb": 4295,
      "##cr": 4296,
      "Just": 4297,
      "Null": 4298,
      "##orium": 4299,
      "fieret": 4300,
      "commune": 4301,
      "poll": 4302,
      "pace": 4303,
      "disper": 4304,
      "formae": 4305,
      "Sept": 4306,
      "immo": 4307,
      "Evangelio": 4308,
      "imit": 4309,
      "dicebat": 4310,
      "habes": 4311,
      "inl": 4312,
      "##aust": 4313,
      "##ariae": 4314,
      "regi": 4315,
      "Pers": 4316,
      "libid": 4317,
      "luxur": 4318,
      "falsum": 4319,
      "rapt": 4320,
      "possent": 4321,
      "##rexit": 4322,
      "milites": 4323,
      "impossibile": 4324,
      "##adis": 4325,
      "hostes": 4326,
      "##liam": 4327,
      "Bo": 4328,
      "Cat": 4329,
      "quattu": 4330,
      "sect": 4331,
      "fortasse": 4332,
      "manet": 4333,
      "milit": 4334,
      "vestrae": 4335,
      "aurum": 4336,
      "minor": 4337,
      "##imam": 4338,
      "##eu": 4339,
      "differentia": 4340,
      "sapientiam": 4341,
      "initio": 4342,
      "##escat": 4343,
      "Ach": 4344,
      "##IS": 4345,
      "abl": 4346,
      "benign": 4347,
      "pecuniam": 4348,
      "Pot": 4349,
      "exor": 4350,
      "motum": 4351,
      "Denique": 4352,
      "XL": 4353,
      "haeres": 4354,
      "##rii": 4355,
      "habemus": 4356,
      "saeculo": 4357,
      "has": 4358,
      "Quem": 4359,
      "##anter": 4360,
      "defend": 4361,
      "animas": 4362,
      "##idio": 4363,
      "propositum": 4364,
      "Com": 4365,
      "##orio": 4366,
      "##eum": 4367,
      "malorum": 4368,
      "##ibili": 4369,
      "nuncup": 4370,
      "Iesus": 4371,
      "potestas": 4372,
      "magnific": 4373,
      "exemplo": 4374,
      "episcopo": 4375,
      "justitia": 4376,
      "quatenus": 4377,
      "Philipp": 4378,
      "tempest": 4379,
      "##rix": 4380,
      "##itorum": 4381,
      "51": 4382,
      "motu": 4383,
      "##orsum": 4384,
      "prout": 4385,
      "declar": 4386,
      "celeb": 4387,
      "Romam": 4388,
      "vestris": 4389,
      "docet": 4390,
      "dubitat": 4391,
      "##utio": 4392,
      "Chrys": 4393,
      "tales": 4394,
      "##eti": 4395,
      "reduc": 4396,
      "the": 4397,
      "##jic": 4398,
      "loci": 4399,
      "aeternam": 4400,
      "dona": 4401,
      "it": 4402,
      "##uert": 4403,
      "corrump": 4404,
      "lig": 4405,
      "##eremus": 4406,
      "habeant": 4407,
      "vestrum": 4408,
      "bis": 4409,
      "Babyl": 4410,
      "defunct": 4411,
      "corporibus": 4412,
      "dubio": 4413,
      "Joannes": 4414,
      "adven": 4415,
      "55": 4416,
      "facto": 4417,
      "molest": 4418,
      "##fl": 4419,
      "corporum": 4420,
      "imperio": 4421,
      "contraria": 4422,
      "##opt": 4423,
      "indulg": 4424,
      "deprec": 4425,
      "##ensa": 4426,
      "sis": 4427,
      "redempt": 4428,
      "prior": 4429,
      "Psalm": 4430,
      "##irum": 4431,
      "uita": 4432,
      "IIIª": 4433,
      "##icto": 4434,
      "contempt": 4435,
      "essentiam": 4436,
      "frustra": 4437,
      "dignum": 4438,
      "Amb": 4439,
      "##itiones": 4440,
      "mi": 4441,
      "desper": 4442,
      "auxilium": 4443,
      "comed": 4444,
      "excel": 4445,
      "##rium": 4446,
      "pulch": 4447,
      "Cal": 4448,
      "Mult": 4449,
      "negl": 4450,
      "Caesar": 4451,
      "##eratur": 4452,
      "exal": 4453,
      "edit": 4454,
      "falsa": 4455,
      "##ront": 4456,
      "##lid": 4457,
      "paen": 4458,
      "matris": 4459,
      "duodecim": 4460,
      "primi": 4461,
      "##ho": 4462,
      "##anim": 4463,
      "##anorum": 4464,
      "##ibilem": 4465,
      "sa": 4466,
      "serp": 4467,
      "perdit": 4468,
      "Salom": 4469,
      "##yc": 4470,
      "conclud": 4471,
      "##erens": 4472,
      "puta": 4473,
      "justitiam": 4474,
      "diligit": 4475,
      "occis": 4476,
      "plena": 4477,
      "sat": 4478,
      "Ori": 4479,
      "##issem": 4480,
      "personam": 4481,
      "leges": 4482,
      "frag": 4483,
      "##avimus": 4484,
      "dirig": 4485,
      "narr": 4486,
      "sacerdotes": 4487,
      "Jud": 4488,
      "saltem": 4489,
      "subito": 4490,
      "iustitia": 4491,
      "Arist": 4492,
      "##urarum": 4493,
      "Ephes": 4494,
      "Quando": 4495,
      "merced": 4496,
      "##erebat": 4497,
      "conclus": 4498,
      "Se": 4499,
      "##mina": 4500,
      "##ultus": 4501,
      "##osa": 4502,
      "##eriis": 4503,
      "pax": 4504,
      "misc": 4505,
      "corrig": 4506,
      "##ueris": 4507,
      "nig": 4508,
      "materiam": 4509,
      "uitae": 4510,
      "caritas": 4511,
      "Inf": 4512,
      "##oseph": 4513,
      "prosper": 4514,
      "contrarium": 4515,
      "##ponitur": 4516,
      "Hebrae": 4517,
      "crucif": 4518,
      "devot": 4519,
      "actio": 4520,
      "Prov": 4521,
      "quattuor": 4522,
      "##ienti": 4523,
      "##enam": 4524,
      "horr": 4525,
      "plerumque": 4526,
      "praesens": 4527,
      "alicuius": 4528,
      "thesa": 4529,
      "fast": 4530,
      "Jesum": 4531,
      "potentiam": 4532,
      "##iosus": 4533,
      "officio": 4534,
      "..": 4535,
      "##ila": 4536,
      "exercitum": 4537,
      "##rex": 4538,
      "##ianum": 4539,
      "##eritas": 4540,
      "##ativa": 4541,
      "consid": 4542,
      "semen": 4543,
      "legitur": 4544,
      "tribu": 4545,
      "festin": 4546,
      "nonne": 4547,
      "faceret": 4548,
      "improb": 4549,
      "bella": 4550,
      "sacerdos": 4551,
      "##issis": 4552,
      "proceditur": 4553,
      "fecerunt": 4554,
      "##anas": 4555,
      "iuven": 4556,
      "Imperator": 4557,
      "##igia": 4558,
      "praesenti": 4559,
      "procur": 4560,
      "declin": 4561,
      "matrem": 4562,
      "##ocin": 4563,
      "meos": 4564,
      "fortuna": 4565,
      "##unda": 4566,
      "donum": 4567,
      "Her": 4568,
      "Angeli": 4569,
      "subsc": 4570,
      "lacrim": 4571,
      "neglig": 4572,
      "Att": 4573,
      "particul": 4574,
      "diversis": 4575,
      "gubern": 4576,
      "nova": 4577,
      "cognitionem": 4578,
      "scripsit": 4579,
      "##undem": 4580,
      "##erri": 4581,
      "##anos": 4582,
      "istam": 4583,
      "##itiv": 4584,
      "fiduc": 4585,
      "Afric": 4586,
      "##ittitur": 4587,
      "universa": 4588,
      "panis": 4589,
      "modus": 4590,
      "fore": 4591,
      "##ocrat": 4592,
      "br": 4593,
      "xv": 4594,
      "##escunt": 4595,
      "coelum": 4596,
      "Maced": 4597,
      "Baptism": 4598,
      "Cui": 4599,
      "Sa": 4600,
      "line": 4601,
      "gaudium": 4602,
      "rursum": 4603,
      "oratione": 4604,
      "##amin": 4605,
      "trig": 4606,
      "perfecta": 4607,
      "praeceptum": 4608,
      "ves": 4609,
      "tuas": 4610,
      "ual": 4611,
      "Nov": 4612,
      "Ob": 4613,
      "libris": 4614,
      "pollic": 4615,
      "persever": 4616,
      "effectum": 4617,
      "christ": 4618,
      "fama": 4619,
      "Glossa": 4620,
      "scrips": 4621,
      "infl": 4622,
      "##eru": 4623,
      "deduc": 4624,
      "irasc": 4625,
      "vend": 4626,
      "humani": 4627,
      "##prop": 4628,
      "solid": 4629,
      "prorsus": 4630,
      "intelligitur": 4631,
      "##uch": 4632,
      "immort": 4633,
      "##iph": 4634,
      "facies": 4635,
      "terris": 4636,
      "militum": 4637,
      "suav": 4638,
      "sabb": 4639,
      "##imenta": 4640,
      "##averat": 4641,
      "sord": 4642,
      "terrarum": 4643,
      "##eperat": 4644,
      "ventur": 4645,
      "emend": 4646,
      "luce": 4647,
      "quosdam": 4648,
      "##iliis": 4649,
      "assign": 4650,
      "utrius": 4651,
      "talem": 4652,
      "diacon": 4653,
      "##ebo": 4654,
      "altero": 4655,
      "puto": 4656,
      "carc": 4657,
      "iudices": 4658,
      "cam": 4659,
      "valet": 4660,
      "sanguinis": 4661,
      "pup": 4662,
      "petit": 4663,
      "datum": 4664,
      "oculi": 4665,
      "saecula": 4666,
      "assumpt": 4667,
      "inius": 4668,
      "pedibus": 4669,
      "utro": 4670,
      "Test": 4671,
      "Gentiles": 4672,
      "istius": 4673,
      "##ES": 4674,
      "##itui": 4675,
      "##sos": 4676,
      "##usa": 4677,
      "ecclesiam": 4678,
      "pend": 4679,
      "pietatis": 4680,
      "putant": 4681,
      "plane": 4682,
      "accipi": 4683,
      "totus": 4684,
      "Sub": 4685,
      "Ezech": 4686,
      "##andae": 4687,
      "mille": 4688,
      "vari": 4689,
      "##qui": 4690,
      "duae": 4691,
      "cot": 4692,
      "placet": 4693,
      "contumeli": 4694,
      "frum": 4695,
      "Cumque": 4696,
      "quartum": 4697,
      "cito": 4698,
      "didic": 4699,
      "vitia": 4700,
      "deorum": 4701,
      "possum": 4702,
      "##pend": 4703,
      "##veri": 4704,
      "Fac": 4705,
      "##mine": 4706,
      "divinam": 4707,
      "pertinere": 4708,
      "labore": 4709,
      "invid": 4710,
      "Carthag": 4711,
      "quicquam": 4712,
      "tenebris": 4713,
      "##aeus": 4714,
      "##diu": 4715,
      "istud": 4716,
      "##onte": 4717,
      "empt": 4718,
      "##rinsec": 4719,
      "##eto": 4720,
      "stup": 4721,
      "##alitas": 4722,
      "dari": 4723,
      "iact": 4724,
      "addit": 4725,
      "civitas": 4726,
      "##ind": 4727,
      "perg": 4728,
      "cru": 4729,
      "invis": 4730,
      "##iderit": 4731,
      "claud": 4732,
      "deput": 4733,
      "Sem": 4734,
      "restitu": 4735,
      "curam": 4736,
      "uinc": 4737,
      "##ellum": 4738,
      "Sab": 4739,
      "communi": 4740,
      "dictis": 4741,
      "##icas": 4742,
      "vocatur": 4743,
      "##elle": 4744,
      "##hann": 4745,
      "torm": 4746,
      "antea": 4747,
      "nota": 4748,
      "utriusque": 4749,
      "conspic": 4750,
      "summo": 4751,
      "eleg": 4752,
      "potes": 4753,
      "mandata": 4754,
      "faciam": 4755,
      "descendit": 4756,
      "##ximus": 4757,
      "incert": 4758,
      "paul": 4759,
      "Iam": 4760,
      "Phil": 4761,
      "servitut": 4762,
      "euangeli": 4763,
      "pom": 4764,
      "Nos": 4765,
      "viginti": 4766,
      "Por": 4767,
      "demonstrat": 4768,
      "sermonem": 4769,
      "crudel": 4770,
      "aures": 4771,
      "orbis": 4772,
      "agitur": 4773,
      "##ictus": 4774,
      "##atoribus": 4775,
      "simile": 4776,
      "hostis": 4777,
      "alteri": 4778,
      "usu": 4779,
      "resurrectionem": 4780,
      "##utem": 4781,
      "##ond": 4782,
      "repugn": 4783,
      "foris": 4784,
      "##tis": 4785,
      "resc": 4786,
      "coep": 4787,
      "saep": 4788,
      "attrib": 4789,
      "herb": 4790,
      "##emp": 4791,
      "discipulis": 4792,
      "##estin": 4793,
      "creaturae": 4794,
      "incorr": 4795,
      "media": 4796,
      "nativ": 4797,
      "##ictis": 4798,
      "Cic": 4799,
      "scit": 4800,
      "Prophet": 4801,
      "bas": 4802,
      "iuris": 4803,
      "quaecumque": 4804,
      "figura": 4805,
      "##omus": 4806,
      "dixerat": 4807,
      "moribus": 4808,
      "Div": 4809,
      "iustitiae": 4810,
      "Tum": 4811,
      "natum": 4812,
      "aliqui": 4813,
      "quaeritur": 4814,
      "##amini": 4815,
      "##ratum": 4816,
      "utroque": 4817,
      "teg": 4818,
      "tard": 4819,
      "##issimae": 4820,
      "viros": 4821,
      "syll": 4822,
      "Germ": 4823,
      "access": 4824,
      "Fr": 4825,
      "consult": 4826,
      "ostenditur": 4827,
      "incom": 4828,
      "exprim": 4829,
      "54": 4830,
      "hyp": 4831,
      "alicui": 4832,
      "nostros": 4833,
      "orbem": 4834,
      "viris": 4835,
      "##acto": 4836,
      "patitur": 4837,
      "administ": 4838,
      "cav": 4839,
      "medic": 4840,
      "##eantur": 4841,
      "Mag": 4842,
      "provoc": 4843,
      "quicquid": 4844,
      "incend": 4845,
      "undique": 4846,
      "prophetae": 4847,
      "##alitatem": 4848,
      "spoli": 4849,
      "XIV": 4850,
      "##cus": 4851,
      "quicumque": 4852,
      "quaeque": 4853,
      "certa": 4854,
      "Igitur": 4855,
      "communis": 4856,
      "sinist": 4857,
      "hæc": 4858,
      "talibus": 4859,
      "Dum": 4860,
      "multitudo": 4861,
      "sax": 4862,
      "##och": 4863,
      "##aturus": 4864,
      "##uncta": 4865,
      "##ponit": 4866,
      "incorrupt": 4867,
      "Galli": 4868,
      "quodammodo": 4869,
      "etiamsi": 4870,
      "Moyses": 4871,
      "DE": 4872,
      "monte": 4873,
      "diligenter": 4874,
      "hy": 4875,
      "consistit": 4876,
      "facilius": 4877,
      "passus": 4878,
      "sufficit": 4879,
      "##otus": 4880,
      "verborum": 4881,
      "cumque": 4882,
      "tuorum": 4883,
      "interfic": 4884,
      "cu": 4885,
      "vires": 4886,
      "Quibus": 4887,
      "duct": 4888,
      "nil": 4889,
      "turba": 4890,
      "70": 4891,
      "praeterea": 4892,
      "histor": 4893,
      "reprob": 4894,
      "aliae": 4895,
      "summum": 4896,
      "ambig": 4897,
      "plurimum": 4898,
      "describ": 4899,
      "pest": 4900,
      "lumine": 4901,
      "pecunia": 4902,
      "sug": 4903,
      "epistola": 4904,
      "dupliciter": 4905,
      "sang": 4906,
      "probat": 4907,
      "##orp": 4908,
      "##arias": 4909,
      "Col": 4910,
      "qualiter": 4911,
      "morb": 4912,
      "filia": 4913,
      "##CC": 4914,
      "ib": 4915,
      "Re": 4916,
      "##inopoli": 4917,
      "vinum": 4918,
      "vulg": 4919,
      "incred": 4920,
      "Apoll": 4921,
      "##co": 4922,
      "primam": 4923,
      "Red": 4924,
      "veli": 4925,
      "audit": 4926,
      "##iose": 4927,
      "Hil": 4928,
      "quum": 4929,
      "anc": 4930,
      "##gen": 4931,
      "scr": 4932,
      "##undi": 4933,
      "episcopum": 4934,
      "legimus": 4935,
      "benedic": 4936,
      "meritis": 4937,
      "cogno": 4938,
      "Virg": 4939,
      "justus": 4940,
      "uxor": 4941,
      "genuit": 4942,
      "Syr": 4943,
      "poenitentiam": 4944,
      "##orus": 4945,
      "fecisse": 4946,
      "quaestionem": 4947,
      "iussit": 4948,
      "periculum": 4949,
      "viribus": 4950,
      "dolor": 4951,
      "transl": 4952,
      "novum": 4953,
      "Secundum": 4954,
      "diei": 4955,
      "vivit": 4956,
      "timor": 4957,
      "front": 4958,
      "aliena": 4959,
      "##ientium": 4960,
      "##erna": 4961,
      "sapiens": 4962,
      "##inth": 4963,
      "Be": 4964,
      "justitiae": 4965,
      "58": 4966,
      "stet": 4967,
      "paucis": 4968,
      "temporum": 4969,
      "##ellae": 4970,
      "trem": 4971,
      "##ectio": 4972,
      "##rept": 4973,
      "istum": 4974,
      "rig": 4975,
      "record": 4976,
      "##AT": 4977,
      "calumn": 4978,
      "##aron": 4979,
      "##udum": 4980,
      "aegr": 4981,
      "##andos": 4982,
      "insc": 4983,
      "Pel": 4984,
      "Romanis": 4985,
      "Sac": 4986,
      "iuv": 4987,
      "casu": 4988,
      "aduersus": 4989,
      "verbi": 4990,
      "##ala": 4991,
      "##aculo": 4992,
      "produc": 4993,
      "##ullius": 4994,
      "liberum": 4995,
      "seipsum": 4996,
      "discret": 4997,
      "apostolorum": 4998,
      "perhib": 4999,
      "latr": 5000,
      "quoddam": 5001,
      "distingu": 5002,
      "Sequitur": 5003,
      "artific": 5004,
      "paenit": 5005,
      "maxima": 5006,
      "gent": 5007,
      "##itatus": 5008,
      "reced": 5009,
      "tet": 5010,
      "eat": 5011,
      "pign": 5012,
      "protinus": 5013,
      "crimen": 5014,
      "##ungit": 5015,
      "primis": 5016,
      "principia": 5017,
      "##itare": 5018,
      "Chal": 5019,
      "Metaph": 5020,
      "panem": 5021,
      "Hierusalem": 5022,
      "Omnia": 5023,
      "60": 5024,
      "ascendit": 5025,
      "instrum": 5026,
      "57": 5027,
      "56": 5028,
      "veni": 5029,
      "gesta": 5030,
      "Ser": 5031,
      "##itatur": 5032,
      "solent": 5033,
      "postrem": 5034,
      "religionis": 5035,
      "conscientia": 5036,
      "corpori": 5037,
      "frequenter": 5038,
      "##igen": 5039,
      "velit": 5040,
      "agens": 5041,
      "sanguis": 5042,
      "impos": 5043,
      "accipit": 5044,
      "profess": 5045,
      "incarn": 5046,
      "Sunt": 5047,
      "habeo": 5048,
      "ferv": 5049,
      "##OR": 5050,
      "siquidem": 5051,
      "interfect": 5052,
      "59": 5053,
      "##idam": 5054,
      "refert": 5055,
      "iustitiam": 5056,
      "libri": 5057,
      "doctrinam": 5058,
      "##ertim": 5059,
      "uitam": 5060,
      "monstr": 5061,
      "injur": 5062,
      "##isci": 5063,
      "habitum": 5064,
      "nostrorum": 5065,
      "##ιν": 5066,
      "##rav": 5067,
      "arte": 5068,
      "concess": 5069,
      "##oto": 5070,
      "##inceps": 5071,
      "munera": 5072,
      "process": 5073,
      "cœ": 5074,
      "iur": 5075,
      "auro": 5076,
      "major": 5077,
      "noli": 5078,
      "heres": 5079,
      "rub": 5080,
      "##Th": 5081,
      "imago": 5082,
      "cognoscit": 5083,
      "AE": 5084,
      "Jam": 5085,
      "Dion": 5086,
      "##osyn": 5087,
      "Chrysost": 5088,
      "amorem": 5089,
      "Petri": 5090,
      "habentes": 5091,
      "vigil": 5092,
      "necessitas": 5093,
      "perfectum": 5094,
      "moritur": 5095,
      "omnipotens": 5096,
      "consort": 5097,
      "):": 5098,
      "##ca": 5099,
      "posteri": 5100,
      "##illi": 5101,
      "Tur": 5102,
      "len": 5103,
      "tend": 5104,
      "formid": 5105,
      "adulesc": 5106,
      "dog": 5107,
      "increp": 5108,
      "vocant": 5109,
      "uerba": 5110,
      "##sam": 5111,
      "partis": 5112,
      "attend": 5113,
      "CTh": 5114,
      "mirum": 5115,
      "Don": 5116,
      "uult": 5117,
      "nolite": 5118,
      "colleg": 5119,
      "Sol": 5120,
      "interdum": 5121,
      "innum": 5122,
      "Ca": 5123,
      "libertatem": 5124,
      "Manich": 5125,
      "trep": 5126,
      "##ineat": 5127,
      "castris": 5128,
      "quamuis": 5129,
      "##ensus": 5130,
      "praesentia": 5131,
      "mai": 5132,
      "initium": 5133,
      "posc": 5134,
      "dixisse": 5135,
      "Op": 5136,
      "mores": 5137,
      "sacrificium": 5138,
      "Hieronymus": 5139,
      "##imentum": 5140,
      "##atura": 5141,
      "numer": 5142,
      "potentiae": 5143,
      "adduc": 5144,
      "##nae": 5145,
      "peccatores": 5146,
      "affl": 5147,
      "perturb": 5148,
      "##ominus": 5149,
      "Ioann": 5150,
      "revers": 5151,
      "...": 5152,
      "patria": 5153,
      "##urs": 5154,
      "nihilo": 5155,
      "dubium": 5156,
      "##evit": 5157,
      "Omnis": 5158,
      "mane": 5159,
      "Hanc": 5160,
      "immut": 5161,
      "posita": 5162,
      "##onibus": 5163,
      "##undo": 5164,
      "sid": 5165,
      "conviv": 5166,
      "Orig": 5167,
      "En": 5168,
      "cong": 5169,
      "nimirum": 5170,
      "memoriam": 5171,
      "##asi": 5172,
      "volo": 5173,
      "dolore": 5174,
      "legibus": 5175,
      "reu": 5176,
      "impiet": 5177,
      "##issimos": 5178,
      "obj": 5179,
      "abscond": 5180,
      "lacr": 5181,
      "nascitur": 5182,
      "sepulc": 5183,
      "proper": 5184,
      "Moy": 5185,
      "animad": 5186,
      "##eritis": 5187,
      "plant": 5188,
      "sugg": 5189,
      "##ulari": 5190,
      "membris": 5191,
      "##imae": 5192,
      "statum": 5193,
      "##quebatur": 5194,
      "##ebis": 5195,
      "flu": 5196,
      "diabolus": 5197,
      "superbia": 5198,
      "lav": 5199,
      "annorum": 5200,
      "faciet": 5201,
      "accidit": 5202,
      "orationem": 5203,
      "##gypt": 5204,
      "instant": 5205,
      "inquir": 5206,
      "circumd": 5207,
      "justific": 5208,
      "animalia": 5209,
      "##ponere": 5210,
      "montes": 5211,
      "cognoscere": 5212,
      "passionis": 5213,
      "avar": 5214,
      "meritum": 5215,
      "scio": 5216,
      "mortuis": 5217,
      "##ifex": 5218,
      "templo": 5219,
      "movetur": 5220,
      "infinitum": 5221,
      "aer": 5222,
      "sequi": 5223,
      "duplex": 5224,
      "ent": 5225,
      "##nus": 5226,
      "magni": 5227,
      "Maria": 5228,
      "Scip": 5229,
      "##arc": 5230,
      "##ipp": 5231,
      "magnus": 5232,
      "##terius": 5233,
      "##arit": 5234,
      "proprio": 5235,
      "incipit": 5236,
      "certum": 5237,
      "uelut": 5238,
      "intend": 5239,
      "permitt": 5240,
      "confund": 5241,
      "operum": 5242,
      "hostem": 5243,
      "calam": 5244,
      "##riet": 5245,
      "Dionys": 5246,
      "Dom": 5247,
      "circuit": 5248,
      "##lix": 5249,
      "unitatem": 5250,
      "humanum": 5251,
      "##ivum": 5252,
      "continuo": 5253,
      "##ade": 5254,
      "penet": 5255,
      "aetate": 5256,
      "psalm": 5257,
      "vast": 5258,
      "##ych": 5259,
      "ta": 5260,
      "##urrit": 5261,
      "invenit": 5262,
      "prophetam": 5263,
      "desin": 5264,
      "secur": 5265,
      "proximum": 5266,
      "71": 5267,
      "Latin": 5268,
      "cæ": 5269,
      "constituit": 5270,
      "aquas": 5271,
      "credimus": 5272,
      "origin": 5273,
      "##rop": 5274,
      "Evangelium": 5275,
      "conjug": 5276,
      "sacrileg": 5277,
      "Conf": 5278,
      "confid": 5279,
      "cognitio": 5280,
      "Di": 5281,
      "nati": 5282,
      "tenet": 5283,
      "imperfect": 5284,
      "vitium": 5285,
      "caritatis": 5286,
      "grand": 5287,
      "caeteris": 5288,
      "ict": 5289,
      "elev": 5290,
      "##ην": 5291,
      "##udex": 5292,
      "vestram": 5293,
      "Em": 5294,
      "magnam": 5295,
      "##iosi": 5296,
      "studium": 5297,
      "Sp": 5298,
      "Patri": 5299,
      "##athem": 5300,
      "Imperatores": 5301,
      "Dem": 5302,
      "##iendo": 5303,
      "paene": 5304,
      "habitu": 5305,
      "porro": 5306,
      "Nemo": 5307,
      "materiae": 5308,
      "aere": 5309,
      "utero": 5310,
      "Iesu": 5311,
      "veniam": 5312,
      "vocab": 5313,
      "adopt": 5314,
      "triginta": 5315,
      "##isso": 5316,
      "decip": 5317,
      "XVIII": 5318,
      "prael": 5319,
      "aetatis": 5320,
      "##eiun": 5321,
      "Kal": 5322,
      "actionem": 5323,
      "placuit": 5324,
      "##τε": 5325,
      "aspic": 5326,
      "destin": 5327,
      "flor": 5328,
      "tantummodo": 5329,
      "suppos": 5330,
      "illust": 5331,
      "ele": 5332,
      "obsid": 5333,
      "provincia": 5334,
      "iii": 5335,
      "Omnes": 5336,
      "Iuli": 5337,
      "regna": 5338,
      "delic": 5339,
      "retrib": 5340,
      "##ith": 5341,
      "##esta": 5342,
      "##yth": 5343,
      "insin": 5344,
      "proport": 5345,
      "Cae": 5346,
      "##uerant": 5347,
      "patriae": 5348,
      "illuc": 5349,
      "Tabula": 5350,
      "caed": 5351,
      "quisquis": 5352,
      "passionem": 5353,
      "periculo": 5354,
      "liceat": 5355,
      "modi": 5356,
      "sacramenta": 5357,
      "XVI": 5358,
      "ec": 5359,
      "##itavit": 5360,
      "Med": 5361,
      "perspic": 5362,
      "pe": 5363,
      "##olym": 5364,
      "repar": 5365,
      "##ropter": 5366,
      "erga": 5367,
      "XVII": 5368,
      "erub": 5369,
      "lacrym": 5370,
      "Diab": 5371,
      "solemn": 5372,
      "partim": 5373,
      "immin": 5374,
      "singula": 5375,
      "##ρι": 5376,
      "pretium": 5377,
      "exalt": 5378,
      "moen": 5379,
      "vestri": 5380,
      "iram": 5381,
      "gladio": 5382,
      "affect": 5383,
      "Grat": 5384,
      "##pere": 5385,
      "##sti": 5386,
      "multitudinem": 5387,
      "##eles": 5388,
      "praepos": 5389,
      "fratris": 5390,
      "##sitan": 5391,
      "munus": 5392,
      "Ambros": 5393,
      "jac": 5394,
      "videmus": 5395,
      "respons": 5396,
      "perfectionem": 5397,
      "##alid": 5398,
      "ieiun": 5399,
      "doctrinae": 5400,
      "ris": 5401,
      "Similiter": 5402,
      "pervers": 5403,
      "visum": 5404,
      "##fact": 5405,
      "65": 5406,
      "Epist": 5407,
      "reddit": 5408,
      "humanam": 5409,
      "##yg": 5410,
      "desiderium": 5411,
      "malign": 5412,
      "##undus": 5413,
      "prompt": 5414,
      "imperii": 5415,
      "uirg": 5416,
      "Cant": 5417,
      "Rh": 5418,
      "rationes": 5419,
      "infern": 5420,
      "fing": 5421,
      "uerbum": 5422,
      "meas": 5423,
      "##itudines": 5424,
      "scribit": 5425,
      "videretur": 5426,
      "aem": 5427,
      "æter": 5428,
      "adt": 5429,
      "nou": 5430,
      "amn": 5431,
      "cerv": 5432,
      "##utionem": 5433,
      "diaboli": 5434,
      "##ci": 5435,
      "duabus": 5436,
      "Romana": 5437,
      "missus": 5438,
      "injust": 5439,
      "gradus": 5440,
      "perv": 5441,
      "##abor": 5442,
      "tanti": 5443,
      "instruct": 5444,
      "libera": 5445,
      "introd": 5446,
      "kal": 5447,
      "auctoritatem": 5448,
      "maledict": 5449,
      "crucis": 5450,
      "culpam": 5451,
      "discern": 5452,
      "immol": 5453,
      "Propter": 5454,
      "frug": 5455,
      "neminem": 5456,
      "credo": 5457,
      "hostibus": 5458,
      "amoris": 5459,
      "glorific": 5460,
      "martyr": 5461,
      "semin": 5462,
      "bonos": 5463,
      "suscepit": 5464,
      "salute": 5465,
      "Illud": 5466,
      "jug": 5467,
      "montem": 5468,
      "##aciter": 5469,
      "sponte": 5470,
      "mom": 5471,
      "Numquid": 5472,
      "individ": 5473,
      "##pici": 5474,
      "novi": 5475,
      "positum": 5476,
      "consequens": 5477,
      "##aniae": 5478,
      "praesertim": 5479,
      "reliqua": 5480,
      "eandem": 5481,
      "Ruf": 5482,
      "##erosolym": 5483,
      "quoc": 5484,
      "tex": 5485,
      "Juda": 5486,
      "semine": 5487,
      "Sion": 5488,
      "##itata": 5489,
      "dicente": 5490,
      "patrum": 5491,
      "##imas": 5492,
      "reput": 5493,
      "colloc": 5494,
      "62": 5495,
      "64": 5496,
      "idone": 5497,
      "salub": 5498,
      "novit": 5499,
      "educ": 5500,
      "pervenit": 5501,
      "nus": 5502,
      "nat": 5503,
      "##rica": 5504,
      "61": 5505,
      "perduc": 5506,
      "auctoritas": 5507,
      "LX": 5508,
      "obsec": 5509,
      "ni": 5510,
      "liberi": 5511,
      "ullo": 5512,
      "caritate": 5513,
      "evid": 5514,
      "errore": 5515,
      "dignitatem": 5516,
      "figur": 5517,
      "apert": 5518,
      "class": 5519,
      "Socrat": 5520,
      "flamm": 5521,
      "ju": 5522,
      "octav": 5523,
      "Chrysostomus": 5524,
      "##uaginta": 5525,
      "repente": 5526,
      "##onius": 5527,
      "68": 5528,
      "tantam": 5529,
      "Ur": 5530,
      "libros": 5531,
      "##ueret": 5532,
      "video": 5533,
      "uter": 5534,
      "magnis": 5535,
      "Iov": 5536,
      "tranqu": 5537,
      "idol": 5538,
      "toler": 5539,
      "superst": 5540,
      "cst": 5541,
      "da": 5542,
      "putat": 5543,
      "li": 5544,
      "illas": 5545,
      "63": 5546,
      "multorum": 5547,
      "mortale": 5548,
      "caes": 5549,
      "fidelis": 5550,
      "##aro": 5551,
      "##usta": 5552,
      "confl": 5553,
      "creditur": 5554,
      "ram": 5555,
      "coniunct": 5556,
      "Daem": 5557,
      "##aniam": 5558,
      "invoc": 5559,
      "Aristot": 5560,
      "conp": 5561,
      "commut": 5562,
      "vidi": 5563,
      "Ind": 5564,
      "ferro": 5565,
      "praedestin": 5566,
      "Graeci": 5567,
      "discipuli": 5568,
      "mix": 5569,
      "odio": 5570,
      "exempla": 5571,
      "##aric": 5572,
      "legi": 5573,
      "angeli": 5574,
      "Judaeorum": 5575,
      "Romano": 5576,
      "iniquitatem": 5577,
      "exped": 5578,
      "videbatur": 5579,
      "fluv": 5580,
      "saev": 5581,
      "vine": 5582,
      "pari": 5583,
      "##ratio": 5584,
      "propriam": 5585,
      "##icibus": 5586,
      "poenae": 5587,
      "circumcis": 5588,
      "arbitrium": 5589,
      "##ariorum": 5590,
      "##ucta": 5591,
      "adversum": 5592,
      "Esa": 5593,
      "orationis": 5594,
      "quadraginta": 5595,
      "subl": 5596,
      "anathem": 5597,
      "respectu": 5598,
      "##erte": 5599,
      "quotidie": 5600,
      "Jerem": 5601,
      "##anam": 5602,
      "##ello": 5603,
      "##pectum": 5604,
      "suffrag": 5605,
      "sermonis": 5606,
      "poterant": 5607,
      "octo": 5608,
      "interpretatur": 5609,
      "intelligit": 5610,
      "creb": 5611,
      "Metaphys": 5612,
      "Ass": 5613,
      "virgo": 5614,
      "dierum": 5615,
      "##icti": 5616,
      "hiem": 5617,
      "ordinis": 5618,
      "terrena": 5619,
      "##actum": 5620,
      "palam": 5621,
      "fidelium": 5622,
      "##acch": 5623,
      "dabit": 5624,
      "obscur": 5625,
      "##let": 5626,
      "eundem": 5627,
      "germ": 5628,
      "##enas": 5629,
      "laudem": 5630,
      "puls": 5631,
      "pav": 5632,
      "##τι": 5633,
      "##orta": 5634,
      "egreg": 5635,
      "##icit": 5636,
      "Pap": 5637,
      "##ordia": 5638,
      "sever": 5639,
      "##CI": 5640,
      "regum": 5641,
      "##atori": 5642,
      "mandatum": 5643,
      "tradidit": 5644,
      "vellet": 5645,
      "fines": 5646,
      "latere": 5647,
      "plebis": 5648,
      "tulit": 5649,
      "multitudine": 5650,
      "postmodum": 5651,
      "extr": 5652,
      "apparuit": 5653,
      "##pex": 5654,
      "66": 5655,
      "deinceps": 5656,
      "##iana": 5657,
      "principis": 5658,
      "##aequ": 5659,
      "lucis": 5660,
      "##ierit": 5661,
      "recta": 5662,
      "foli": 5663,
      "evangel": 5664,
      "propriis": 5665,
      "praecepit": 5666,
      "specul": 5667,
      "monum": 5668,
      "fideles": 5669,
      "##imini": 5670,
      "Cass": 5671,
      "##ietur": 5672,
      "##actis": 5673,
      "adol": 5674,
      "mortui": 5675,
      "dignus": 5676,
      "##antiae": 5677,
      "##ebas": 5678,
      "75": 5679,
      "Bal": 5680,
      "forsitan": 5681,
      "##idisse": 5682,
      "Benedict": 5683,
      "##rans": 5684,
      "crucifix": 5685,
      "##cun": 5686,
      "angelus": 5687,
      "pig": 5688,
      "##uens": 5689,
      "arbitrio": 5690,
      "vad": 5691,
      "##alum": 5692,
      "melior": 5693,
      "orbe": 5694,
      "##emosyn": 5695,
      "vino": 5696,
      "##αρ": 5697,
      "libenter": 5698,
      "movet": 5699,
      "iubet": 5700,
      "disciplina": 5701,
      "cohort": 5702,
      "audac": 5703,
      "##ellam": 5704,
      "##entos": 5705,
      "Tib": 5706,
      "episcopis": 5707,
      "##ης": 5708,
      "Romanos": 5709,
      "Iohann": 5710,
      "simplex": 5711,
      "palm": 5712,
      "ingressus": 5713,
      "tenebras": 5714,
      "oris": 5715,
      "singulos": 5716,
      "##oct": 5717,
      "##ensem": 5718,
      "necessitatem": 5719,
      "testamentum": 5720,
      "Cyr": 5721,
      "consent": 5722,
      "malitia": 5723,
      "langu": 5724,
      "pess": 5725,
      "stare": 5726,
      "aeternae": 5727,
      "publicam": 5728,
      "profectus": 5729,
      "##uorum": 5730,
      "sensibus": 5731,
      "fluct": 5732,
      "69": 5733,
      "erip": 5734,
      "contend": 5735,
      "dabo": 5736,
      "delib": 5737,
      "actione": 5738,
      "urg": 5739,
      "Caesaris": 5740,
      "passione": 5741,
      "casus": 5742,
      "sinc": 5743,
      "Vol": 5744,
      "lup": 5745,
      "adiu": 5746,
      "XXI": 5747,
      "uidetur": 5748,
      "quaestio": 5749,
      "##AR": 5750,
      "##AL": 5751,
      "operatio": 5752,
      "justum": 5753,
      "psalmo": 5754,
      "##abam": 5755,
      "sacramento": 5756,
      "##VS": 5757,
      "recipit": 5758,
      "Min": 5759,
      "##ommun": 5760,
      "luct": 5761,
      "##ogo": 5762,
      "Fab": 5763,
      "Sen": 5764,
      "Inde": 5765,
      "iustific": 5766,
      "##enses": 5767,
      "veluti": 5768,
      "##oti": 5769,
      "potuerunt": 5770,
      "similitudo": 5771,
      "Dixit": 5772,
      "gign": 5773,
      "debitum": 5774,
      "longa": 5775,
      "potuisse": 5776,
      "##gressi": 5777,
      "##arr": 5778,
      "obv": 5779,
      "populis": 5780,
      "vocat": 5781,
      "No": 5782,
      "ful": 5783,
      "volumus": 5784,
      "salus": 5785,
      "##ibiles": 5786,
      "visus": 5787,
      "aperte": 5788,
      "mob": 5789,
      "distrib": 5790,
      "difficult": 5791,
      "##mat": 5792,
      "inform": 5793,
      "inut": 5794,
      "parentes": 5795,
      "sole": 5796,
      "nimium": 5797,
      "mysterium": 5798,
      "excip": 5799,
      "servum": 5800,
      "Mos": 5801,
      "osc": 5802,
      "imo": 5803,
      "inimici": 5804,
      "naturali": 5805,
      "principem": 5806,
      "monst": 5807,
      "Angelus": 5808,
      "ibidem": 5809,
      "##AE": 5810,
      "Co": 5811,
      "uig": 5812,
      "opinionem": 5813,
      "majest": 5814,
      "purp": 5815,
      "του": 5816,
      "prist": 5817,
      "argentum": 5818,
      "sententiae": 5819,
      "munere": 5820,
      "nutr": 5821,
      "Iacob": 5822,
      "quaerere": 5823,
      "##greditur": 5824,
      "sæc": 5825,
      "judicii": 5826,
      "##hel": 5827,
      "possibile": 5828,
      "dissol": 5829,
      "saepius": 5830,
      "express": 5831,
      "obliv": 5832,
      "discrim": 5833,
      "justi": 5834,
      "prudentia": 5835,
      "coeli": 5836,
      "vetust": 5837,
      "speciei": 5838,
      "eumdem": 5839,
      "Romanorum": 5840,
      "haered": 5841,
      "peccare": 5842,
      "Corn": 5843,
      "nonnull": 5844,
      "Sex": 5845,
      "librum": 5846,
      "CX": 5847,
      "intellect": 5848,
      "umbra": 5849,
      "sta": 5850,
      "fortis": 5851,
      "testatur": 5852,
      "nostras": 5853,
      "misericordiae": 5854,
      "derel": 5855,
      "terras": 5856,
      "bonae": 5857,
      "matur": 5858,
      "errorem": 5859,
      "##ilo": 5860,
      "pariet": 5861,
      "fratern": 5862,
      "ostendere": 5863,
      "Pont": 5864,
      "saecul": 5865,
      "Serv": 5866,
      "Dam": 5867,
      "tun": 5868,
      "cordibus": 5869,
      "millia": 5870,
      "interf": 5871,
      "senatu": 5872,
      "Quidam": 5873,
      "72": 5874,
      "humanis": 5875,
      "absc": 5876,
      "##esset": 5877,
      "sacris": 5878,
      "auribus": 5879,
      "expet": 5880,
      "magister": 5881,
      "do": 5882,
      "vex": 5883,
      "Claud": 5884,
      "El": 5885,
      "patriam": 5886,
      "nata": 5887,
      "recon": 5888,
      "inquis": 5889,
      "Bene": 5890,
      "maius": 5891,
      "resur": 5892,
      "voluerit": 5893,
      "appellatur": 5894,
      "recus": 5895,
      "celer": 5896,
      "vendit": 5897,
      "confic": 5898,
      "amar": 5899,
      "eamdem": 5900,
      "Occ": 5901,
      "pp": 5902,
      "columb": 5903,
      "passiones": 5904,
      "ultimum": 5905,
      "divinitatis": 5906,
      "##ismo": 5907,
      "praetor": 5908,
      "##ecc": 5909,
      "beneficium": 5910,
      "veloc": 5911,
      "abi": 5912,
      "feci": 5913,
      "reus": 5914,
      "Abrahae": 5915,
      "##mentum": 5916,
      "##ueri": 5917,
      "debuit": 5918,
      "digna": 5919,
      "fiant": 5920,
      "peruen": 5921,
      "dolorem": 5922,
      "dii": 5923,
      "dictus": 5924,
      "##ας": 5925,
      "inimicos": 5926,
      "##utione": 5927,
      "supr": 5928,
      "senex": 5929,
      "fatig": 5930,
      "##hem": 5931,
      "tenere": 5932,
      "repr": 5933,
      "peregrin": 5934,
      "Hann": 5935,
      "##idae": 5936,
      "suppl": 5937,
      "adn": 5938,
      "##ichrist": 5939,
      "obn": 5940,
      "##oro": 5941,
      "##rinsecus": 5942,
      "##00": 5943,
      "canon": 5944,
      "priusquam": 5945,
      "gentis": 5946,
      "domi": 5947,
      "praemium": 5948,
      "cc": 5949,
      "consuli": 5950,
      "praedicatur": 5951,
      "Thess": 5952,
      "sedem": 5953,
      "##age": 5954,
      "venerunt": 5955,
      "cin": 5956,
      "##ariter": 5957,
      "defl": 5958,
      "aeque": 5959,
      "superfl": 5960,
      "demum": 5961,
      "arbitror": 5962,
      "malos": 5963,
      "mora": 5964,
      "poenas": 5965,
      "laque": 5966,
      "esur": 5967,
      "occidit": 5968,
      "Apoc": 5969,
      "##iperet": 5970,
      "fecisti": 5971,
      "van": 5972,
      "##ungitur": 5973,
      "Pal": 5974,
      "##alitatis": 5975,
      "vale": 5976,
      "##iendi": 5977,
      "pronunt": 5978,
      "similia": 5979,
      "67": 5980,
      "##udit": 5981,
      "sagitt": 5982,
      "pell": 5983,
      "##ai": 5984,
      "passio": 5985,
      "eleemosyn": 5986,
      "alteram": 5987,
      "##piam": 5988,
      "paupert": 5989,
      "vag": 5990,
      "consue": 5991,
      "transt": 5992,
      "filiam": 5993,
      "cibum": 5994,
      "memoriae": 5995,
      "multas": 5996,
      "##ordin": 5997,
      "competit": 5998,
      "Ibi": 5999,
      "##anto": 6000,
      "usur": 6001,
      "similes": 6002,
      "virgin": 6003,
      "bland": 6004,
      "venia": 6005,
      "Theodos": 6006,
      "eidem": 6007,
      "visc": 6008,
      "auri": 6009,
      "restitut": 6010,
      "##ulatus": 6011,
      "##ebitur": 6012,
      "##eos": 6013,
      "navig": 6014,
      "versus": 6015,
      "dixisset": 6016,
      "tub": 6017,
      "soll": 6018,
      "populos": 6019,
      "iuss": 6020,
      "##iebant": 6021,
      "suad": 6022,
      "Corinth": 6023,
      "resurrectionis": 6024,
      "seq": 6025,
      "operam": 6026,
      "praedicta": 6027,
      "Alb": 6028,
      "mensura": 6029,
      "basil": 6030,
      "mit": 6031,
      "pudic": 6032,
      "amici": 6033,
      "refug": 6034,
      "scriptura": 6035,
      "ol": 6036,
      "sedis": 6037,
      "les": 6038,
      "har": 6039,
      "pectore": 6040,
      "##abimus": 6041,
      "cogitationes": 6042,
      "bonam": 6043,
      "sanctos": 6044,
      "erig": 6045,
      "inr": 6046,
      "##elu": 6047,
      "nuper": 6048,
      "LI": 6049,
      "aquis": 6050,
      "quale": 6051,
      "##entior": 6052,
      "concupiscentia": 6053,
      "futuro": 6054,
      "altare": 6055,
      "pens": 6056,
      "##imos": 6057,
      "offend": 6058,
      "specialiter": 6059,
      "comper": 6060,
      "##ientur": 6061,
      "simulac": 6062,
      "##enes": 6063,
      "##uatur": 6064,
      "dogm": 6065,
      "liter": 6066,
      "Exod": 6067,
      "73": 6068,
      "##υτ": 6069,
      "fugit": 6070,
      "spatium": 6071,
      "iv": 6072,
      "##eteri": 6073,
      "Pasch": 6074,
      "factis": 6075,
      "civitates": 6076,
      "promitt": 6077,
      "capitis": 6078,
      "precibus": 6079,
      "##uersa": 6080,
      "pene": 6081,
      "Oct": 6082,
      "Ill": 6083,
      "##ues": 6084,
      "nominibus": 6085,
      "amat": 6086,
      "urbes": 6087,
      "##alitate": 6088,
      "liqu": 6089,
      "detrah": 6090,
      "pueri": 6091,
      "nosc": 6092,
      "Potest": 6093,
      "adventum": 6094,
      "reb": 6095,
      "import": 6096,
      "adim": 6097,
      "fratrum": 6098,
      "alienum": 6099,
      "testamento": 6100,
      "vivific": 6101,
      "culpae": 6102,
      "##ursus": 6103,
      "vitiis": 6104,
      "caetera": 6105,
      "caritatem": 6106,
      "ponere": 6107,
      "##raes": 6108,
      "##elius": 6109,
      "matre": 6110,
      "##rehendit": 6111,
      "exsult": 6112,
      "reddere": 6113,
      "Hebr": 6114,
      "disced": 6115,
      "possessionem": 6116,
      "##emb": 6117,
      "##iretur": 6118,
      "Hunc": 6119,
      "##antas": 6120,
      "auctorem": 6121,
      "##iuit": 6122,
      "provinciae": 6123,
      "comes": 6124,
      "temer": 6125,
      "decept": 6126,
      "conuen": 6127,
      "quamdam": 6128,
      "##aev": 6129,
      "nunti": 6130,
      "spiritualis": 6131,
      "commin": 6132,
      "##illam": 6133,
      "##erebant": 6134,
      "ossa": 6135,
      "Ari": 6136,
      "##aces": 6137,
      "praesentis": 6138,
      "desiderat": 6139,
      "hae": 6140,
      "Isaac": 6141,
      "consuetudinem": 6142,
      "sequuntur": 6143,
      "summam": 6144,
      "Beth": 6145,
      "ministr": 6146,
      "zel": 6147,
      "patientia": 6148,
      "conscript": 6149,
      "74": 6150,
      "Sar": 6151,
      "assid": 6152,
      "maiest": 6153,
      "jure": 6154,
      "##inn": 6155,
      "potens": 6156,
      "sedes": 6157,
      "ungu": 6158,
      "##amento": 6159,
      "##illis": 6160,
      "peregr": 6161,
      "aetas": 6162,
      "Erat": 6163,
      "##entiis": 6164,
      "iura": 6165,
      "luna": 6166,
      "subst": 6167,
      "homic": 6168,
      "putas": 6169,
      "affectu": 6170,
      "praeterm": 6171,
      "diuin": 6172,
      "approp": 6173,
      "79": 6174,
      "rust": 6175,
      "##--": 6176,
      "sacramenti": 6177,
      "##ulerit": 6178,
      "lapid": 6179,
      "gens": 6180,
      "quandam": 6181,
      "Roma": 6182,
      "domest": 6183,
      "##terum": 6184,
      "humano": 6185,
      "suarum": 6186,
      "inconven": 6187,
      "Mel": 6188,
      "Plat": 6189,
      "requi": 6190,
      "littera": 6191,
      "responde": 6192,
      "##iosis": 6193,
      "patribus": 6194,
      "malus": 6195,
      "aquarum": 6196,
      "Porro": 6197,
      "actibus": 6198,
      "Isai": 6199,
      "fertur": 6200,
      "praestare": 6201,
      "error": 6202,
      "noctis": 6203,
      "admitt": 6204,
      "despic": 6205,
      "pervenire": 6206,
      "illae": 6207,
      "significatur": 6208,
      "subscrip": 6209,
      "creaturam": 6210,
      "aliquot": 6211,
      "diabolo": 6212,
      "solem": 6213,
      "uenit": 6214,
      "Quint": 6215,
      "perfectio": 6216,
      "Pauli": 6217,
      "consules": 6218,
      "præc": 6219,
      "sacerdotum": 6220,
      "vul": 6221,
      "concilio": 6222,
      "duces": 6223,
      "mere": 6224,
      "nullis": 6225,
      "tenetur": 6226,
      "Juli": 6227,
      "potestatis": 6228,
      "status": 6229,
      "compell": 6230,
      "Cre": 6231,
      "sepult": 6232,
      "##lio": 6233,
      "corrip": 6234,
      "##iturus": 6235,
      "affectus": 6236,
      "charitas": 6237,
      "oppress": 6238,
      "dicamus": 6239,
      "dispon": 6240,
      "generatio": 6241,
      "Thr": 6242,
      "rud": 6243,
      "retro": 6244,
      "effug": 6245,
      "infinita": 6246,
      "valent": 6247,
      "decet": 6248,
      "copia": 6249,
      "mulierem": 6250,
      "##aculis": 6251,
      "Hannib": 6252,
      "Sup": 6253,
      "oportere": 6254,
      "##itionibus": 6255,
      "Tar": 6256,
      "Petro": 6257,
      "##riae": 6258,
      "##isses": 6259,
      "persuas": 6260,
      "##ocr": 6261,
      "opportun": 6262,
      "mentes": 6263,
      "dividitur": 6264,
      "alioqu": 6265,
      "heb": 6266,
      "utitur": 6267,
      "Romanus": 6268,
      "liberos": 6269,
      "##issi": 6270,
      "abd": 6271,
      "opinio": 6272,
      "##itatione": 6273,
      "noctem": 6274,
      "Quantum": 6275,
      "76": 6276,
      "uterque": 6277,
      "##nit": 6278,
      "adsum": 6279,
      "##areat": 6280,
      "specia": 6281,
      "porta": 6282,
      "prodest": 6283,
      "accepta": 6284,
      "nosse": 6285,
      "85": 6286,
      "##emin": 6287,
      "##liae": 6288,
      "disciplinam": 6289,
      "tantae": 6290,
      "sicuti": 6291,
      "Deut": 6292,
      "parentibus": 6293,
      "mancip": 6294,
      "##aet": 6295,
      "divino": 6296,
      "Romanum": 6297,
      "charitatis": 6298,
      "proximi": 6299,
      "##illum": 6300,
      "poet": 6301,
      "oppidum": 6302,
      "77": 6303,
      "XXII": 6304,
      "fiet": 6305,
      "effus": 6306,
      "bus": 6307,
      "expedit": 6308,
      "##IC": 6309,
      "odium": 6310,
      "Te": 6311,
      "angelis": 6312,
      "to": 6313,
      "difficile": 6314,
      "pietas": 6315,
      "aeris": 6316,
      "##erg": 6317,
      "##estis": 6318,
      "venerit": 6319,
      "esto": 6320,
      "lug": 6321,
      "Hon": 6322,
      "senatum": 6323,
      "diuit": 6324,
      "remitt": 6325,
      "conjunct": 6326,
      "inest": 6327,
      "miles": 6328,
      "Mal": 6329,
      "##erito": 6330,
      "signis": 6331,
      "hæ": 6332,
      "maiorem": 6333,
      "moder": 6334,
      "adjut": 6335,
      "Vict": 6336,
      "mulieres": 6337,
      "adjuv": 6338,
      "Valent": 6339,
      "##ingit": 6340,
      "imagin": 6341,
      "verus": 6342,
      "remov": 6343,
      "reliquit": 6344,
      "emin": 6345,
      "auxilio": 6346,
      "vestro": 6347,
      "animis": 6348,
      "accipitur": 6349,
      "Satur": 6350,
      "oves": 6351,
      "integr": 6352,
      "adfect": 6353,
      "##........": 6354,
      "80": 6355,
      "ambo": 6356,
      "Cujus": 6357,
      "sentire": 6358,
      "paradis": 6359,
      "vehementer": 6360,
      "tumult": 6361,
      "gaudio": 6362,
      "mense": 6363,
      "και": 6364,
      "simili": 6365,
      "interest": 6366,
      "Prima": 6367,
      "laborem": 6368,
      "Capit": 6369,
      "dives": 6370,
      "Su": 6371,
      "##OS": 6372,
      "indust": 6373,
      "Primum": 6374,
      "communem": 6375,
      "itinere": 6376,
      "avert": 6377,
      "even": 6378,
      "Moysi": 6379,
      "Poen": 6380,
      "fecerat": 6381,
      "prost": 6382,
      "approb": 6383,
      "erroris": 6384,
      "83": 6385,
      "amare": 6386,
      "##aturum": 6387,
      "committ": 6388,
      "testimonio": 6389,
      "Bas": 6390,
      "##uunt": 6391,
      "auctore": 6392,
      "continet": 6393,
      "Iun": 6394,
      "##LC": 6395,
      "crimine": 6396,
      "infam": 6397,
      "fratri": 6398,
      "personarum": 6399,
      "dulced": 6400,
      "XIX": 6401,
      "caelestis": 6402,
      "dexteram": 6403,
      "tantis": 6404,
      "merita": 6405,
      "mendacium": 6406,
      "continetur": 6407,
      "administr": 6408,
      "##uls": 6409,
      "fabric": 6410,
      "frang": 6411,
      "##ha": 6412,
      "amicos": 6413,
      "Judaei": 6414,
      "volum": 6415,
      "remans": 6416,
      "##ss": 6417,
      "animarum": 6418,
      "veniat": 6419,
      "docuit": 6420,
      "decern": 6421,
      "lact": 6422,
      "##atenus": 6423,
      "inan": 6424,
      "##ellas": 6425,
      "artic": 6426,
      "esc": 6427,
      "irac": 6428,
      "filiae": 6429,
      "pauca": 6430,
      "##entissime": 6431,
      "quotiens": 6432,
      "coelestis": 6433,
      "vitio": 6434,
      "##oper": 6435,
      "##atia": 6436,
      "##veris": 6437,
      "Aur": 6438,
      "Iuda": 6439,
      "fix": 6440,
      "personis": 6441,
      "##aeum": 6442,
      "Quasi": 6443,
      "peri": 6444,
      "eris": 6445,
      "timere": 6446,
      "foras": 6447,
      "redim": 6448,
      "adsc": 6449,
      "faciens": 6450,
      "opes": 6451,
      "Joseph": 6452,
      "Nol": 6453,
      "vias": 6454,
      "affectum": 6455,
      "Metaphysicae": 6456,
      "##onus": 6457,
      "concip": 6458,
      "##eis": 6459,
      "principibus": 6460,
      "81": 6461,
      "##unxit": 6462,
      "operationem": 6463,
      "odor": 6464,
      "Vide": 6465,
      "lam": 6466,
      "nullius": 6467,
      "militibus": 6468,
      "timorem": 6469,
      "uuln": 6470,
      "Nonne": 6471,
      "dicebant": 6472,
      "Postquam": 6473,
      "popul": 6474,
      "exord": 6475,
      "silv": 6476,
      "lignum": 6477,
      "inesse": 6478,
      "praen": 6479,
      "charitate": 6480,
      "uin": 6481,
      "solam": 6482,
      "virorum": 6483,
      "Iesum": 6484,
      "liberis": 6485,
      "contrah": 6486,
      "herc": 6487,
      "intelligendum": 6488,
      "habebant": 6489,
      "noluit": 6490,
      "praemia": 6491,
      "78": 6492,
      "veram": 6493,
      "apostolis": 6494,
      "incorp": 6495,
      "ultro": 6496,
      "possis": 6497,
      "medioc": 6498,
      "praesumpt": 6499,
      "linguae": 6500,
      "rot": 6501,
      "rip": 6502,
      "saeculum": 6503,
      "ingenio": 6504,
      "iustum": 6505,
      "miracula": 6506,
      "##odi": 6507,
      "mach": 6508,
      "magnitudine": 6509,
      "litterae": 6510,
      "hereditatem": 6511,
      "quarto": 6512,
      "mortuum": 6513,
      "sob": 6514,
      "cognitione": 6515,
      "quaeso": 6516,
      "duce": 6517,
      "ultima": 6518,
      "officia": 6519,
      "##erentes": 6520,
      "divitias": 6521,
      "necessario": 6522,
      "meruit": 6523,
      "pretio": 6524,
      "iuc": 6525,
      "futuri": 6526,
      "##enc": 6527,
      "unumqu": 6528,
      "sati": 6529,
      "##rarum": 6530,
      "catholicae": 6531,
      "Tro": 6532,
      "irae": 6533,
      "quolibet": 6534,
      "perfecte": 6535,
      "murm": 6536,
      "uerbis": 6537,
      "##cili": 6538,
      "resid": 6539,
      "primae": 6540,
      "tristitia": 6541,
      "Eccli": 6542,
      "Alia": 6543,
      "##ertus": 6544,
      "resurrectione": 6545,
      "percut": 6546,
      "explor": 6547,
      "##uistis": 6548,
      "nep": 6549,
      "credunt": 6550,
      "acquir": 6551,
      "probatur": 6552,
      "nescit": 6553,
      "patriarch": 6554,
      "##ασ": 6555,
      "dissimul": 6556,
      "utilitatem": 6557,
      "intentio": 6558,
      "legati": 6559,
      "dignitate": 6560,
      "laude": 6561,
      "pastor": 6562,
      "##oed": 6563,
      "principum": 6564,
      "uera": 6565,
      "facis": 6566,
      "adha": 6567,
      "subiectum": 6568,
      "ine": 6569,
      "perag": 6570,
      "credidit": 6571,
      "fidelibus": 6572,
      "fov": 6573,
      "org": 6574,
      "negat": 6575,
      "possimus": 6576,
      "debetur": 6577,
      "##ymp": 6578,
      "expugn": 6579,
      "astr": 6580,
      "##nas": 6581,
      "##ecte": 6582,
      "destr": 6583,
      "dextera": 6584,
      "Asc": 6585,
      "##ibilibus": 6586,
      "Arg": 6587,
      "ingredi": 6588,
      "utile": 6589,
      "Pharis": 6590,
      "habebit": 6591,
      "fuga": 6592,
      "consecr": 6593,
      "incid": 6594,
      "impon": 6595,
      "litterarum": 6596,
      "quinquaginta": 6597,
      "Cred": 6598,
      "##onium": 6599,
      "postremo": 6600,
      "eisdem": 6601,
      "templi": 6602,
      "Antichrist": 6603,
      "negotium": 6604,
      "##ages": 6605,
      "intellegi": 6606,
      "mensis": 6607,
      "publice": 6608,
      "Caec": 6609,
      "simus": 6610,
      "quemquam": 6611,
      "novo": 6612,
      "satur": 6613,
      "Inc": 6614,
      "Nic": 6615,
      "nau": 6616,
      "mercedem": 6617,
      "##ulisse": 6618,
      "##igur": 6619,
      "desiderio": 6620,
      "acies": 6621,
      "testis": 6622,
      "Cn": 6623,
      "Herc": 6624,
      "##ectione": 6625,
      "##anu": 6626,
      "peculi": 6627,
      "transc": 6628,
      "transire": 6629,
      "considerandum": 6630,
      "syllog": 6631,
      "acerb": 6632,
      "Eut": 6633,
      "diceretur": 6634,
      "Iudaeorum": 6635,
      "exhort": 6636,
      "equites": 6637,
      "##UL": 6638,
      "##IN": 6639,
      "##ialem": 6640,
      "preces": 6641,
      "partium": 6642,
      "Mis": 6643,
      "##do": 6644,
      "##onio": 6645,
      "fortitudo": 6646,
      "intu": 6647,
      "content": 6648,
      "##ommunic": 6649,
      "pauperes": 6650,
      "episcopos": 6651,
      "monasterio": 6652,
      "incho": 6653,
      "veniet": 6654,
      "nihilominus": 6655,
      "acta": 6656,
      "praesid": 6657,
      "##ogen": 6658,
      "82": 6659,
      "subtrah": 6660,
      "ero": 6661,
      "Genes": 6662,
      "##posita": 6663,
      "##itari": 6664,
      "superioribus": 6665,
      "Mor": 6666,
      "divinum": 6667,
      "dedi": 6668,
      "inimicus": 6669,
      "gust": 6670,
      "proinde": 6671,
      "vesper": 6672,
      "##errim": 6673,
      "faciant": 6674,
      "Hierosolym": 6675,
      "repell": 6676,
      "clari": 6677,
      "prohibet": 6678,
      "##ursum": 6679,
      "linguam": 6680,
      "haberi": 6681,
      "proximo": 6682,
      "prophetarum": 6683,
      "sustinere": 6684,
      "ton": 6685,
      "consurg": 6686,
      "Laud": 6687,
      "vultus": 6688,
      "It": 6689,
      "decre": 6690,
      "adip": 6691,
      "servos": 6692,
      "fate": 6693,
      "exult": 6694,
      "ulterius": 6695,
      "##illo": 6696,
      "diuina": 6697,
      "usurp": 6698,
      "contrist": 6699,
      "positus": 6700,
      "insip": 6701,
      "amicitia": 6702,
      "unic": 6703,
      "impugn": 6704,
      "reserv": 6705,
      "ferm": 6706,
      "cognoscitur": 6707,
      "##ienda": 6708,
      "dicentem": 6709,
      "apostolicae": 6710,
      "cresc": 6711,
      "praeceptis": 6712,
      "Saul": 6713,
      "pluv": 6714,
      "uic": 6715,
      "imperatoris": 6716,
      "Sil": 6717,
      "laes": 6718,
      "percuss": 6719,
      "sermones": 6720,
      "##aeorum": 6721,
      "sede": 6722,
      "Illa": 6723,
      "mortuos": 6724,
      "ducem": 6725,
      "spons": 6726,
      "modest": 6727,
      "servo": 6728,
      "pondere": 6729,
      "phantas": 6730,
      "testamenti": 6731,
      "cecidit": 6732,
      "quintum": 6733,
      "Aaron": 6734,
      "Rex": 6735,
      "meret": 6736,
      "pietate": 6737,
      "fas": 6738,
      "amicus": 6739,
      "ignosc": 6740,
      "negare": 6741,
      "##illus": 6742,
      "Franc": 6743,
      "Rem": 6744,
      "agro": 6745,
      "recens": 6746,
      "finibus": 6747,
      "Ed": 6748,
      "##olae": 6749,
      "intellex": 6750,
      "respondere": 6751,
      "moveri": 6752,
      "sciens": 6753,
      "duorum": 6754,
      "mess": 6755,
      "incolum": 6756,
      "plurima": 6757,
      "discipulos": 6758,
      "##itatio": 6759,
      "ceterum": 6760,
      "##odos": 6761,
      "divini": 6762,
      "bal": 6763,
      "infirmitate": 6764,
      "faciendum": 6765,
      "##erique": 6766,
      "Sym": 6767,
      "##iteri": 6768,
      "Lac": 6769,
      "diligere": 6770,
      "victoria": 6771,
      "appetitus": 6772,
      "sicc": 6773,
      "secutus": 6774,
      "personas": 6775,
      "iustus": 6776,
      "ministerium": 6777,
      "obnox": 6778,
      "juv": 6779,
      "##etem": 6780,
      "veniens": 6781,
      "voces": 6782,
      "dilectio": 6783,
      "insuper": 6784,
      "Nisi": 6785,
      "mensuram": 6786,
      "##ibit": 6787,
      "debita": 6788,
      "Angelis": 6789,
      "quocumque": 6790,
      "humilitatis": 6791,
      "Quart": 6792,
      "superbiam": 6793,
      "##uad": 6794,
      "prophetas": 6795,
      "##olam": 6796,
      "Pelag": 6797,
      "adolesc": 6798,
      "##iturum": 6799,
      "veri": 6800,
      "naturalem": 6801,
      "reconcili": 6802,
      "Heli": 6803,
      "conn": 6804,
      "Sanctus": 6805,
      "refic": 6806,
      "stipul": 6807,
      "Sat": 6808,
      "##yd": 6809,
      "##ardus": 6810,
      "episcoporum": 6811,
      "##ongo": 6812,
      "##unx": 6813,
      "unigen": 6814,
      "##actenus": 6815,
      "uix": 6816,
      "Italia": 6817,
      "Alexander": 6818,
      "contrari": 6819,
      "Christiani": 6820,
      "honoris": 6821,
      "##apropter": 6822,
      "tenuit": 6823,
      "Alio": 6824,
      "legatos": 6825,
      "fugam": 6826,
      "##issus": 6827,
      "cursu": 6828,
      "dissip": 6829,
      "perpetuum": 6830,
      "petere": 6831,
      "Evangel": 6832,
      "vota": 6833,
      "##onos": 6834,
      "concilium": 6835,
      "Romanae": 6836,
      "constituta": 6837,
      "intentione": 6838,
      "quamdiu": 6839,
      "Iob": 6840,
      "quales": 6841,
      "genit": 6842,
      "deg": 6843,
      "subsequ": 6844,
      "amicis": 6845,
      "##ατ": 6846,
      "##iterit": 6847,
      "regione": 6848,
      "reprehend": 6849,
      "sinu": 6850,
      "rationalis": 6851,
      "πρ": 6852,
      "##ecerunt": 6853,
      "dicitis": 6854,
      "passim": 6855,
      "oculus": 6856,
      "deneg": 6857,
      "subditur": 6858,
      "invidia": 6859,
      "84": 6860,
      "fata": 6861,
      "dignatus": 6862,
      "Italiam": 6863,
      "vo": 6864,
      "artis": 6865,
      "catholica": 6866,
      "##rati": 6867,
      "generationem": 6868,
      "gaudia": 6869,
      "beata": 6870,
      "Anim": 6871,
      "perfectus": 6872,
      "videantur": 6873,
      "terrib": 6874,
      "inex": 6875,
      "##idas": 6876,
      "credid": 6877,
      "contrario": 6878,
      "##enos": 6879,
      "unitate": 6880,
      "cadit": 6881,
      "contro": 6882,
      "##eruit": 6883,
      "pernic": 6884,
      "suscep": 6885,
      "Comm": 6886,
      "gram": 6887,
      "equitum": 6888,
      "##oniae": 6889,
      "instr": 6890,
      "##erebatur": 6891,
      "nasci": 6892,
      "Dau": 6893,
      "spatio": 6894,
      "Phys": 6895,
      "mulieris": 6896,
      "præs": 6897,
      "Vos": 6898,
      "fert": 6899,
      "humilitate": 6900,
      "laudis": 6901,
      "##iculum": 6902,
      "##estim": 6903,
      "pondus": 6904,
      "laetitia": 6905,
      "conturb": 6906,
      "capita": 6907,
      "pecuniae": 6908,
      "##uique": 6909,
      "extoll": 6910,
      "neut": 6911,
      "effund": 6912,
      "brach": 6913,
      "##verter": 6914,
      "##incip": 6915,
      "agg": 6916,
      "vasa": 6917,
      "sud": 6918,
      "adu": 6919,
      "XXIII": 6920,
      "veteres": 6921,
      "negleg": 6922,
      "##ibilium": 6923,
      "Alii": 6924,
      "##bet": 6925,
      "Quorum": 6926,
      "debeant": 6927,
      "longum": 6928,
      "saeculorum": 6929,
      "Illi": 6930,
      "##olat": 6931,
      "alim": 6932,
      "nefas": 6933,
      "matrimonium": 6934,
      "verecund": 6935,
      "noctur": 6936,
      "sursum": 6937,
      "consili": 6938,
      "differt": 6939,
      "disciplinae": 6940,
      "alicujus": 6941,
      "consilia": 6942,
      "uirtus": 6943,
      "diutius": 6944,
      "pel": 6945,
      "potuerit": 6946,
      "interv": 6947,
      "unquam": 6948,
      "Dauid": 6949,
      "occasionem": 6950,
      "##yph": 6951,
      "cibo": 6952,
      "Quapropter": 6953,
      "sanctam": 6954,
      "prosequ": 6955,
      "##acem": 6956,
      "multae": 6957,
      "comprehend": 6958,
      "femina": 6959,
      "occurrit": 6960,
      "humilitatem": 6961,
      "oppugn": 6962,
      "seri": 6963,
      "##ary": 6964,
      "##ioso": 6965,
      "epistolam": 6966,
      "##riam": 6967,
      "uestra": 6968,
      "flumina": 6969,
      "contig": 6970,
      "vides": 6971,
      "annunt": 6972,
      "ulc": 6973,
      "88": 6974,
      "offens": 6975,
      "insol": 6976,
      "##rio": 6977,
      "ipsas": 6978,
      "mortuorum": 6979,
      "contem": 6980,
      "spei": 6981,
      "martyrum": 6982,
      "masc": 6983,
      "##πο": 6984,
      "lapidem": 6985,
      "grau": 6986,
      "senect": 6987,
      "potuisset": 6988,
      "##ades": 6989,
      "##acti": 6990,
      "proposito": 6991,
      "dot": 6992,
      "hast": 6993,
      "##estig": 6994,
      "sapientes": 6995,
      "detest": 6996,
      "aeth": 6997,
      "breviter": 6998,
      "thr": 6999,
      "posuerunt": 7000,
      "glori": 7001,
      "mittit": 7002,
      "parva": 7003,
      "##unctum": 7004,
      "apostolica": 7005,
      "87": 7006,
      "pasch": 7007,
      "tela": 7008,
      "habita": 7009,
      "corrept": 7010,
      "moenia": 7011,
      "##utionis": 7012,
      "magnitudinem": 7013,
      "inha": 7014,
      "##itteret": 7015,
      "Dani": 7016,
      "alta": 7017,
      "vester": 7018,
      "domos": 7019,
      "gess": 7020,
      "capere": 7021,
      "fideic": 7022,
      "legatum": 7023,
      "castig": 7024,
      "dudum": 7025,
      "cruce": 7026,
      "sidera": 7027,
      "brevi": 7028,
      "stim": 7029,
      "absit": 7030,
      "Tol": 7031,
      "optimum": 7032,
      "consequenter": 7033,
      "Eus": 7034,
      "locorum": 7035,
      "##ifer": 7036,
      "Class": 7037,
      "temere": 7038,
      "ampli": 7039,
      "Scripturis": 7040,
      "beneficia": 7041,
      "ligno": 7042,
      "extrema": 7043,
      "##ele": 7044,
      "Judaeis": 7045,
      "Sancti": 7046,
      "daret": 7047,
      "hol": 7048,
      "habuisse": 7049,
      "iniquitas": 7050,
      "##ratis": 7051,
      "jact": 7052,
      "αν": 7053,
      "##orius": 7054,
      "pugna": 7055,
      "menti": 7056,
      "##cm": 7057,
      "ipsae": 7058,
      "veteris": 7059,
      "##upl": 7060,
      "truc": 7061,
      "semina": 7062,
      "charitatem": 7063,
      "aciem": 7064,
      "nusquam": 7065,
      "intentionem": 7066,
      "crucem": 7067,
      "laus": 7068,
      "fratre": 7069,
      "poenitentia": 7070,
      "##andas": 7071,
      "##eptum": 7072,
      "occulta": 7073,
      "placere": 7074,
      "ducit": 7075,
      "litteram": 7076,
      "dilectionem": 7077,
      "adventu": 7078,
      "##qua": 7079,
      "##tax": 7080,
      "subm": 7081,
      "foret": 7082,
      "Nest": 7083,
      "##ησ": 7084,
      "sensit": 7085,
      "dit": 7086,
      "##inarum": 7087,
      "longius": 7088,
      "Aegypto": 7089,
      "nuptias": 7090,
      "##etas": 7091,
      "morum": 7092,
      "##emit": 7093,
      "conform": 7094,
      "Disc": 7095,
      "metus": 7096,
      "Cyp": 7097,
      "sermonibus": 7098,
      "lapides": 7099,
      "consulibus": 7100,
      "unitas": 7101,
      "videns": 7102,
      "column": 7103,
      "calig": 7104,
      "Princip": 7105,
      "apostolos": 7106,
      "creaturis": 7107,
      "late": 7108,
      "##imento": 7109,
      "Trinitatis": 7110,
      "Hebra": 7111,
      "deu": 7112,
      "audivit": 7113,
      "Des": 7114,
      "maiores": 7115,
      "vestigia": 7116,
      "intendit": 7117,
      "86": 7118,
      "##ener": 7119,
      "deform": 7120,
      "vetus": 7121,
      "AEgypt": 7122,
      "libertate": 7123,
      "##istae": 7124,
      "abiit": 7125,
      "decus": 7126,
      "Phara": 7127,
      "Uno": 7128,
      "beneficio": 7129,
      "mansuetud": 7130,
      "dere": 7131,
      "clav": 7132,
      "certo": 7133,
      "haeretici": 7134,
      "discord": 7135,
      "pacific": 7136,
      "##roc": 7137,
      "inspir": 7138,
      "ferunt": 7139,
      "pectus": 7140,
      "##μεν": 7141,
      "dicendo": 7142,
      "laudes": 7143,
      "##ripsit": 7144,
      "propriae": 7145,
      "aliquibus": 7146,
      "contradict": 7147,
      "ferrum": 7148,
      "copul": 7149,
      "##une": 7150,
      "exced": 7151,
      "Ea": 7152,
      "gentem": 7153,
      "quique": 7154,
      "igni": 7155,
      "iniuriam": 7156,
      "quarta": 7157,
      "Ost": 7158,
      "animalibus": 7159,
      "militiae": 7160,
      "addidit": 7161,
      "oleum": 7162,
      "torr": 7163,
      "communione": 7164,
      "iuuen": 7165,
      "respicit": 7166,
      "generatione": 7167,
      "paulatim": 7168,
      "Eli": 7169,
      "beatitudinem": 7170,
      "Aegypti": 7171,
      "Redempt": 7172,
      "debit": 7173,
      "docere": 7174,
      "##pote": 7175,
      "originem": 7176,
      "unicuique": 7177,
      ".—": 7178,
      "aquil": 7179,
      "lapis": 7180,
      "centur": 7181,
      "##EM": 7182,
      "amplex": 7183,
      "##TA": 7184,
      "amicum": 7185,
      "asp": 7186,
      "##yrr": 7187,
      "transit": 7188,
      "legum": 7189,
      "haberent": 7190,
      "gratis": 7191,
      "tertiam": 7192,
      "CXX": 7193,
      "Quos": 7194,
      "plenum": 7195,
      "infidel": 7196,
      "manifeste": 7197,
      "ueter": 7198,
      "##pit": 7199,
      "admodum": 7200,
      "institu": 7201,
      "dolo": 7202,
      "redire": 7203,
      "extremum": 7204,
      "91": 7205,
      "Rec": 7206,
      "dicant": 7207,
      "remedium": 7208,
      "##iavit": 7209,
      "##verint": 7210,
      "speci": 7211,
      "angelorum": 7212,
      "Sever": 7213,
      "##assent": 7214,
      "fortiter": 7215,
      "recogn": 7216,
      "Dan": 7217,
      "##pes": 7218,
      "##υν": 7219,
      "stir": 7220,
      "civium": 7221,
      "convenire": 7222,
      "fructu": 7223,
      "foro": 7224,
      "pus": 7225,
      "abbas": 7226,
      "vocavit": 7227,
      "##urrere": 7228,
      "invenire": 7229,
      "sustent": 7230,
      "album": 7231,
      "##ics": 7232,
      "utpote": 7233,
      "Apostoli": 7234,
      "peper": 7235,
      "dicendi": 7236,
      "inimicis": 7237,
      "fus": 7238,
      "agros": 7239,
      "crimina": 7240,
      "##icin": 7241,
      "##ende": 7242,
      "veniunt": 7243,
      "antec": 7244,
      "Euseb": 7245,
      "##tamen": 7246,
      "##CH": 7247,
      "diversas": 7248,
      "proelio": 7249,
      "##elam": 7250,
      "peccator": 7251,
      "sapient": 7252,
      "exim": 7253,
      "dura": 7254,
      "universi": 7255,
      "Caesare": 7256,
      "gradu": 7257,
      "suprem": 7258,
      "facinus": 7259,
      "are": 7260,
      "##aci": 7261,
      "different": 7262,
      "##pta": 7263,
      "Quin": 7264,
      "studiis": 7265,
      "acie": 7266,
      "plan": 7267,
      "dignitatis": 7268,
      "conpl": 7269,
      "dimic": 7270,
      "Ante": 7271,
      "optime": 7272,
      "complex": 7273,
      "testes": 7274,
      "Quodlibet": 7275,
      "perpetua": 7276,
      "##umenta": 7277,
      "contradic": 7278,
      "oleo": 7279,
      "elementa": 7280,
      "obiectum": 7281,
      "##quo": 7282,
      "##erog": 7283,
      "proficisc": 7284,
      "feri": 7285,
      "##amb": 7286,
      "regibus": 7287,
      "devor": 7288,
      "press": 7289,
      "trepid": 7290,
      "Simon": 7291,
      "sciendum": 7292,
      "concub": 7293,
      "silentio": 7294,
      "volens": 7295,
      "montibus": 7296,
      "excommunic": 7297,
      "reprom": 7298,
      "Fortun": 7299,
      "##ixt": 7300,
      "subscripsi": 7301,
      "datus": 7302,
      "##eatis": 7303,
      "plerique": 7304,
      "auctores": 7305,
      "immob": 7306,
      "consensu": 7307,
      "fortunae": 7308,
      "patientiam": 7309,
      "existens": 7310,
      "praecipit": 7311,
      "maximum": 7312,
      "lax": 7313,
      "moll": 7314,
      "##usque": 7315,
      "istos": 7316,
      "ingens": 7317,
      "portas": 7318,
      "destru": 7319,
      "corporalis": 7320,
      "##verant": 7321,
      "##iator": 7322,
      "respondet": 7323,
      "Scripturae": 7324,
      "quidquam": 7325,
      "Theoph": 7326,
      "nonnulli": 7327,
      "insidias": 7328,
      "Bar": 7329,
      "unct": 7330,
      "efficitur": 7331,
      "conu": 7332,
      "elegit": 7333,
      "manifesta": 7334,
      "torqu": 7335,
      "Joannis": 7336,
      "qualem": 7337,
      "##icere": 7338,
      "ars": 7339,
      "baptismum": 7340,
      "facio": 7341,
      "operari": 7342,
      "Quamvis": 7343,
      "infest": 7344,
      "ordinatur": 7345,
      "compon": 7346,
      "condicione": 7347,
      "triplic": 7348,
      "##ilic": 7349,
      "flamma": 7350,
      "innot": 7351,
      "puerum": 7352,
      "Moysen": 7353,
      "fronte": 7354,
      "VER": 7355,
      "##atius": 7356,
      "propag": 7357,
      "nubes": 7358,
      "longo": 7359,
      "nobil": 7360,
      "terminum": 7361,
      "##abilibus": 7362,
      "color": 7363,
      "##amine": 7364,
      "nempe": 7365,
      "Vit": 7366,
      "Arch": 7367,
      "haereticorum": 7368,
      "facias": 7369,
      "communiter": 7370,
      "scelus": 7371,
      "interius": 7372,
      "##lev": 7373,
      "Scripturarum": 7374,
      "##agog": 7375,
      "secreta": 7376,
      "aliquos": 7377,
      "allig": 7378,
      "crediderunt": 7379,
      "publico": 7380,
      "rationibus": 7381,
      "repud": 7382,
      "uiri": 7383,
      "aetatem": 7384,
      "testimonia": 7385,
      "Dionysius": 7386,
      "sumitur": 7387,
      "Ga": 7388,
      "salu": 7389,
      "notitiam": 7390,
      "##erret": 7391,
      "antist": 7392,
      "rogo": 7393,
      "numeros": 7394,
      "Dioc": 7395,
      "studia": 7396,
      "Caesarem": 7397,
      "iracund": 7398,
      "opprim": 7399,
      "coeperunt": 7400,
      "ausus": 7401,
      "prouinc": 7402,
      "fiducia": 7403,
      "Petrum": 7404,
      "semetipsum": 7405,
      "oculorum": 7406,
      "promis": 7407,
      "poenitentiae": 7408,
      "##itura": 7409,
      "Libr": 7410,
      "constantinopoli": 7411,
      "##illim": 7412,
      "scribere": 7413,
      "cogitare": 7414,
      "Do": 7415,
      "animalium": 7416,
      "regio": 7417,
      "laboris": 7418,
      "cun": 7419,
      "similitudine": 7420,
      "LXXX": 7421,
      "dicas": 7422,
      "##ectionem": 7423,
      "vident": 7424,
      "secundam": 7425,
      "confug": 7426,
      "transeunt": 7427,
      "recess": 7428,
      "eosdem": 7429,
      "Paulo": 7430,
      "##igr": 7431,
      "##ietis": 7432,
      "adiut": 7433,
      "cooper": 7434,
      "redit": 7435,
      "Cuius": 7436,
      "cer": 7437,
      "bonitas": 7438,
      "agri": 7439,
      "tribuit": 7440,
      "libertas": 7441,
      "vini": 7442,
      "habuerit": 7443,
      "Etenim": 7444,
      "beatum": 7445,
      "actiones": 7446,
      "dederit": 7447,
      "pauperibus": 7448,
      "egressus": 7449,
      "ian": 7450,
      "caut": 7451,
      "applic": 7452,
      "Paulum": 7453,
      "flumen": 7454,
      "adest": 7455,
      "vulnera": 7456,
      "fum": 7457,
      "requiem": 7458,
      "perp": 7459,
      "Episcop": 7460,
      "##issimas": 7461,
      "cives": 7462,
      "similem": 7463,
      "confessione": 7464,
      "iniuria": 7465,
      "excit": 7466,
      "refertur": 7467,
      "consuetudo": 7468,
      "consuetudine": 7469,
      "ceteri": 7470,
      "imperatorem": 7471,
      "Steph": 7472,
      "Manifest": 7473,
      "credentes": 7474,
      "miseri": 7475,
      "scrut": 7476,
      "agunt": 7477,
      "religione": 7478,
      "reliquis": 7479,
      "egit": 7480,
      "##acum": 7481,
      "honores": 7482,
      "cent": 7483,
      "valid": 7484,
      "##OM": 7485,
      "Graece": 7486,
      "recipere": 7487,
      "loquebatur": 7488,
      "ide": 7489,
      "gravis": 7490,
      "labores": 7491,
      "gladium": 7492,
      "patef": 7493,
      "ostium": 7494,
      "displic": 7495,
      "universis": 7496,
      "viae": 7497,
      "sacerdotibus": 7498,
      "ej": 7499,
      "defectus": 7500,
      "Cicero": 7501,
      "meorum": 7502,
      "creata": 7503,
      "Iudaei": 7504,
      "bov": 7505,
      "##ulerat": 7506,
      "dextra": 7507,
      "Zach": 7508,
      "parric": 7509,
      "Omne": 7510,
      "gn": 7511,
      "delinqu": 7512,
      "conveniunt": 7513,
      "exterius": 7514,
      "dilectione": 7515,
      "deserto": 7516,
      "velim": 7517,
      "innumer": 7518,
      "Goth": 7519,
      "generat": 7520,
      "##riter": 7521,
      "##iamur": 7522,
      "solvit": 7523,
      "Oport": 7524,
      "Dicitur": 7525,
      "##icip": 7526,
      "100": 7527,
      "uere": 7528,
      "##rips": 7529,
      "terminus": 7530,
      "impetu": 7531,
      "##ono": 7532,
      "bened": 7533,
      "latus": 7534,
      "##ensium": 7535,
      "Proc": 7536,
      "custodia": 7537,
      "Library": 7538,
      "sib": 7539,
      "Aet": 7540,
      "Es": 7541,
      "dans": 7542,
      "Classics": 7543,
      "dimin": 7544,
      "tenebrae": 7545,
      "cibus": 7546,
      "increm": 7547,
      "includ": 7548,
      "##urn": 7549,
      "utinam": 7550,
      "montis": 7551,
      "xxx": 7552,
      "IN": 7553,
      "manere": 7554,
      "equidem": 7555,
      "pull": 7556,
      "subven": 7557,
      "servare": 7558,
      "ducis": 7559,
      "certamen": 7560,
      "Graeco": 7561,
      "pectora": 7562,
      "Physic": 7563,
      "incur": 7564,
      "##ules": 7565,
      "immund": 7566,
      "potissimum": 7567,
      "alienis": 7568,
      "circuitu": 7569,
      "alioquin": 7570,
      "Ter": 7571,
      "scient": 7572,
      "##episcop": 7573,
      "pœ": 7574,
      "##ingere": 7575,
      "cotidie": 7576,
      "lep": 7577,
      "##utae": 7578,
      "suscipere": 7579,
      "##hi": 7580,
      "trec": 7581,
      "quoad": 7582,
      "Arc": 7583,
      "praesentem": 7584,
      "laudibus": 7585,
      "circumstant": 7586,
      "dilectionis": 7587,
      "comprob": 7588,
      "apostolum": 7589,
      "##erata": 7590,
      "ostensum": 7591,
      "succed": 7592,
      "Africa": 7593,
      "##eramus": 7594,
      "implere": 7595,
      "##lem": 7596,
      "aiunt": 7597,
      "fons": 7598,
      "generationis": 7599,
      "##alam": 7600,
      "vitiorum": 7601,
      "figuram": 7602,
      "manifestat": 7603,
      "moli": 7604,
      "##lorum": 7605,
      "coerc": 7606,
      "ingenti": 7607,
      "evangeli": 7608,
      "drac": 7609,
      "factam": 7610,
      "converso": 7611,
      "pedum": 7612,
      "pronunti": 7613,
      "aeterno": 7614,
      "morem": 7615,
      "perit": 7616,
      "quasdam": 7617,
      "enum": 7618,
      "##eritur": 7619,
      "facin": 7620,
      "##ianae": 7621,
      "cruci": 7622,
      "mysteria": 7623,
      "coc": 7624,
      "nis": 7625,
      "principaliter": 7626,
      "Damasc": 7627,
      "##istere": 7628,
      "card": 7629,
      "renov": 7630,
      "tus": 7631,
      "##90": 7632,
      "comput": 7633,
      "philosophi": 7634,
      "excludit": 7635,
      "##ianis": 7636,
      "beatitudo": 7637,
      "Salvatoris": 7638,
      "XLI": 7639,
      "qualibet": 7640,
      "detur": 7641,
      "tal": 7642,
      "##ularum": 7643,
      "accipiat": 7644,
      "iudicia": 7645,
      "videamus": 7646,
      "##ipsum": 7647,
      "utri": 7648,
      "##unde": 7649,
      "ingenium": 7650,
      "##itius": 7651,
      "##orqu": 7652,
      "formas": 7653,
      "cuique": 7654,
      "referre": 7655,
      "pacto": 7656,
      "tel": 7657,
      "uac": 7658,
      "##aeo": 7659,
      "variis": 7660,
      "##vol": 7661,
      "orationibus": 7662,
      "essem": 7663,
      "pauci": 7664,
      "minorem": 7665,
      "remissionem": 7666,
      "sitis": 7667,
      "inclus": 7668,
      "doloris": 7669,
      "egredi": 7670,
      "scimus": 7671,
      "schism": 7672,
      "fuissent": 7673,
      "##ισ": 7674,
      "adversa": 7675,
      "examin": 7676,
      "resol": 7677,
      "Evangelii": 7678,
      "plebe": 7679,
      "responsum": 7680,
      "insinu": 7681,
      "paucos": 7682,
      "Salvator": 7683,
      "proven": 7684,
      "Fort": 7685,
      "parentum": 7686,
      "absur": 7687,
      "Cast": 7688,
      "amitt": 7689,
      "##95": 7690,
      "cali": 7691,
      "trit": 7692,
      "argenti": 7693,
      "##icula": 7694,
      "tranquill": 7695,
      "primogen": 7696,
      "redeunt": 7697,
      "teneri": 7698,
      "universalis": 7699,
      "argumentum": 7700,
      "lub": 7701,
      "agrum": 7702,
      "caelorum": 7703,
      "##erantur": 7704,
      "inpl": 7705,
      "iudicii": 7706,
      "fauc": 7707,
      "controvers": 7708,
      "sciat": 7709,
      "Trinitate": 7710,
      "holoc": 7711,
      "persuad": 7712,
      "missi": 7713,
      "fonte": 7714,
      "Timoth": 7715,
      "Herod": 7716,
      "stetit": 7717,
      "Ipsa": 7718,
      "euangelio": 7719,
      "exinde": 7720,
      "requiritur": 7721,
      "membrorum": 7722,
      "Hom": 7723,
      "servis": 7724,
      "periculos": 7725,
      "Sum": 7726,
      "##aculi": 7727,
      "coelorum": 7728,
      "##tam": 7729,
      "##ilus": 7730,
      "occidere": 7731,
      "rab": 7732,
      "fame": 7733,
      "extrane": 7734,
      "##εσ": 7735,
      "legiones": 7736,
      "depend": 7737,
      "Apr": 7738,
      "distr": 7739,
      "##inctus": 7740,
      "Homo": 7741,
      "##20": 7742,
      "insula": 7743,
      "##ilior": 7744,
      "iniquitatis": 7745,
      "Salomon": 7746,
      "uit": 7747,
      "necdum": 7748,
      "procre": 7749,
      "somno": 7750,
      "Ins": 7751,
      "consequitur": 7752,
      "ortus": 7753,
      "concili": 7754,
      "sentit": 7755,
      "##onae": 7756,
      "##igil": 7757,
      "gravius": 7758,
      "##idos": 7759,
      "##ituper": 7760,
      "disting": 7761,
      "uxore": 7762,
      "##37": 7763,
      "maiore": 7764,
      "potestis": 7765,
      "cursum": 7766,
      "advoc": 7767,
      "Page": 7768,
      "copiis": 7769,
      "adimpl": 7770,
      "Temp": 7771,
      "##ια": 7772,
      "##veret": 7773,
      "signo": 7774,
      "Hispania": 7775,
      "septimo": 7776,
      "Chalc": 7777,
      "##45": 7778,
      "juss": 7779,
      "uirtute": 7780,
      "##uitate": 7781,
      "##RA": 7782,
      "##arie": 7783,
      "##amenti": 7784,
      "Add": 7785,
      "negotio": 7786,
      "potui": 7787,
      "exponit": 7788,
      "men": 7789,
      "mittere": 7790,
      "integrum": 7791,
      "modicum": 7792,
      "corona": 7793,
      "differunt": 7794,
      "cogitatione": 7795,
      "poc": 7796,
      "##averint": 7797,
      "synodo": 7798,
      "perl": 7799,
      "fideliter": 7800,
      "pern": 7801,
      "impii": 7802,
      "aequalis": 7803,
      "Athanas": 7804,
      "pand": 7805,
      "##emini": 7806,
      "inordin": 7807,
      "secuti": 7808,
      "conscientiam": 7809,
      "Dioclet": 7810,
      "descript": 7811,
      "Pos": 7812,
      "##umentum": 7813,
      "##ommod": 7814,
      "##escant": 7815,
      "privileg": 7816,
      "iudex": 7817,
      "implic": 7818,
      "prophetis": 7819,
      "compreh": 7820,
      "##91": 7821,
      "populorum": 7822,
      "cultum": 7823,
      "##urorum": 7824,
      "magnae": 7825,
      "And": 7826,
      "promisit": 7827,
      "##35": 7828,
      "facultatem": 7829,
      "Huic": 7830,
      "##osus": 7831,
      "occasione": 7832,
      "barbar": 7833,
      "##uci": 7834,
      "accessit": 7835,
      "religionem": 7836,
      "Eutych": 7837,
      "##yb": 7838,
      "##25": 7839,
      "agric": 7840,
      "promissa": 7841,
      "vices": 7842,
      "cursus": 7843,
      "visa": 7844,
      "venisset": 7845,
      "praecl": 7846,
      "menses": 7847,
      "sop": 7848,
      "##hinc": 7849,
      "appropinqu": 7850,
      "##ou": 7851,
      "##iepiscop": 7852,
      "##eriorum": 7853,
      "credendum": 7854,
      "praecepto": 7855,
      "Pol": 7856,
      "principe": 7857,
      "avers": 7858,
      "adept": 7859,
      "vindict": 7860,
      "hactenus": 7861,
      "##anta": 7862,
      "depon": 7863,
      "parab": 7864,
      "Constantinop": 7865,
      "##65": 7866,
      "inveniri": 7867,
      "uindic": 7868,
      "maledic": 7869,
      "agendum": 7870,
      "secundus": 7871,
      "deliber": 7872,
      "ve": 7873,
      "oporteat": 7874,
      "coronam": 7875,
      "Cel": 7876,
      "quaero": 7877,
      "officii": 7878,
      "praedicationis": 7879,
      "dicti": 7880,
      "uoluit": 7881,
      "comparatione": 7882,
      "Av": 7883,
      "regia": 7884,
      "satisfact": 7885,
      "iusti": 7886,
      "profit": 7887,
      "Athen": 7888,
      "ingress": 7889,
      "artem": 7890,
      "##30": 7891,
      "La": 7892,
      "satisfac": 7893,
      "Ol": 7894,
      "orare": 7895,
      "Supra": 7896,
      "Camp": 7897,
      "##iderat": 7898,
      "magnitudo": 7899,
      "ordines": 7900,
      "επ": 7901,
      "##40": 7902,
      "monasterii": 7903,
      "scandalum": 7904,
      "regula": 7905,
      "ignomin": 7906,
      "Hist": 7907,
      "ioc": 7908,
      "bonitatem": 7909,
      "Exc": 7910,
      "Parth": 7911,
      "Ait": 7912,
      "Mil": 7913,
      "dedic": 7914,
      "theodos": 7915,
      "Hos": 7916,
      "reform": 7917,
      "abscondit": 7918,
      "Lab": 7919,
      "##eda": 7920,
      "alieno": 7921,
      "merces": 7922,
      "continu": 7923,
      "liquid": 7924,
      "vect": 7925,
      "erum": 7926,
      "##otes": 7927,
      "common": 7928,
      "praesidio": 7929,
      "##ricem": 7930,
      "Eur": 7931,
      "muros": 7932,
      "##undam": 7933,
      "agi": 7934,
      "Ambrosius": 7935,
      "interm": 7936,
      "manuum": 7937,
      "prodesse": 7938,
      "muneribus": 7939,
      "Adh": 7940,
      "graec": 7941,
      "terminos": 7942,
      "##acul": 7943,
      "peti": 7944,
      "detin": 7945,
      "ueritatis": 7946,
      "venisse": 7947,
      "notum": 7948,
      "arbitrii": 7949,
      "ung": 7950,
      "abn": 7951,
      "bonitatis": 7952,
      "##illae": 7953,
      "spiritualibus": 7954,
      "##ως": 7955,
      "Vt": 7956,
      "##21": 7957,
      "differentiam": 7958,
      "cli": 7959,
      "fru": 7960,
      "Vale": 7961,
      "decimum": 7962,
      "imput": 7963,
      "honorific": 7964,
      "##ivis": 7965,
      "tormenta": 7966,
      "rectum": 7967,
      "##itudini": 7968,
      "##erno": 7969,
      "argente": 7970,
      "virgine": 7971,
      "considerat": 7972,
      "##onam": 7973,
      "adesse": 7974,
      "totaliter": 7975,
      "officiis": 7976,
      "Ioseph": 7977,
      "iun": 7978,
      "Del": 7979,
      "##ivae": 7980,
      "##averis": 7981,
      "cognovit": 7982,
      "Agn": 7983,
      "quær": 7984,
      "constitutus": 7985,
      "determinat": 7986,
      "frem": 7987,
      "fideicomm": 7988,
      "##ivimus": 7989,
      "iusta": 7990,
      "superior": 7991,
      "conveniens": 7992,
      "evad": 7993,
      "##taxat": 7994,
      "##itationem": 7995,
      "valeat": 7996,
      "Proinde": 7997,
      "syllogism": 7998,
      "uers": 7999,
      "anx": 8000,
      "confessio": 8001,
      "dono": 8002,
      "gradum": 8003,
      "lamp": 8004,
      "regulam": 8005,
      "coelis": 8006,
      "circums": 8007,
      "destruct": 8008,
      "tecta": 8009,
      "significant": 8010,
      "##47": 8011,
      "vestig": 8012,
      "permans": 8013,
      "patrimon": 8014,
      "##31": 8015,
      "dumtaxat": 8016,
      "proxima": 8017,
      "hoste": 8018,
      "inimic": 8019,
      "perpetuo": 8020,
      "circumf": 8021,
      "graviter": 8022,
      "loquar": 8023,
      "fui": 8024,
      "leo": 8025,
      "gente": 8026,
      "exitus": 8027,
      "numeri": 8028,
      "##itiarum": 8029,
      "philosophum": 8030,
      "heredem": 8031,
      "Cypri": 8032,
      "##vere": 8033,
      "quilibet": 8034,
      "consilii": 8035,
      "gratul": 8036,
      "scriptis": 8037,
      "repraes": 8038,
      "demonst": 8039,
      "ros": 8040,
      "subiecto": 8041,
      "##acus": 8042,
      "plebem": 8043,
      "tollit": 8044,
      "utrique": 8045,
      "Frat": 8046,
      "singulorum": 8047,
      "animadvert": 8048,
      "uia": 8049,
      "loquor": 8050,
      "lapide": 8051,
      "definitione": 8052,
      "regener": 8053,
      "angelos": 8054,
      "Brit": 8055,
      "citius": 8056,
      "Hæc": 8057,
      "felix": 8058,
      "instru": 8059,
      "edoc": 8060,
      "consule": 8061,
      "Carthagin": 8062,
      "##iel": 8063,
      "##27": 8064,
      "refect": 8065,
      "viderunt": 8066,
      "locupl": 8067,
      "continentur": 8068,
      "##98": 8069,
      "LIB": 8070,
      "alto": 8071,
      "supplicium": 8072,
      "victoriam": 8073,
      "proponit": 8074,
      "Urb": 8075,
      "##38": 8076,
      "altum": 8077,
      "gravi": 8078,
      "ceteros": 8079,
      "##ymph": 8080,
      "ostenderet": 8081,
      "##arat": 8082,
      "agat": 8083,
      "onus": 8084,
      "Sin": 8085,
      "cuc": 8086,
      "dens": 8087,
      "##rad": 8088,
      "ignorantia": 8089,
      "tertius": 8090,
      "ineff": 8091,
      "fen": 8092,
      "##esti": 8093,
      "immedi": 8094,
      "laed": 8095,
      "Char": 8096,
      "##eca": 8097,
      "accedere": 8098,
      "turr": 8099,
      "terga": 8100,
      "plenus": 8101,
      "infideli": 8102,
      "ET": 8103,
      "custodiam": 8104,
      "infirmitas": 8105,
      "Nab": 8106,
      "perfectionis": 8107,
      "sepeli": 8108,
      "derelinqu": 8109,
      "Eo": 8110,
      "juven": 8111,
      "uert": 8112,
      "##ebris": 8113,
      "##iensis": 8114,
      "constitutum": 8115,
      "rid": 8116,
      "acceper": 8117,
      "definitio": 8118,
      "quaelibet": 8119,
      "stab": 8120,
      "Const": 8121,
      "Hujus": 8122,
      "##60": 8123,
      "sequatur": 8124,
      "victus": 8125,
      "summi": 8126,
      "discess": 8127,
      "vocis": 8128,
      "accipiunt": 8129,
      "singuli": 8130,
      "serui": 8131,
      "carnes": 8132,
      "commov": 8133,
      "Constantinopoli": 8134,
      "Angelorum": 8135,
      "Not": 8136,
      "furor": 8137,
      "missa": 8138,
      "##41": 8139,
      "crass": 8140,
      "##uxerunt": 8141,
      "afflig": 8142,
      "pericula": 8143,
      "##rast": 8144,
      "abomin": 8145,
      "amis": 8146,
      "gestis": 8147,
      "obd": 8148,
      "##61": 8149,
      "ducere": 8150,
      "uxoris": 8151,
      "##yt": 8152,
      "divinitus": 8153,
      "deficit": 8154,
      "##ubi": 8155,
      "quac": 8156,
      "futuram": 8157,
      "Nolite": 8158,
      "recepit": 8159,
      "Corp": 8160,
      "indiget": 8161,
      "sollemn": 8162,
      "##auerunt": 8163,
      "##28": 8164,
      "secus": 8165,
      "cognomin": 8166,
      "remun": 8167,
      "investig": 8168,
      "##μα": 8169,
      "impr": 8170,
      "XXIV": 8171,
      "tenebrarum": 8172,
      "Pecc": 8173,
      "familia": 8174,
      "portam": 8175,
      "septuaginta": 8176,
      "praestat": 8177,
      "spiritalis": 8178,
      "##utt": 8179,
      "##67": 8180,
      "##το": 8181,
      "infund": 8182,
      "duxit": 8183,
      "##entiarum": 8184,
      "perfectam": 8185,
      "Certe": 8186,
      "mel": 8187,
      "##tol": 8188,
      "##68": 8189,
      "voluc": 8190,
      "Praec": 8191,
      "soror": 8192,
      "##ectos": 8193,
      "iniquitate": 8194,
      "Imp": 8195,
      "Audi": 8196,
      "Quarto": 8197,
      "##icat": 8198,
      "##odque": 8199,
      "##edon": 8200,
      "##aciam": 8201,
      "capta": 8202,
      "isdem": 8203,
      "pontifex": 8204,
      "Iudaeis": 8205,
      "decess": 8206,
      "beatitudinis": 8207,
      "medicam": 8208,
      "procedere": 8209,
      "uolupt": 8210,
      "##ectitur": 8211,
      "detrim": 8212,
      "Christianorum": 8213,
      "constit": 8214,
      "lass": 8215,
      "conqu": 8216,
      "liberat": 8217,
      "Ann": 8218,
      "metrop": 8219,
      "providentia": 8220,
      "uell": 8221,
      "##48": 8222,
      "##ulsus": 8223,
      "##ivam": 8224,
      "dignitas": 8225,
      "horam": 8226,
      "exclus": 8227,
      "glorios": 8228,
      "grave": 8229,
      "maiora": 8230,
      "##quamur": 8231,
      "inhabit": 8232,
      "suspens": 8233,
      "procons": 8234,
      "jur": 8235,
      "cohib": 8236,
      "plurimis": 8237,
      "exemplis": 8238,
      "##ren": 8239,
      "scop": 8240,
      "Dicendum": 8241,
      "libertatis": 8242,
      "repraesent": 8243,
      "Mir": 8244,
      "##verb": 8245,
      "videat": 8246,
      "singulas": 8247,
      "pia": 8248,
      "lumina": 8249,
      "Ign": 8250,
      "reddidit": 8251,
      "quadr": 8252,
      "Dix": 8253,
      "##aea": 8254,
      "##imentis": 8255,
      "spar": 8256,
      "intelligentia": 8257,
      "negatio": 8258,
      "infirmitatem": 8259,
      "absolute": 8260,
      "cornu": 8261,
      "confiteri": 8262,
      "statuit": 8263,
      "plenitudo": 8264,
      "##ecutus": 8265,
      "uictor": 8266,
      "afflict": 8267,
      "Ast": 8268,
      "Ecclesiæ": 8269,
      "delectatio": 8270,
      "amicitiae": 8271,
      "fict": 8272,
      "iung": 8273,
      "##rato": 8274,
      "quantitatem": 8275,
      "religios": 8276,
      "Pra": 8277,
      "læ": 8278,
      "##etate": 8279,
      "mortuo": 8280,
      "uirum": 8281,
      "reversus": 8282,
      "##etu": 8283,
      "rup": 8284,
      "penes": 8285,
      "affic": 8286,
      "instituit": 8287,
      "obsecro": 8288,
      "quodcumque": 8289,
      "incl": 8290,
      "##astis": 8291,
      "Aristoteles": 8292,
      "vc": 8293,
      "inpos": 8294,
      "Ib": 8295,
      "cognita": 8296,
      "urbs": 8297,
      "##ymb": 8298,
      "Socrates": 8299,
      "impend": 8300,
      "##97": 8301,
      "regnavit": 8302,
      "Pho": 8303,
      "##idiam": 8304,
      "trid": 8305,
      "fluctus": 8306,
      "Petr": 8307,
      "uidit": 8308,
      "votum": 8309,
      "##ufrag": 8310,
      "cultus": 8311,
      "generi": 8312,
      "operatione": 8313,
      "servire": 8314,
      "sociis": 8315,
      "epistula": 8316,
      "istorum": 8317,
      "philosophia": 8318,
      "certamine": 8319,
      "##amina": 8320,
      "praevaric": 8321,
      "##ramus": 8322,
      "habitare": 8323,
      "auspic": 8324,
      "Magist": 8325,
      "##iculo": 8326,
      "humilis": 8327,
      "Lex": 8328,
      "contentus": 8329,
      "sorte": 8330,
      "Patrum": 8331,
      "##nimus": 8332,
      "##idiae": 8333,
      "vocantur": 8334,
      "##IX": 8335,
      "advert": 8336,
      "dilex": 8337,
      "socios": 8338,
      "uxores": 8339,
      "ου": 8340,
      "##MA": 8341,
      "matut": 8342,
      "Cathol": 8343,
      "extend": 8344,
      "taed": 8345,
      "progen": 8346,
      "##iliam": 8347,
      "spati": 8348,
      "juste": 8349,
      "artibus": 8350,
      "sexus": 8351,
      "resurrexit": 8352,
      "rati": 8353,
      "diis": 8354,
      "dixisti": 8355,
      "Unus": 8356,
      "salutare": 8357,
      "inducit": 8358,
      "##ures": 8359,
      "ullum": 8360,
      "Pis": 8361,
      "oppon": 8362,
      "accepimus": 8363,
      "Hel": 8364,
      "##ectam": 8365,
      "fundamentum": 8366,
      "impetus": 8367,
      "intrare": 8368,
      "gratiarum": 8369,
      "aduers": 8370,
      "sarc": 8371,
      "sacrae": 8372,
      "inconveniens": 8373,
      "Ceter": 8374,
      "Vis": 8375,
      "odit": 8376,
      "##usus": 8377,
      "videret": 8378,
      "debes": 8379,
      "aemul": 8380,
      "bo": 8381,
      "Na": 8382,
      "dubi": 8383,
      "naturale": 8384,
      "judicia": 8385,
      "deteri": 8386,
      "numm": 8387,
      "resurrectio": 8388,
      "Namque": 8389,
      "publicum": 8390,
      "periculis": 8391,
      "confessionem": 8392,
      "abol": 8393,
      "conscientiae": 8394,
      "praedam": 8395,
      "arbor": 8396,
      "##ecerit": 8397,
      "##ennium": 8398,
      "iratus": 8399,
      "exsequ": 8400,
      "abys": 8401,
      "XXVI": 8402,
      "Augustinum": 8403,
      "expr": 8404,
      "conditione": 8405,
      "defectum": 8406,
      "Huius": 8407,
      "susp": 8408,
      "mons": 8409,
      "artes": 8410,
      "plenius": 8411,
      "causarum": 8412,
      "repper": 8413,
      "exclam": 8414,
      "omitt": 8415,
      "##allo": 8416,
      "tabernaculum": 8417,
      "principiis": 8418,
      "luminis": 8419,
      "instituta": 8420,
      "probare": 8421,
      "aequaliter": 8422,
      "mentibus": 8423,
      "Quad": 8424,
      "velis": 8425,
      "transgress": 8426,
      "##alog": 8427,
      "pretios": 8428,
      "Judæ": 8429,
      "decor": 8430,
      "consulem": 8431,
      "diabolum": 8432,
      "##ulisset": 8433,
      "securus": 8434,
      "humilitas": 8435,
      "Propterea": 8436,
      "appareat": 8437,
      "qn": 8438,
      "ingred": 8439,
      "religio": 8440,
      "ce": 8441,
      "comment": 8442,
      "annus": 8443,
      "timet": 8444,
      "furore": 8445,
      "##NI": 8446,
      "quendam": 8447,
      "ostent": 8448,
      "superbiae": 8449,
      "provinciam": 8450,
      "Britann": 8451,
      "rhet": 8452,
      "##ræ": 8453,
      "auxili": 8454,
      "##αλ": 8455,
      "proi": 8456,
      "unda": 8457,
      "dedisti": 8458,
      "mensibus": 8459,
      "Gallic": 8460,
      "societate": 8461,
      "##ilias": 8462,
      "paratus": 8463,
      "concurr": 8464,
      "ultimo": 8465,
      "Samu": 8466,
      "naufrag": 8467,
      "##pa": 8468,
      "videte": 8469,
      "cath": 8470,
      "cense": 8471,
      "publicis": 8472,
      "monasterium": 8473,
      "concludit": 8474,
      "Mon": 8475,
      "vii": 8476,
      "licentia": 8477,
      "silentium": 8478,
      "##encia": 8479,
      "Oportet": 8480,
      "mos": 8481,
      "deberet": 8482,
      "Verbi": 8483,
      "praesidium": 8484,
      "caelis": 8485,
      "nimia": 8486,
      "majorem": 8487,
      "pertrans": 8488,
      "Sit": 8489,
      "Graecis": 8490,
      "Noe": 8491,
      "totidem": 8492,
      "ferri": 8493,
      "MV": 8494,
      "pict": 8495,
      "Etiam": 8496,
      "fasc": 8497,
      "poteris": 8498,
      "commendat": 8499,
      "Iup": 8500,
      "accedit": 8501,
      "cla": 8502,
      "Boet": 8503,
      "colore": 8504,
      "appellant": 8505,
      "sacerdotis": 8506,
      "utilis": 8507,
      "marg": 8508,
      "papa": 8509,
      "##osum": 8510,
      "suæ": 8511,
      "eram": 8512,
      "opponitur": 8513,
      "sequeretur": 8514,
      "##antius": 8515,
      "voluntati": 8516,
      "Augustini": 8517,
      "Iste": 8518,
      "ge": 8519,
      "##erare": 8520,
      "utram": 8521,
      "uniuers": 8522,
      "consequi": 8523,
      "Gali": 8524,
      "##unquid": 8525,
      "##irem": 8526,
      "consiliis": 8527,
      "dicet": 8528,
      "appellat": 8529,
      "ingenii": 8530,
      "morbo": 8531,
      "Vere": 8532,
      "pub": 8533,
      "##esp": 8534,
      "##estus": 8535,
      "equos": 8536,
      "amicitiam": 8537,
      "##issam": 8538,
      "contingere": 8539,
      "concilii": 8540,
      "vultu": 8541,
      "conloc": 8542,
      "famam": 8543,
      "terrenis": 8544,
      "prædic": 8545,
      "Sae": 8546,
      "hil": 8547,
      "adl": 8548,
      "Italiae": 8549,
      "naves": 8550,
      "titulo": 8551,
      "##ustr": 8552,
      "iudicem": 8553,
      "mira": 8554,
      "ferme": 8555,
      "cepit": 8556,
      "corporali": 8557,
      "##acis": 8558,
      "perire": 8559,
      "##undis": 8560,
      "uener": 8561,
      "fortes": 8562,
      "societatem": 8563,
      "Sive": 8564,
      "##rupt": 8565,
      "##abas": 8566,
      "deorsum": 8567,
      "exact": 8568,
      "consenti": 8569,
      "fecisset": 8570,
      "veteri": 8571,
      "abstulit": 8572,
      "##acium": 8573,
      "Maximianus": 8574,
      "##mach": 8575,
      "util": 8576,
      "occisus": 8577,
      "##imil": 8578,
      "quaerunt": 8579,
      "pingu": 8580,
      "Adhuc": 8581,
      "ho": 8582,
      "calid": 8583,
      "seruit": 8584,
      "damnum": 8585,
      "pugnam": 8586,
      "fel": 8587,
      "diuis": 8588,
      "cultu": 8589,
      "tangit": 8590,
      "##onas": 8591,
      "sanc": 8592,
      "loquimur": 8593,
      "desideria": 8594,
      "feminae": 8595,
      "Ptol": 8596,
      "uet": 8597,
      "##imet": 8598,
      "##ivoc": 8599,
      "Licet": 8600,
      "##judic": 8601,
      "legatis": 8602,
      "seipso": 8603,
      "##ibunt": 8604,
      "sci": 8605,
      "condita": 8606,
      "##lex": 8607,
      "##itiæ": 8608,
      "praeda": 8609,
      "Pall": 8610,
      "##udo": 8611,
      "vestimenta": 8612,
      "integra": 8613,
      "arat": 8614,
      "##ueretur": 8615,
      "Secunda": 8616,
      "##idius": 8617,
      "dicerent": 8618,
      "##iliae": 8619,
      "regr": 8620,
      "uoce": 8621,
      "90": 8622,
      "dicantur": 8623,
      "incomm": 8624,
      "condidit": 8625,
      "magistri": 8626,
      "paradiso": 8627,
      "##entiæ": 8628,
      "feroc": 8629,
      "aperta": 8630,
      "fontem": 8631,
      "indivis": 8632,
      "ueritatem": 8633,
      "qualitate": 8634,
      "inquiet": 8635,
      "electi": 8636,
      "insidiis": 8637,
      "importat": 8638,
      "animalis": 8639,
      "Eum": 8640,
      "ueritas": 8641,
      "novem": 8642,
      "psalmi": 8643,
      "Ba": 8644,
      "superfic": 8645,
      "##abilius": 8646,
      "##uerent": 8647,
      "tristis": 8648,
      "loquendo": 8649,
      "introduc": 8650,
      "conpar": 8651,
      "facerent": 8652,
      "maioribus": 8653,
      "regionem": 8654,
      "audiens": 8655,
      "rom": 8656,
      "##icitur": 8657,
      "##idens": 8658,
      "contex": 8659,
      "##uss": 8660,
      "##esper": 8661,
      "agimus": 8662,
      "decimo": 8663,
      "vestras": 8664,
      "mentionem": 8665,
      "##omach": 8666,
      "XXV": 8667,
      "Manifestum": 8668,
      "sedit": 8669,
      "audiunt": 8670,
      "creavit": 8671,
      "inveni": 8672,
      "Crass": 8673,
      "tendit": 8674,
      "nerv": 8675,
      "##uent": 8676,
      "VERS": 8677,
      "lasc": 8678,
      "##erendum": 8679,
      "contigit": 8680,
      "fueris": 8681,
      "constr": 8682,
      "ligna": 8683,
      "Alexandr": 8684,
      "so": 8685,
      "XXVIII": 8686,
      "Marcus": 8687,
      "Assyri": 8688,
      "effect": 8689,
      "ostendens": 8690,
      "diligentia": 8691,
      "venerat": 8692,
      "litig": 8693,
      "muliere": 8694,
      "historia": 8695,
      "Noli": 8696,
      "plang": 8697,
      "Scyth": 8698,
      "Alt": 8699,
      "communionem": 8700,
      "theolog": 8701,
      "lacrimis": 8702,
      "superbi": 8703,
      "confite": 8704,
      "tumultu": 8705,
      "chr": 8706,
      "ascens": 8707,
      "εν": 8708,
      "Inn": 8709,
      "epistolae": 8710,
      "Justinianus": 8711,
      "quiesc": 8712,
      "universum": 8713,
      "equis": 8714,
      "relicta": 8715,
      "paululum": 8716,
      "paru": 8717,
      "consulatum": 8718,
      "harum": 8719,
      "sanctitatis": 8720,
      "aequo": 8721,
      "nobilis": 8722,
      "caelestia": 8723,
      "carcere": 8724,
      "##quebantur": 8725,
      "acceperunt": 8726,
      "opem": 8727,
      "commis": 8728,
      "##IT": 8729,
      "##utam": 8730,
      "##abitis": 8731,
      "utuntur": 8732,
      "apostolo": 8733,
      "psall": 8734,
      "unumquodque": 8735,
      "eunt": 8736,
      "##utes": 8737,
      "accommod": 8738,
      "opibus": 8739,
      "vocibus": 8740,
      "mandatis": 8741,
      "loquens": 8742,
      "visio": 8743,
      "scandali": 8744,
      "industria": 8745,
      "##ερ": 8746,
      "##rax": 8747,
      "##ave": 8748,
      "stipend": 8749,
      "##adius": 8750,
      "vultis": 8751,
      "vana": 8752,
      "prodig": 8753,
      "vituper": 8754,
      "##ecr": 8755,
      "medicus": 8756,
      "confitetur": 8757,
      "amen": 8758,
      "copias": 8759,
      "videntes": 8760,
      "considerare": 8761,
      "##mata": 8762,
      "##icia": 8763,
      "sumps": 8764,
      "supplicia": 8765,
      "uoluntate": 8766,
      "pane": 8767,
      "##yrum": 8768,
      "##EL": 8769,
      "invol": 8770,
      "deleg": 8771,
      "restat": 8772,
      "##anem": 8773,
      "festiv": 8774,
      "Sacerd": 8775,
      "fuere": 8776,
      "istae": 8777,
      "##dis": 8778,
      "impud": 8779,
      "Flav": 8780,
      "Judic": 8781,
      "##uria": 8782,
      "dissens": 8783,
      "fiduciam": 8784,
      "Gab": 8785,
      "semet": 8786,
      "prophetia": 8787,
      "##RO": 8788,
      "occasio": 8789,
      "trin": 8790,
      "tep": 8791,
      "insequ": 8792,
      "##omet": 8793,
      "fecund": 8794,
      "praeval": 8795,
      "gal": 8796,
      "exire": 8797,
      "##uero": 8798,
      "Paul": 8799,
      "dimis": 8800,
      "appetit": 8801,
      "haereticos": 8802,
      "Liber": 8803,
      "scripsi": 8804,
      "##aberis": 8805,
      "##peret": 8806,
      "interea": 8807,
      "merid": 8808,
      "hymn": 8809,
      "##inorum": 8810,
      "cognitionis": 8811,
      "separata": 8812,
      "fraude": 8813,
      "vitæ": 8814,
      "delicta": 8815,
      "argument": 8816,
      "ra": 8817,
      "quaeris": 8818,
      "equo": 8819,
      "praeu": 8820,
      "designatur": 8821,
      "##auerit": 8822,
      "tuarum": 8823,
      "##ovit": 8824,
      "dederunt": 8825,
      "releg": 8826,
      "cognoscat": 8827,
      "uniusc": 8828,
      "quinto": 8829,
      "tellus": 8830,
      "defendere": 8831,
      "ministerio": 8832,
      "Hac": 8833,
      "seg": 8834,
      "amicorum": 8835,
      "Diabolus": 8836,
      "##eratis": 8837,
      "##iniano": 8838,
      "##ellit": 8839,
      "cuiquam": 8840,
      "milibus": 8841,
      "falso": 8842,
      "Joannem": 8843,
      "nutri": 8844,
      "##odom": 8845,
      "morti": 8846,
      "Da": 8847,
      "actionis": 8848,
      "faciebat": 8849,
      "essentiae": 8850,
      "humanitatis": 8851,
      "virginis": 8852,
      "audivi": 8853,
      "##iante": 8854,
      "Scipio": 8855,
      "##pis": 8856,
      "##ellarum": 8857,
      "futurae": 8858,
      "metum": 8859,
      "indicat": 8860,
      "##issae": 8861,
      "abj": 8862,
      "nullatenus": 8863,
      "Exs": 8864,
      "archiepiscop": 8865,
      "impiorum": 8866,
      "adventus": 8867,
      "Multa": 8868,
      "##ucti": 8869,
      "flect": 8870,
      "doctores": 8871,
      "meliora": 8872,
      "porrig": 8873,
      "mortali": 8874,
      "anathema": 8875,
      "set": 8876,
      "inse": 8877,
      "dicetur": 8878,
      "temporalia": 8879,
      "origo": 8880,
      "uiam": 8881,
      "αυτ": 8882,
      "##ectura": 8883,
      "##erti": 8884,
      "redditur": 8885,
      "familias": 8886,
      "fortunam": 8887,
      "Oce": 8888,
      "commor": 8889,
      "redig": 8890,
      "circumc": 8891,
      "incommut": 8892,
      "##itr": 8893,
      "Anno": 8894,
      "murmur": 8895,
      "desuper": 8896,
      "martyres": 8897,
      "Quot": 8898,
      "habuerunt": 8899,
      "intelligatur": 8900,
      "Nulla": 8901,
      "Unum": 8902,
      "instar": 8903,
      "congru": 8904,
      "δε": 8905,
      "laboribus": 8906,
      "reprehens": 8907,
      "prospic": 8908,
      "scelere": 8909,
      "Aegyptum": 8910,
      "cupiditate": 8911,
      "Nullus": 8912,
      "facite": 8913,
      "robor": 8914,
      "seduc": 8915,
      "nex": 8916,
      "terg": 8917,
      "loquendi": 8918,
      "pauperum": 8919,
      "Latine": 8920,
      "iuli": 8921,
      "vap": 8922,
      "majus": 8923,
      "obseru": 8924,
      "exitum": 8925,
      "amico": 8926,
      "uiro": 8927,
      "futurorum": 8928,
      "templa": 8929,
      "##itarum": 8930,
      "testimoniis": 8931,
      "bonitate": 8932,
      "quoties": 8933,
      "allelu": 8934,
      "Theodosius": 8935,
      "dilexit": 8936,
      "##eremur": 8937,
      "Constantinopolit": 8938,
      "adp": 8939,
      "malitiam": 8940,
      "Ha": 8941,
      "Vest": 8942,
      "peperit": 8943,
      "##entr": 8944,
      "coeper": 8945,
      "opprob": 8946,
      "Aliqu": 8947,
      "superest": 8948,
      "loquuntur": 8949,
      "criminis": 8950,
      "##32": 8951,
      "partus": 8952,
      "flex": 8953,
      "putet": 8954,
      "hib": 8955,
      "felicitas": 8956,
      "Daniel": 8957,
      "##aeis": 8958,
      "##ibiliter": 8959,
      "exort": 8960,
      "dicentis": 8961,
      "praesentibus": 8962,
      "clamat": 8963,
      "praedictis": 8964,
      "##itans": 8965,
      "expell": 8966,
      "reum": 8967,
      "verae": 8968,
      "confort": 8969,
      "praesentiam": 8970,
      "opinor": 8971,
      "Plato": 8972,
      "typ": 8973,
      "##55": 8974,
      "visione": 8975,
      "CH": 8976,
      "matri": 8977,
      "inimicum": 8978,
      "possessio": 8979,
      "##vo": 8980,
      "faciamus": 8981,
      "sancte": 8982,
      "inflam": 8983,
      "##uctum": 8984,
      "malam": 8985,
      "nominatur": 8986,
      "##iform": 8987,
      "motibus": 8988,
      "peccatoribus": 8989,
      "dato": 8990,
      "agentis": 8991,
      "##ειν": 8992,
      "ci": 8993,
      "ignorat": 8994,
      "sufficere": 8995,
      "Hum": 8996,
      "inspic": 8997,
      "spiritualiter": 8998,
      "posterius": 8999,
      "magistratus": 9000,
      "comparatur": 9001,
      "TH": 9002,
      "Pil": 9003,
      "conson": 9004,
      "acceperit": 9005,
      "##ponius": 9006,
      "uidere": 9007,
      "angelum": 9008,
      "oportebat": 9009,
      "perdidit": 9010,
      "charissimi": 9011,
      "regnat": 9012,
      "communia": 9013,
      "abstr": 9014,
      "scis": 9015,
      "##issimorum": 9016,
      "opinione": 9017,
      "invidiam": 9018,
      "saxa": 9019,
      "##ebitis": 9020,
      "factae": 9021,
      "Beda": 9022,
      "##acius": 9023,
      "exprob": 9024,
      "caede": 9025,
      "sexta": 9026,
      "obsequium": 9027,
      "utramque": 9028,
      "spatia": 9029,
      "intelligentiam": 9030,
      "spirituali": 9031,
      "Loc": 9032,
      "App": 9033,
      "crimin": 9034,
      "reliqui": 9035,
      "uirtutis": 9036,
      "Orient": 9037,
      "Men": 9038,
      "errores": 9039,
      "magistrat": 9040,
      "Levit": 9041,
      "cornua": 9042,
      "avaritia": 9043,
      "intem": 9044,
      "##issione": 9045,
      "Hier": 9046,
      "antiqui": 9047,
      "Sid": 9048,
      "af": 9049,
      "civibus": 9050,
      "nascuntur": 9051,
      "ebriet": 9052,
      "Tit": 9053,
      "gaudet": 9054,
      "radice": 9055,
      "familiae": 9056,
      "##essi": 9057,
      "##iterunt": 9058,
      "fluminis": 9059,
      "##ebimus": 9060,
      "poterunt": 9061,
      "civitatibus": 9062,
      "familiar": 9063,
      "proelium": 9064,
      "Rhod": 9065,
      "utris": 9066,
      "segn": 9067,
      "Diocletianus": 9068,
      "interitum": 9069,
      "cuiusque": 9070,
      "accidentia": 9071,
      "deriv": 9072,
      "Bern": 9073,
      "pie": 9074,
      "nolo": 9075,
      "inferior": 9076,
      "plaga": 9077,
      "dein": 9078,
      "reverentia": 9079,
      "Cicer": 9080,
      "cass": 9081,
      "carnalis": 9082,
      "praedix": 9083,
      "convinc": 9084,
      "Pop": 9085,
      "aev": 9086,
      "##avere": 9087,
      "##illos": 9088,
      "surrexit": 9089,
      "##ebri": 9090,
      "sensitiv": 9091,
      "duci": 9092,
      "commemorat": 9093,
      "amput": 9094,
      "oritur": 9095,
      "infelix": 9096,
      "acceptum": 9097,
      "Apud": 9098,
      "alieni": 9099,
      "operationes": 9100,
      "fugere": 9101,
      "uirtutem": 9102,
      "Corneli": 9103,
      "diversitas": 9104,
      "diversae": 9105,
      "sententias": 9106,
      "injuriam": 9107,
      "Iuppiter": 9108,
      "Leo": 9109,
      "gessit": 9110,
      "##da": 9111,
      "suus": 9112,
      "scribitur": 9113,
      "iisdem": 9114,
      "veris": 9115,
      "confestim": 9116,
      "aurea": 9117,
      "XXVII": 9118,
      "Mariae": 9119,
      "adiuv": 9120,
      "utilitas": 9121,
      "quiddam": 9122,
      "orationes": 9123,
      "altius": 9124,
      "Beati": 9125,
      "extrinsecus": 9126,
      "longinqu": 9127,
      "aestu": 9128,
      "virgines": 9129,
      "frequent": 9130,
      "lapidibus": 9131,
      "egress": 9132,
      "ignes": 9133,
      "marm": 9134,
      "Epic": 9135,
      "priu": 9136,
      "aperuit": 9137,
      "inimicorum": 9138,
      "Multi": 9139,
      "quemdam": 9140,
      "terrest": 9141,
      "proteg": 9142,
      "possidere": 9143,
      "##imen": 9144,
      "##iacon": 9145,
      "exag": 9146,
      "uerbo": 9147,
      "##ait": 9148,
      "regina": 9149,
      "praedictum": 9150,
      "strep": 9151,
      "mortalis": 9152,
      "nomini": 9153,
      "indicium": 9154,
      "haereticis": 9155,
      "Has": 9156,
      "##hryg": 9157,
      "notandum": 9158,
      "damna": 9159,
      "pede": 9160,
      "rationi": 9161,
      "clementia": 9162,
      "viscera": 9163,
      "dereliqu": 9164,
      "promittit": 9165,
      "Psalmo": 9166,
      "Vulg": 9167,
      "Christianus": 9168,
      "urbi": 9169,
      "divinitatem": 9170,
      "AD": 9171,
      "##ricis": 9172,
      "quing": 9173,
      "sparg": 9174,
      "##veh": 9175,
      "dicto": 9176,
      "sceleris": 9177,
      "oblitus": 9178,
      "argu": 9179,
      "Medi": 9180,
      "diuers": 9181,
      "poni": 9182,
      "##aremus": 9183,
      "##ulisti": 9184,
      "sedet": 9185,
      "inventus": 9186,
      "puero": 9187,
      "transmut": 9188,
      "Voc": 9189,
      "##raph": 9190,
      "Utrum": 9191,
      "requirit": 9192,
      "reuoc": 9193,
      "theat": 9194,
      "Trans": 9195,
      "##ulat": 9196,
      "divitiis": 9197,
      "vinculis": 9198,
      "portae": 9199,
      "deprehend": 9200,
      "tribunus": 9201,
      "puella": 9202,
      "exar": 9203,
      "quanti": 9204,
      "generibus": 9205,
      "Laz": 9206,
      "pius": 9207,
      "##ienses": 9208,
      "diligentius": 9209,
      "##ectae": 9210,
      "superven": 9211,
      "ortum": 9212,
      "efficit": 9213,
      "comparationem": 9214,
      "euangel": 9215,
      "##ulsa": 9216,
      "prolix": 9217,
      "denuo": 9218,
      "pugnae": 9219,
      "intercess": 9220,
      "bi": 9221,
      "dedec": 9222,
      "sperare": 9223,
      "origine": 9224,
      "exercituum": 9225,
      "##39": 9226,
      "##amentis": 9227,
      "##asit": 9228,
      "vidimus": 9229,
      "narrat": 9230,
      "catholicam": 9231,
      "matrimonio": 9232,
      "Gra": 9233,
      "her": 9234,
      "το": 9235,
      "conatus": 9236,
      "timoris": 9237,
      "inveniuntur": 9238,
      "incorpore": 9239,
      "refrig": 9240,
      "summis": 9241,
      "quietem": 9242,
      "viderit": 9243,
      "Christianos": 9244,
      "confessus": 9245,
      "martyris": 9246,
      "Baptismum": 9247,
      "judex": 9248,
      "pueris": 9249,
      "CL": 9250,
      "Quæ": 9251,
      "psalmus": 9252,
      "erubesc": 9253,
      "utrisque": 9254,
      "##xx": 9255,
      "percussit": 9256,
      "Du": 9257,
      "magistrum": 9258,
      "vice": 9259,
      "##utos": 9260,
      "invent": 9261,
      "sexto": 9262,
      "##TIO": 9263,
      "monachorum": 9264,
      "robur": 9265,
      "##istit": 9266,
      "Quidquid": 9267,
      "uiuere": 9268,
      "tenent": 9269,
      "Poss": 9270,
      "ει": 9271,
      "priore": 9272,
      "monet": 9273,
      "inscript": 9274,
      "##IL": 9275,
      "contag": 9276,
      "acquis": 9277,
      "tantus": 9278,
      "vivunt": 9279,
      "incol": 9280,
      "dixerim": 9281,
      "creatus": 9282,
      "monachi": 9283,
      "Persarum": 9284,
      "linea": 9285,
      "Syn": 9286,
      "##tera": 9287,
      "parentis": 9288,
      "habetis": 9289,
      "facienda": 9290,
      "##nm": 9291,
      "carmina": 9292,
      "uniuer": 9293,
      "obtulit": 9294,
      "fini": 9295,
      "sempiternum": 9296,
      "Rub": 9297,
      "videbantur": 9298,
      "interpell": 9299,
      "##ificat": 9300,
      "mensur": 9301,
      "antiquis": 9302,
      "prudentiam": 9303,
      "cupiditas": 9304,
      "##itisse": 9305,
      "maximo": 9306,
      "artus": 9307,
      "praetere": 9308,
      "ping": 9309,
      "##erae": 9310,
      "comb": 9311,
      "licentiam": 9312,
[...]
