[PAD]
[UNK]
[CLS]
[SEP]
[MASK]
!
"
#
$
%
&
'
(
)
*
+
,
-
.
/
0
1
2
3
4
5
6
7
8
9
:
;
<
=
>
?
@
A
B
C
D
E
F
G
H
I
J
K
L
M
N
O
P
Q
R
S
T
U
V
W
X
Y
Z
[
\
]
^
_
`
a
b
c
d
e
f
g
h
i
j
k
l
m
n
o
p
q
r
s
t
u
v
w
x
y
z
{
|
}
~
¡
¢
£
¤
¥
¦
§
¨
©
ª
«
¬
®
¯
°
±
²
³
´
µ
¶
·
¸
¹
º
»
¼
½
¾
¿
Æ
Ð
Ø
Þ
ß
æ
ð
÷
ø
þ
ı
Ł
ł
Œ
œ
Ɛ
ƒ
Ɩ
ƞ
Ɵ
ɑ
ə
ɛ
ɜ
ɩ
ɪ
ɭ
ɳ
ʋ
ʎ
ʟ
ʺ
ʻ
ʼ
ˆ
ˇ
˘
˙
˚
˛
˜
˝
Α
Β
Γ
Δ
Ε
Ζ
Η
Θ
Ι
Κ
Λ
Μ
Ν
Ξ
Ο
Π
Ρ
Σ
Τ
Υ
Φ
Χ
Ψ
Ω
α
β
γ
δ
ε
ζ
η
θ
ι
κ
λ
μ
ν
ξ
ο
π
ρ
ς
σ
τ
υ
φ
χ
ψ
ω
ϐ
ϑ
ϒ
ϕ
ϖ
Ϛ
ϛ
Ϝ
Ϟ
ϥ
Ϧ
ϧ
Ϩ
ϩ
Ϭ
ϭ
ϰ
ϱ
ϲ
Є
В
Е
З
К
М
Н
П
С
Т
Ш
Ы
а
в
г
е
з
м
о
р
с
т
х
ѱ
Ӕ
ӕ
ә
Ր
׃
ב
ג
ד
ו
י
כ
ל
ם
נ
ס
פ
צ
ש
٫
޺
᾽
᾿
῾
–
—
―
‘
’
‚
‛
“
”
„
†
‡
•
…
‰
′
‹
›
※
⁄
€
℞
℟
™
℣
ℰ
Ↄ
∂
∆
∏
∑
∗
∙
√
∞
∨
∶
∹
≈
≥
⋆
⏑
⑊
─
┼
■
□
►
▼
★
♦
✝
✠
❇
❈
❖
〈
〉
ﬁ
ﬂ
︰
﹡
（
）
##o
##m
##b
##i
##n
##a
##t
##u
##r
##e
##s
##c
##4
##1
##5
##7
##v
##x
##g
##l
##d
##q
##p
##α
##λ
##ε
##ι
##ψ
##ς
##y
##f
##h
##N
##E
##U
##M
##0
##2
##8
##H
##V
##L
##A
##T
##I
##O
##B
##S
##œ
##9
##3
##6
##ξ
##ν
##τ
##ο
##æ
##z
##ρ
##σ
##κ
##υ
##η
##C
##μ
##χ
##ω
##θ
##D
##π
##γ
##ł
##X
##G
##δ
##R
##j
##w
##P
##_
##ϕ
##'
##,
##Q
##Ο
##Π
##k
##ϑ
##Y
##φ
##J
##K
##Z
##Α
##ζ
##.
##F
##Ν
##-
##β
##»
##Χ
##Λ
##"
##—
##ϰ
##ϱ
##ϖ
##Μ
##)
##:
##\
##Ι
##Θ
##Φ
##W
##*
##|
##ϒ
##Æ
##Γ
##!
##Η
##(
##?
##м
##/
##ϭ
##Τ
##Ε
##Ρ
##Ϭ
##Ω
##М
##Β
##Σ
##ϥ
##е
##º
##µ
##£
##ß
##Œ
##Κ
##§
##а
##^
##«
##х
##Ↄ
##В
##Ϩ
##Ψ
##+
##·
##Ϝ
##ʻ
##т
##Т
##о
##;
##„
##﹡
##∗
##ª
##Υ
##†
##ϲ
##ı
##>
##ӕ
##[
##<
##ø
##в
##]
##{
##“
##ϩ
##Ϛ
##Ø
##Ɛ
##ϧ
##&
##Ζ
##ɪ
##ϛ
##ﬂ
##‹
##$
##©
##ә
##Ξ
##٫
##ﬁ
##}
##′
##=
###
##з
##ϐ
##Ɵ
##ɛ
##~
##Þ
##ɩ
##※
##%
##З
##÷
##’
##с
##‰
##˝
##–
##Ð
##þ
##›
##ƒ
##√
##Н
##•
##Δ
##ð
##ˇ
##¶
##˙
##ʎ
##∞
##‘
##¥
##”
##р
##Ӕ
##）
##Ł
##Ϧ
##≈
##ʺ
##…
##■
##±
##er
##um
##it
##is
##us
##nt
##at
qu
##on
##em
##am
##or
##es
##ic
in
##ur
et
##en
##in
##st
##ae
##et
##li
##ar
##ent
##im
##ec
##qu
pr
##an
##os
##ib
##ia
##id
##ul
##ut
##od
##om
##ed
su
est
ad
##as
non
##ant
##ion
##el
##ac
de
##ol
##un
##al
##oc
##ud
ex
con
##ibus
##ir
per
##ab
##ere
ut
##unt
##il
quod
##se
##ot
##est
##iam
##io
##per
##end
##que
##orum
pro
##ius
##ra
dic
di
##gn
##ens
##pt
re
qui
##itat
##itur
##omin
##ium
co
##ist
##atur
##ect
##nim
si
il
##ct
aut
cum
##ost
ali
que
##ili
##mn
De
##ation
int
es
##ri
omn
sed
##cc
se
quae
ill
##eg
er
##und
##eb
##ta
##iss
##ip
##and
ip
un
me
ab
ver
##ort
##de
Qu
enim
fac
autem
##ver
ca
##uit
hab
##go
prae
im
##uc
##are
pot
ma
sunt
sc
quia
##fic
esse
cor
hoc
##re
quam
##uer
##ter
par
##ob
##etur
sic
com
##iae
cont
cons
##rat
quid
##iv
ips
##ess
##ell
sp
tu
nec
sub
##ust
ne
pos
tr
##ine
##op
##pl
ar
##ult
quo
##ig
##hr
sec
##ore
id
##ari
##imus
##isc
##av
Et
etiam
ap
##iter
san
vel
##aec
pl
tam
ter
pat
##ient
sol
qua
lib
sit
vid
aliqu
inter
##hrist
##bi
am
##arum
vir
anim
st
at
Christ
##ro
##jus
##ionem
##ih
cr
##eri
al
##ub
secund
an
homin
tem
ob
##unc
##quam
prop
res
##lig
##ata
##atus
Domin
##atum
acc
##inc
pec
##ione
nost
super
##ff
##ibi
##II
##erit
##ert
##ans
or
poss
##ior
##itate
##atis
##ap
bon
##itus
sicut
op
##eret
ser
##itas
##ui
##obis
##antur
##rum
##vers
post
ita
corp
sanct
##itatem
fili
inc
te
ac
##ali
##atione
##ad
##ug
potest
##issim
pecc
##isse
##erunt
secundum
##esc
##ven
##oris
Sed
mod
prim
##atio
##ris
##endum
##entia
ergo
leg
##ati
##itum
sim
inf
man
##ict
tamen
##entes
##ita
##eter
temp
fid
##antum
car
##ationem
##uct
##ific
comm
pra
vol
gen
##ing
##itud
loc
##uli
sum
##ii
Dei
##ex
##ag
mal
##isi
##ov
atque
##orem
part
##untur
##pr
div
##itatis
##rae
##udic
eius
du
eum
dix
##ando
dicit
natur
##pon
ven
ag
ant
deb
##inem
##iis
mult
ist
In
reg
nos
ejus
##entur
conc
##ull
eo
##aud
##ep
##icet
quibus
domin
sem
##ept
quas
ess
##erat
nisi
min
caus
vero
sac
##les
##eat
##tum
##ores
##avit
Deus
conf
##ina
dec
##ram
##eli
##bus
quem
##ias
ind
##ionis
##ate
##orm
##up
haec
mort
des
tot
##itt
imp
oper
##ian
as
##erum
aud
cap
##fect
##irc
##dam
quidem
##ebat
##inis
##ass
##itu
hum
cl
nobis
rec
##eris
spir
##entis
##enti
##ihil
##ccles
ipse
##ire
grat
cred
dicitur
red
us
omnia
##iat
##par
ea
fuer
sal
##ript
pa
vit
cur
null
##uius
exc
##deo
##pter
disc
##int
fl
virt
##alis
quis
ep
##ux
##ont
praec
nihil
##ihi
magn
mag
eorum
cogn
##gitur
##dic
mihi
omnes
##lic
##act
ins
##pos
illi
gl
##ffic
erat
sibi
##entum
##ente
princ
##dit
neque
##amus
ante
##gr
contra
##oqu
rem
pop
##sum
act
##iens
mor
##omo
occ
##oli
##emus
tibi
Ad
##ios
num
sine
mis
fec
vest
verb
modo
ei
col
voc
ten
fort
Rom
ann
propter
##ern
Si
##ile
sign
##rem
##ulo
mat
##stant
##ationis
##ite
serv
ign
inqu
##ulum
cae
##entem
nomin
princip
ubi
eos
Non
##isset
quasi
##ign
##uper
el
##erc
nunc
##iunt
##xim
##ilis
##entiam
##ula
his
Deo
med
circ
##ulis
sup
##iet
##ura
##entibus
##plic
illa
##irm
##ord
ul
##ie
ideo
pers
ben
##ero
quoque
##mod
doc
##itis
ille
igitur
nam
def
ost
##sa
ord
ego
intell
##ujus
praes
##ini
##oribus
##ix
##ve
virtut
iam
esset
mund
##osc
habet
illud
spec
##oniam
##ora
##era
alter
##unct
omnibus
##endo
##ellig
frat
##pe
inv
mem
homo
##rib
form
sus
##endi
Un
fr
##pet
##ostol
arg
##ang
sua
##ato
##ilicet
carn
magis
fuit
trans
aliquid
##endit
ded
proc
scilicet
Pr
ext
II
intellig
hic
const
dum
glor
quos
##dem
put
##th
Pat
imper
##if
##oen
eis
unde
##iscop
test
imm
neg
pon
tantum
Christi
ibi
##atem
dis
##ici
Dominus
quando
iudic
##tin
##ch
Er
##ale
cre
Eccles
sens
##og
##ulus
human
##enta
##het
##uisse
##inus
ur
regn
##ino
eam
Quod
Deum
dixit
ipsa
##ator
del
sequ
unum
##le
tra
volunt
##sus
sap
civ
##iones
semper
##erent
abs
tant
Nam
causa
loqu
apud
mon
##isti
##ast
##eretur
##itia
##quid
quoniam
episcop
##anc
##alem
fact
##antes
hon
##aris
##si
dom
ipsum
fer
##pic
##ectus
##rig
##ilia
gra
##ito
##andum
quantum
##erea
##tem
##equ
##ua
fide
ait
usque
mil
suis
suo
dign
solum
##ies
##asc
##upt
##aret
##ilium
viv
Ergo
script
##urr
ceter
##ph
##eo
nov
erit
tim
##ica
##sequ
##iant
##iqu
Unde
necess
##hib
Sc
cui
10
##enda
##ider
##inde
sent
An
miser
just
cert
##ebant
##idit
suam
uni
lab
##iti
ref
##ique
Quid
praedic
##sal
Al
##odo
vis
##ann
pet
poen
accip
sen
##pir
commun
##res
cog
die
##ill
inst
judic
dicendum
tur
##icum
##aliter
##pect
pass
##mon
suum
##aver
vos
Con
primum
##inum
##ue
respon
Roman
##erv
don
fi
prophet
inquit
##itut
bene
##omen
##pell
eff
##uis
perfect
oc
apostol
aur
auct
##atu
##apt
tum
sint
uel
##art
obs
##ox
##uum
maxim
cael
vobis
prob
urb
tunc
##ulos
tempore
##urg
laud
##ret
##III
##etern
##aria
##enter
lit
##inqu
Sic
rel
simil
Ap
aff
##sit
sive
Qui
tua
corpus
sui
em
Domini
Ex
##uerunt
idem
##ong
##iu
##vis
##entium
aetern
##ientia
susc
##ea
trib
inven
oport
simul
plur
aliud
dilig
fam
iust
##oll
nomen
Christus
illum
dictum
rep
##itio
##erb
omnis
prof
##esse
##vit
11
Th
aqu
bonum
mot
host
##empl
Gr
##itudinem
Cum
fal
alia
##ectum
##iem
prom
exerc
summ
dist
ang
duc
quant
illis
noc
##abat
##rip
##ublic
ed
signific
mater
dol
##ulta
##lius
ret
uir
XX
substant
omnium
salut
##ys
arb
dem
uid
Ph
##rah
person
dil
mir
##imo
supra
lat
##ationes
##omodo
##ugn
primo
##epit
anima
tert
fuerit
terra
sing
cognosc
long
ipso
##ori
##inae
Sent
contin
##icis
cuius
Super
Ar
jam
##yr
luc
Is
12
una
adh
##ym
##ulc
##entiae
suae
##ach
videtur
##ales
pertin
##ento
fut
contr
##imon
terr
ha
ult
cal
mens
##abit
##amn
##erd
natura
huius
eccles
val
##min
liber
bell
##inam
advers
not
gener
aequ
ing
Prae
##liqu
univers
##vert
Spir
parte
illo
##ianus
public
mea
rect
##terea
##edit
diff
homines
omni
nomine
hac
saec
loco
Per
prov
##ilius
ista
facit
##ath
possit
propr
hanc
At
divers
mut
##oph
##adem
cast
habere
prius
##arium
##iorum
nem
rerum
hominis
##eper
##itudo
##ros
ph
Christo
mand
perm
le
dei
spiritu
idest
Jo
met
##iles
aliis
dicens
ch
##ionibus
##uerit
##ifest
prod
##erem
peccatum
mun
fieri
Pa
fug
sae
##dum
Cor
##ric
amb
filius
praeter
plac
doct
Dig
##reh
ipsi
att
dim
fecit
##itiam
##ante
##gu
hominem
unus
hominum
discip
nostra
##imum
port
Aug
litter
arm
##alia
pac
##bid
praed
##udae
sacerd
coel
circum
Mat
Ant
conven
damn
dub
cetera
III
Christum
##lib
ass
minus
##andi
ev
cel
eadem
iter
perc
adhuc
corporis
gratia
##eres
quomodo
appell
##cce
manifest
Ab
##erant
duo
utrum
dominus
13
Hoc
exist
tempus
rebus
stud
##icus
##iab
dies
bona
stat
spiritus
fuisse
quorum
art
##alibus
sept
Am
merit
14
Psal
plen
ostend
Praeterea
det
coll
posse
##str
itaque
facere
corpore
##itiae
illius
muli
rei
fidem
exs
15
##ecund
hujus
dicere
dict
uol
##ani
##ico
##uo
cunct
memor
##ulit
Ma
equ
erant
##urum
##icae
##mo
for
August
##ilio
ipsius
gaud
no
##ima
desc
en
licet
terram
inn
facta
inde
nulla
##..
##utus
Ita
alt
factum
redd
Il
reliqu
##ientes
##ebr
Domino
pater
##itudine
ordin
multa
aper
alien
##asse
vita
##modi
##aes
trad
Matth
fit
err
circa
ratione
Mar
add
ped
auctor
miseric
##ebatur
##anda
off
##odem
filii
comp
cujus
cust
consul
satis
##uen
propri
diu
ir
##ilem
nesc
lum
##uet
oportet
Pet
exempl
##prob
16
##ulg
præ
##eant
ius
fidei
Pro
opt
peccat
##ne
sermon
sacram
quaedam
##uv
od
den
arbit
praest
##yn
tuum
gr
##gress
possunt
vi
Jes
meum
soc
##ationibus
verum
fur
nol
offic
opus
iniqu
ratio
##antem
##onis
cup
sangu
pal
sacerdot
##issime
##ientiam
quin
##ane
corr
debet
uen
##rag
patr
hunc
cord
praecept
##erus
exp
requ
scrib
mov
##itionem
lae
Hi
maxime
bapt
misericord
propos
pen
##antibus
##iri
vict
appar
##vi
praecip
quæ
##uris
Dic
##ice
omne
##ilos
be
custod
potius
quidam
##libet
sex
##ebit
##rin
sancti
##angeli
ux
fruct
##anus
habent
capt
aliqua
vitae
##ers
cul
Haec
naturae
infirm
Nec
rationem
verba
##uere
nostri
inim
perd
##lia
17
##lud
##ism
nim
mont
##uisset
eodem
##aretur
##lim
forte
locum
##inct
##ilosoph
##issent
##uf
quaer
malum
lap
succ
##sc
##iliter
Graec
Gal
##urus
uno
Secund
minist
creatur
lac
##istis
vide
Ev
noct
##icem
##ario
##one
##ecta
rex
vult
Ut
consc
Quia
animae
##ure
##ativ
##ered
aliquis
quaest
deus
quip
##atam
Ang
##ites
cruc
la
vitam
Dominum
##uti
ostendit
##iores
Vid
##issimum
18
##la
etc
relig
filium
##abant
##enus
is
manus
Item
postea
##abitur
mortem
beat
consequ
um
##essit
Im
dir
philosoph
quippe
Omn
##ibile
##cum
can
##itati
peric
asc
sumus
plus
##uxta
##inta
tuam
adm
gratiam
grav
epist
aed
##atos
respond
##yl
mundi
genus
modum
th
impl
intelleg
##put
##itione
alii
memb
##ial
##uri
pars
##icam
##XX
totum
congr
Luc
puer
fin
lic
##uram
sequitur
##erint
mitt
aet
##ung
Sal
##abo
##etis
pul
##endam
##rim
The
##xit
rest
prima
pros
coni
sust
##atae
fund
##empt
ignor
##edi
fig
turb
deinde
utique
omnem
delect
##itam
##abilis
naturam
##arius
illam
diss
##ulorum
suos
agn
##ientiae
clam
animam
desider
##rog
opera
##uta
##umus
Ch
##modum
accid
causam
dedit
Script
conv
Ne
Ecclesiae
19
tui
vic
praem
pauper
aest
hominibus
##ingu
##anis
potentia
alio
##con
uest
##avi
##ana
Caes
av
proxim
crim
##atores
pert
domini
tuo
culp
char
tamquam
necesse
consider
maj
20
##elis
manu
magna
convers
nemo
iterum
##edict
perven
##itae
testimon
effic
cond
finem
fratres
##iorem
virg
##issima
Ecclesia
rev
##quis
eg
##rep
miss
simplic
omnino
soli
##plex
partic
opin
##orr
venit
##ereb
nostrum
##tus
subj
##antis
##icos
forma
##antia
verbum
##lus
##issimi
mar
cop
XV
Post
##na
##idem
##uic
scriptum
pauc
Quae
regnum
##arent
##endere
##elli
mei
magist
pugn
arbitr
demon
vig
recip
Domine
quot
##amur
firm
##ax
##lin
virtus
quamvis
sanctus
meam
##ano
Hic
posset
prot
bre
sin
Apostol
terrae
21
##itates
##anum
ipsis
Lib
constitut
separ
##ebus
mer
##iz
sper
##iatur
mala
Int
Spiritus
##imur
compar
meus
tuae
orb
##ypt
nasc
praet
corde
##erre
diem
motus
dici
##pret
##ola
##emn
perpet
dest
patet
illos
tab
populi
salv
Ibid
doctr
factus
##uus
##utum
libert
secundo
dilect
##isit
##dus
##entus
##oss
divina
##rael
lege
partem
divin
Pater
##rorum
pecun
carnis
vinc
22
##ilibus
adj
Res
multis
##erentur
arc
meo
CA
nostris
IV
Io
profect
Lat
subi
priv
##ensis
iste
##ida
sil
gest
##iora
##icorum
prec
caput
Israel
occid
suffic
superb
exter
mali
##so
His
##iendum
uerb
unius
tac
##ivit
##ena
##issimus
interpret
IIae
diab
Judae
##urrect
cogitat
dex
##iret
##ime
mol
23
Isa
##iarum
XI
24
templ
ecce
antiqu
episcopus
uero
prohib
fides
verbis
provinc
hos
aux
peccata
tota
rur
##alium
##auit
##onem
materia
Christian
patris
nequ
Mo
##edere
##ecit
actus
imag
##abatur
Paulus
quat
ecclesia
##ene
potuit
gloria
concup
##elic
Joan
##erm
partes
sep
dicat
perf
##lam
opp
##ioribus
orat
pret
##yst
hered
essent
adul
##ectu
noster
intellectus
legis
##ulam
nullo
genere
##athol
lect
##ebantur
aug
patri
##averunt
nob
aliquando
iis
parv
dev
##ates
eas
saepe
##eps
psal
deo
accept
sanctum
populo
resurrect
mart
##ioni
uoc
deum
nav
consum
statim
aliquo
dicuntur
vell
amp
fuerat
appet
angel
und
##uln
Ul
##ionum
nostrae
apostolus
##anquam
populus
Filius
25
CAP
alic
##ras
quad
anno
regis
St
animo
##ei
intra
##andem
poenit
rog
veritate
Car
domum
fest
##eros
lux
alios
tres
##ines
species
pertinet
##itudinis
boni
mo
confess
prud
Vers
substantia
ingen
gem
illic
dicunt
conting
virtute
gloriam
domus
assum
quodam
##arem
legem
##aem
##anct
##issa
peccato
uer
supplic
laet
Evangeli
clar
piet
ipsam
##uos
indic
##iit
tanto
dep
##verunt
tran
##obus
##ibilis
##sis
vet
##onum
recte
eu
##eribus
corpor
multo
##arg
deter
cas
corrupt
compl
patrem
##ilii
sancto
##prim
sacri
sententia
abst
Pl
om
sollic
concupisc
tanta
##idi
##yp
##oth
aliter
Num
##uetud
quanto
##ου
##unti
hinc
suas
##endis
habeat
##ulas
domino
pont
##enn
defin
labor
negot
##avid
##æc
male
huic
diebus
vin
##pens
##atoris
benefic
scel
##ER
os
##eh
Ies
bonis
nostro
adv
tuis
27
Marc
adversus
Ip
accus
Cont
nullus
##pectu
##atorem
honor
libro
Augustinus
dicta
Cl
##ioc
Deinde
filio
##omn
ore
##urae
VI
integ
##ru
##arii
ration
mortis
condit
28
26
##ariis
ct
##eatur
##cumque
Quis
suscip
29
nar
##ον
##iuntur
##ete
ini
scrip
certe
##umb
viri
alius
ard
##ecut
##ech
pleb
conj
infin
caeter
fem
aedific
possess
haeret
por
bl
medio
populum
As
cogit
spiritum
filios
mentis
##andam
Est
namque
obl
glad
##aus
existim
David
##amp
quare
similiter
##oria
rad
##rus
rap
audi
reper
oct
aqua
corpora
##modo
iu
qc
sensus
Quam
##eph
##ard
##requ
specie
proced
morte
##ulae
habit
##ertur
cathol
malo
dico
huiusmodi
peccati
tent
sola
cad
myst
##atorum
##ide
expos
##ulli
Aeg
homine
loquitur
tract
carnem
famili
hi
##ota
temporis
seu
animi
##ictum
Joann
elect
##anti
tit
ads
##press
baptiz
quidquid
inm
on
##ich
confirm
Iª
son
caelest
cess
Secundo
##idum
principium
Iudae
XXX
Ego
ignis
praef
##esb
cult
##ons
Primo
##abile
##amen
Sicut
30
regem
lev
relinqu
##red
##entius
##omm
syn
merc
##US
sanctorum
fortun
unam
cens
iub
##itium
cib
sustin
##ute
##uerat
quaes
fo
adi
##erium
##ago
solus
##erusalem
##αι
numero
intr
Ecce
veter
##antium
frequ
numquam
nullum
subd
gentes
oculos
spect
oculis
tanquam
bib
virtutem
tertium
##iamus
requir
adf
sacrific
actu
impet
longe
diffic
toll
indign
ren
observ
ponit
vestra
annis
Tert
dulc
VII
##ones
spirit
##aph
incip
faci
interrog
melius
##su
alterum
##ientem
##issimo
mundo
differ
auf
extra
##uam
Ulp
Par
bellum
multip
cant
##ilitatem
Id
##ribus
congreg
urbem
intent
##egor
Verb
testam
vera
Ulpianus
exhib
##ruct
tribus
Abrah
quic
amplius
##ev
nub
juxta
toto
ordinem
orn
Man
exper
uos
carne
locus
subs
meli
annos
##atibus
Aegypt
caro
##admodum
etsi
Constant
lex
exig
##ipot
coram
nondum
Imper
Reg
dicimus
Respon
flag
##olum
##all
salutem
talis
velut
##emur
Sanct
formam
uti
##acta
##usc
profic
lign
##ido
vere
##atim
##iva
divis
absol
fiat
obi
##unquam
somn
Ali
trium
##enis
##itatibus
##ientibus
dominum
gratiae
##ecim
##ella
##atuor
##exand
sapientia
mans
discipl
multi
##inibus
##abunt
teneb
patre
obt
vac
persona
convert
Cap
Ven
multum
propria
##quidem
statu
inferi
inquantum
inj
possid
generis
mente
estis
##escit
##elicet
fab
virtutis
Vel
tuus
cordis
dispos
trist
occas
vix
##TI
##urb
postquam
subt
praeb
institut
fuerint
via
extrem
honest
sententiam
tria
Gen
dat
orig
compos
##uxit
##eunt
humana
##endus
Eth
Ep
alterius
##itibus
ibid
septem
jus
ordine
##au
32
##uro
duobus
cod
##rehend
##ma
quinque
CJ
##eron
inh
determin
suorum
homini
potestate
mare
fuerunt
mundum
aduer
##yter
postul
##idie
##acob
sor
##num
divinae
natus
##idia
##dict
erunt
VIII
##ara
facile
dixi
Ac
meis
decem
item
vox
hod
donec
nostram
##te
flum
app
sermo
seip
peccatorum
31
mors
##emor
##averit
Alexand
mox
##tu
propheta
##verit
occult
##uda
caelo
##exit
coelest
totius
##abili
vuln
potestatem
##iantur
quemadmodum
consist
tempor
Vir
finis
##ioris
constant
monast
defic
aestim
mend
domo
sab
amic
refer
dimitt
aeg
consuetud
agnosc
##ilitas
felic
nut
ling
Filium
innoc
abund
##olus
inp
consec
aliquod
33
Tunc
tut
##iente
bono
##eth
ori
summa
##ecti
##esbyter
##ares
inu
eloqu
iudicium
multiplic
##ilitate
##ensum
##ecto
operibus
opere
metu
cuncta
quatuor
caelum
trah
vers
singul
voluntas
manum
denique
Gregor
scientia
Apostolus
usus
misit
ses
membra
##iano
##iore
##gressus
commend
##nic
speciem
voluntate
##entorum
##itionis
aliquam
fra
primus
quibusdam
ambul
tribun
40
all
occup
Angel
veritatem
habuit
Trin
voluntatem
agit
po
Heb
##asset
##umn
faciunt
uirt
##erio
ultra
poena
tertio
\'
Af
past
Ethic
##ensi
manibus
pol
faciem
alias
possumus
##edic
proprium
cupid
##abis
##LI
admon
##aginta
desid
##ostoli
locis
##ria
particip
accepit
dare
fat
##iosa
disput
##gred
##pterea
##ti
sanguine
significat
##uros
rursus
duplic
##erta
##ratus
pariter
principio
omnipot
pron
utrumque
##uimus
##olis
nocte
##eta
Le
demonstr
Mart
arma
hor
plures
indig
stult
sur
##acula
##utis
##iderunt
uolunt
##eram
##uat
rum
35
bonorum
tor
##eas
agere
consilium
alium
transf
duas
IIª
##ga
pedes
##item
meae
frater
umb
##issimis
larg
Patre
Neque
monach
##rahel
nunt
##ituit
34
38
qual
iure
fall
pacem
coron
##arentur
##uas
obsc
##pp
Dicit
aus
Br
contempl
quisque
##itor
##irco
##egit
##actus
merito
videlicet
##angel
adeo
43
illorum
pur
##enim
ira
##imis
exst
poterit
##arb
XII
presbyter
lumen
##ce
##ides
apt
pati
testimonium
##piter
nunquam
volupt
##uisti
fidel
retin
viam
signa
expl
sancta
##ittit
pun
design
divid
##ixit
39
animum
##circo
ment
##rius
argum
term
Contra
malis
LXX
Theod
veritatis
Jesu
uobis
fine
Gl
absque
mori
ador
##oni
scire
praedict
cura
dorm
##ebunt
praesum
##iebat
datur
regni
fuisset
flam
nupt
medium
##aculum
##itos
diximus
Val
nonn
##abantur
expon
poterat
intellectu
##libus
hodie
36
Israhel
castra
Circ
##lium
Patris
##....
Hisp
##atas
##asti
caec
ipsos
cern
Quo
similitudinem
magnum
dia
solis
##eamus
Chr
filiis
##to
##ει
cec
pud
signum
##err
promiss
marty
uiu
##cis
fideli
##ania
Jesus
gentium
##uctus
earum
excus
actum
diceret
##lo
Romani
stip
essentia
capit
##olo
##ων
aliam
##lis
Eph
font
Ag
##enum
##erius
descend
imped
pect
##etip
##iori
Itaque
faciat
ciu
amore
xx
praepar
##idis
uis
virtutes
isti
minime
consol
vener
saeculi
##inas
siue
veh
brev
Bapt
dur
secret
perse
invicem
tol
accep
##iper
##escere
dux
benedict
antequam
misericordia
tempora
##iæ
duos
temper
tribul
tri
##ationi
##ej
##gredi
##eruntur
crud
viol
abb
fructus
iniur
##ef
41
##ustra
##idus
persecut
judicium
exemplum
respondit
horum
suff
Pom
procul
litteris
Verbum
inuen
confit
##ortun
##VI
Patrem
proprie
haud
Inter
verbo
locutus
37
nomina
exspect
Nunc
deos
quar
videre
tandem
##ense
sese
##lum
##icumque
hort
quint
lingu
auctoritate
celebr
Sim
50
##rehens
sanctis
rob
##RI
##mus
voluit
hist
voce
##ract
##eperit
##essus
##iani
##endae
##quir
##eam
bello
fa
distinct
Ubi
mendac
adhib
conss
humanae
data
aeternum
##verat
coh
sensu
virum
mulier
induc
magno
possint
compet
##UT
lud
dixerunt
##ienter
lingua
partibus
insid
urbe
sort
Maxim
##ationum
ub
##epta
##etus
veritas
frig
##antiam
##ote
Act
abscon
praecepta
iac
ponitur
peccatis
elig
Hinc
urbis
cub
beati
adulter
42
Tu
matr
baptism
pereg
ole
sensum
captiv
##aquam
vindic
purg
episcopi
##uers
##strat
proeli
repet
Salv
spem
sanctific
cunctis
sublim
Ecclesiam
subdit
perfic
necessitate
accipere
collig
##idium
der
##nam
##ps
bonus
##andis
spes
Tim
Verum
ov
ulla
consilio
manduc
##eus
rever
##eperunt
fraud
vocem
perman
Moys
temporibus
secum
exercitus
habens
44
depr
respic
##abilem
ascend
simpliciter
##etum
##ierunt
##ientis
senatus
defect
constitu
##queb
suspic
##arn
##ela
vert
fiunt
intellectum
semel
Mac
iuxta
dext
aeterna
milia
##rump
constat
##endas
Hieron
ecclesiae
contemn
nud
debemus
ger
Met
provid
videntur
success
pan
Ath
occurr
##uerint
asper
Aud
caeli
animus
nox
##ilitatis
principes
substantiam
idcirco
exercitu
##ON
manifestum
ferre
uxorem
nit
condic
dicatur
percus
##imi
secunda
##ulchr
45
Leg
##mis
coepit
convenit
erud
futurum
##anae
foed
##itatum
elem
duod
cler
effectus
templum
amor
Petrus
gloriae
animal
turp
facult
cat
posuit
affirm
solv
incon
dexter
##az
mentem
commemor
##men
operis
misericordiam
propterea
Hieronym
Quare
gentibus
49
Ben
##abuntur
##inop
obtin
##greg
dubit
defens
conspectu
ru
##itias
Cur
##ices
pasc
pror
sacramentum
CAPUT
Prop
##inos
alb
salutis
civitatis
vim
ii
beatus
voluntatis
Spiritu
vidit
##ni
conserv
multos
##abiliter
aliquem
iudicio
##no
str
dig
singulis
imperium
Ist
prol
##ejun
sermone
fun
dicam
condem
##ivi
commod
##ileg
tradit
##idic
##onia
lun
hosp
habetur
habitat
##itter
scripta
rationis
##eni
##lar
ceteris
admir
more
##ectis
Abraham
ot
Job
habebat
pontific
triumph
##andus
exh
##cip
ora
mundus
Adam
##esa
barb
Phili
aliorum
armis
altera
daem
aquae
uict
IX
Videtur
culpa
##uae
revoc
revel
hujusmodi
Qua
angust
explic
desert
ast
civitatem
##ebam
##eria
##venit
resist
##uras
facti
dissim
causae
##sec
##thag
tali
nominis
surg
Sam
##arch
ejusdem
revert
##nis
quandoque
substantiae
##ioch
mortuus
Ideo
##va
imposs
aa
aquam
propon
debeat
##ibilia
contum
##di
cand
officium
ster
##otum
sane
##VIII
videatur
46
##umque
futura
spon
tabern
viro
condemn
Magn
##yri
##αν
Hab
##ogn
##endos
Idem
##rac
persequ
loqui
imperator
regno
Circa
totam
debere
uerum
ui
##eno
intelligi
valde
genera
##issum
studio
nequaquam
48
ordo
virtutum
pisc
obed
communic
reman
##idere
jub
ecclesiast
sapientiae
servi
tang
parum
resp
credere
##itit
hom
Tertio
##entu
infid
sanguinem
##entio
necessaria
##εν
infra
capite
##igit
scientiam
quon
imb
transm
Fl
Quoniam
paulo
jejun
47
Anton
apostoli
##itiis
##arios
penitus
Spiritum
nimis
##erii
iug
##icta
patres
fals
prope
53
hostium
Tr
talia
sag
propinqu
##undum
Ipse
Quomodo
solet
conced
quanta
itin
publica
Cons
quisquam
accidens
Antioch
inquam
litteras
praeced
pu
acced
##irent
fere
maior
##aribus
consumm
oratio
belli
##abula
##amentum
numerus
anni
fecerit
honorem
olim
epistol
##atium
loca
cit
##abiles
Gregorius
expect
exclud
ae
Or
##inti
vas
spl
societ
sumpt
credit
creatura
irr
profecto
praev
usum
doctrina
conl
##ule
numquid
abstin
clem
similis
remiss
##asph
Jacob
suscept
##aur
pond
quer
##ulerunt
dispens
##enditur
spe
##ravit
gratias
##abus
##olv
##entiles
rege
best
tenebr
vehem
quadam
##erimus
camp
invenitur
fructum
intro
##ος
ampl
au
nef
##IV
##uitur
legit
virtutibus
coelo
memoria
##quisque
Romae
Sap
mus
concord
semetip
XIII
confus
claus
propriet
Respondeo
resurg
civitate
sanctae
huc
haberet
matrimon
Cr
curr
vivere
mari
ignem
decret
ubique
pacis
facie
##yrann
percip
fratrem
patern
##AN
ipsorum
##ittere
##ariam
videri
isto
humili
nullam
##iii
Jerusalem
causas
Amen
eiusdem
##οι
##raque
judicio
superius
praesc
fuerant
poenam
victor
##yll
splend
##aed
servus
pag
plura
oblig
interim
quarum
##liv
##asch
istis
lucem
senti
nescio
centum
corn
numerum
quart
calc
##ive
honore
tuos
tale
##arunt
##olog
termin
Atque
##ellis
##rare
dicentes
##VII
inclin
tertia
Sententia
##essum
##ista
naturaliter
audire
habitus
operatur
Ps
##EN
solo
##ubern
reges
praefect
inop
lim
prav
Ver
fratribus
pap
Nem
certam
depos
pertinent
pluribus
consens
##ialis
scand
seru
##aei
##iac
Filii
contingit
##otis
##angu
##ona
##ring
blasph
arch
sacr
##issimam
Acc
praecipue
filiorum
insign
Ecc
indiv
Ille
##iosum
##uissent
morta
sch
##minist
##atore
##inianus
Den
Sequ
##τα
ced
intus
tempt
divinis
corda
##uto
grad
##ossa
dixerit
fav
qualis
##eras
necessarium
Conc
cognov
Nihil
nulli
vent
venire
na
##ialiter
Filio
tyrann
timore
causis
recept
##abilia
videb
pulchr
imaginem
utraque
igne
##illa
prou
except
fornic
mac
fulg
quinqu
##fac
memin
debent
velle
##olit
##arus
ens
Aut
##UM
##psit
subsist
##enae
personae
synod
ire
52
sempiter
videt
obst
Dec
intelligere
excell
obsequ
diversa
##erere
modis
remed
quadrag
interc
maris
quaerit
Scriptura
repl
domine
publicae
##erumque
##amenta
apparet
annum
##erim
hora
umquam
Aqu
oppos
##acia
etenim
dicis
sacra
prem
exaud
##ellus
philosophus
illumin
lo
##ors
parc
Ez
greg
plag
scientiae
mur
diut
##elix
quondam
animos
transe
Bab
princeps
quamquam
blasphem
##rata
naturalis
alibi
concept
Pompe
coniug
procedit
unusquisque
eb
##cr
Just
Null
##orium
fieret
commune
poll
pace
disper
formae
Sept
immo
Evangelio
imit
dicebat
habes
inl
##aust
##ariae
regi
Pers
libid
luxur
falsum
rapt
possent
##rexit
milites
impossibile
##adis
hostes
##liam
Bo
Cat
quattu
sect
fortasse
manet
milit
vestrae
aurum
minor
##imam
##eu
differentia
sapientiam
initio
##escat
Ach
##IS
abl
benign
pecuniam
Pot
exor
motum
Denique
XL
haeres
##rii
habemus
saeculo
has
Quem
##anter
defend
animas
##idio
propositum
Com
##orio
##eum
malorum
##ibili
nuncup
Iesus
potestas
magnific
exemplo
episcopo
justitia
quatenus
Philipp
tempest
##rix
##itorum
51
motu
##orsum
prout
declar
celeb
Romam
vestris
docet
dubitat
##utio
Chrys
tales
##eti
reduc
the
##jic
loci
aeternam
dona
it
##uert
corrump
lig
##eremus
habeant
vestrum
bis
Babyl
defunct
corporibus
dubio
Joannes
adven
55
facto
molest
##fl
corporum
imperio
contraria
##opt
indulg
deprec
##ensa
sis
redempt
prior
Psalm
##irum
uita
IIIª
##icto
contempt
essentiam
frustra
dignum
Amb
##itiones
mi
desper
auxilium
comed
excel
##rium
pulch
Cal
Mult
negl
Caesar
##eratur
exal
edit
falsa
##ront
##lid
paen
matris
duodecim
primi
##ho
##anim
##anorum
##ibilem
sa
serp
perdit
Salom
##yc
conclud
##erens
puta
justitiam
diligit
occis
plena
sat
Ori
##issem
personam
leges
frag
##avimus
dirig
narr
sacerdotes
Jud
saltem
subito
iustitia
Arist
##urarum
Ephes
Quando
merced
##erebat
conclus
Se
##mina
##ultus
##osa
##eriis
pax
misc
corrig
##ueris
nig
materiam
uitae
caritas
Inf
##oseph
prosper
contrarium
##ponitur
Hebrae
crucif
devot
actio
Prov
quattuor
##ienti
##enam
horr
plerumque
praesens
alicuius
thesa
fast
Jesum
potentiam
##iosus
officio
..
##ila
exercitum
##rex
##ianum
##eritas
##ativa
consid
semen
legitur
tribu
festin
nonne
faceret
improb
bella
sacerdos
##issis
proceditur
fecerunt
##anas
iuven
Imperator
##igia
praesenti
procur
declin
matrem
##ocin
meos
fortuna
##unda
donum
Her
Angeli
subsc
lacrim
neglig
Att
particul
diversis
gubern
nova
cognitionem
scripsit
##undem
##erri
##anos
istam
##itiv
fiduc
Afric
##ittitur
universa
panis
modus
fore
##ocrat
br
xv
##escunt
coelum
Maced
Baptism
Cui
Sa
line
gaudium
rursum
oratione
##amin
trig
perfecta
praeceptum
ves
tuas
ual
Nov
Ob
libris
pollic
persever
effectum
christ
fama
Glossa
scrips
infl
##eru
deduc
irasc
vend
humani
##prop
solid
prorsus
intelligitur
##uch
immort
##iph
facies
terris
militum
suav
sabb
##imenta
##averat
sord
terrarum
##eperat
ventur
emend
luce
quosdam
##iliis
assign
utrius
talem
diacon
##ebo
altero
puto
carc
iudices
cam
valet
sanguinis
pup
petit
datum
oculi
saecula
assumpt
inius
pedibus
utro
Test
Gentiles
istius
##ES
##itui
##sos
##usa
ecclesiam
pend
pietatis
putant
plane
accipi
totus
Sub
Ezech
##andae
mille
vari
##qui
duae
cot
placet
contumeli
frum
Cumque
quartum
cito
didic
vitia
deorum
possum
##pend
##veri
Fac
##mine
divinam
pertinere
labore
invid
Carthag
quicquam
tenebris
##aeus
##diu
istud
##onte
empt
##rinsec
##eto
stup
##alitas
dari
iact
addit
civitas
##ind
perg
cru
invis
##iderit
claud
deput
Sem
restitu
curam
uinc
##ellum
Sab
communi
dictis
##icas
vocatur
##elle
##hann
torm
antea
nota
utriusque
conspic
summo
eleg
potes
mandata
faciam
descendit
##ximus
incert
paul
Iam
Phil
servitut
euangeli
pom
Nos
viginti
Por
demonstrat
sermonem
crudel
aures
orbis
agitur
##ictus
##atoribus
simile
hostis
alteri
usu
resurrectionem
##utem
##ond
repugn
foris
##tis
resc
coep
saep
attrib
herb
##emp
discipulis
##estin
creaturae
incorr
media
nativ
##ictis
Cic
scit
Prophet
bas
iuris
quaecumque
figura
##omus
dixerat
moribus
Div
iustitiae
Tum
natum
aliqui
quaeritur
##amini
##ratum
utroque
teg
tard
##issimae
viros
syll
Germ
access
Fr
consult
ostenditur
incom
exprim
54
hyp
alicui
nostros
orbem
viris
##acto
patitur
administ
cav
medic
##eantur
Mag
provoc
quicquid
incend
undique
prophetae
##alitatem
spoli
XIV
##cus
quicumque
quaeque
certa
Igitur
communis
sinist
hæc
talibus
Dum
multitudo
sax
##och
##aturus
##uncta
##ponit
incorrupt
Galli
quodammodo
etiamsi
Moyses
DE
monte
diligenter
hy
consistit
facilius
passus
sufficit
##otus
verborum
cumque
tuorum
interfic
cu
vires
Quibus
duct
nil
turba
70
praeterea
histor
reprob
aliae
summum
ambig
plurimum
describ
pest
lumine
pecunia
sug
epistola
dupliciter
sang
probat
##orp
##arias
Col
qualiter
morb
filia
##CC
ib
Re
##inopoli
vinum
vulg
incred
Apoll
##co
primam
Red
veli
audit
##iose
Hil
quum
anc
##gen
scr
##undi
episcopum
legimus
benedic
meritis
cogno
Virg
justus
uxor
genuit
Syr
poenitentiam
##orus
fecisse
quaestionem
iussit
periculum
viribus
dolor
transl
novum
Secundum
diei
vivit
timor
front
aliena
##ientium
##erna
sapiens
##inth
Be
justitiae
58
stet
paucis
temporum
##ellae
trem
##ectio
##rept
istum
rig
record
##AT
calumn
##aron
##udum
aegr
##andos
insc
Pel
Romanis
Sac
iuv
casu
aduersus
verbi
##ala
##aculo
produc
##ullius
liberum
seipsum
discret
apostolorum
perhib
latr
quoddam
distingu
Sequitur
artific
paenit
maxima
gent
##itatus
reced
tet
eat
pign
protinus
crimen
##ungit
primis
principia
##itare
Chal
Metaph
panem
Hierusalem
Omnia
60
ascendit
instrum
57
56
veni
gesta
Ser
##itatur
solent
postrem
religionis
conscientia
corpori
frequenter
##igen
velit
agens
sanguis
impos
accipit
profess
incarn
Sunt
habeo
ferv
##OR
siquidem
interfect
59
##idam
refert
iustitiam
libri
doctrinam
##ertim
uitam
monstr
injur
##isci
habitum
nostrorum
##ιν
##rav
arte
concess
##oto
##inceps
munera
process
cœ
iur
auro
major
noli
heres
rub
##Th
imago
cognoscit
AE
Jam
Dion
##osyn
Chrysost
amorem
Petri
habentes
vigil
necessitas
perfectum
moritur
omnipotens
consort
):
##ca
posteri
##illi
Tur
len
tend
formid
adulesc
dog
increp
vocant
uerba
##sam
partis
attend
CTh
mirum
Don
uult
nolite
colleg
Sol
interdum
innum
Ca
libertatem
Manich
trep
##ineat
castris
quamuis
##ensus
praesentia
mai
initium
posc
dixisse
Op
mores
sacrificium
Hieronymus
##imentum
##atura
numer
potentiae
adduc
##nae
peccatores
affl
perturb
##ominus
Ioann
revers
...
patria
##urs
nihilo
dubium
##evit
Omnis
mane
Hanc
immut
posita
##onibus
##undo
sid
conviv
Orig
En
cong
nimirum
memoriam
##asi
volo
dolore
legibus
reu
impiet
##issimos
obj
abscond
lacr
nascitur
sepulc
proper
Moy
animad
##eritis
plant
sugg
##ulari
membris
##imae
statum
##quebatur
##ebis
flu
diabolus
superbia
lav
annorum
faciet
accidit
orationem
##gypt
instant
inquir
circumd
justific
animalia
##ponere
montes
cognoscere
passionis
avar
meritum
scio
mortuis
##ifex
templo
movetur
infinitum
aer
sequi
duplex
ent
##nus
magni
Maria
Scip
##arc
##ipp
magnus
##terius
##arit
proprio
incipit
certum
uelut
intend
permitt
confund
operum
hostem
calam
##riet
Dionys
Dom
circuit
##lix
unitatem
humanum
##ivum
continuo
##ade
penet
aetate
psalm
vast
##ych
ta
##urrit
invenit
prophetam
desin
secur
proximum
71
Latin
cæ
constituit
aquas
credimus
origin
##rop
Evangelium
conjug
sacrileg
Conf
confid
cognitio
Di
nati
tenet
imperfect
vitium
caritatis
grand
caeteris
ict
elev
##ην
##udex
vestram
Em
magnam
##iosi
studium
Sp
Patri
##athem
Imperatores
Dem
##iendo
paene
habitu
porro
Nemo
materiae
aere
utero
Iesu
veniam
vocab
adopt
triginta
##isso
decip
XVIII
prael
aetatis
##eiun
Kal
actionem
placuit
##τε
aspic
destin
flor
tantummodo
suppos
illust
ele
obsid
provincia
iii
Omnes
Iuli
regna
delic
retrib
##ith
##esta
##yth
insin
proport
Cae
##uerant
patriae
illuc
Tabula
caed
quisquis
passionem
periculo
liceat
modi
sacramenta
XVI
ec
##itavit
Med
perspic
pe
##olym
repar
##ropter
erga
XVII
erub
lacrym
Diab
solemn
partim
immin
singula
##ρι
pretium
exalt
moen
vestri
iram
gladio
affect
Grat
##pere
##sti
multitudinem
##eles
praepos
fratris
##sitan
munus
Ambros
jac
videmus
respons
perfectionem
##alid
ieiun
doctrinae
ris
Similiter
pervers
visum
##fact
65
Epist
reddit
humanam
##yg
desiderium
malign
##undus
prompt
imperii
uirg
Cant
Rh
rationes
infern
fing
uerbum
meas
##itudines
scribit
videretur
aem
æter
adt
nou
amn
cerv
##utionem
diaboli
##ci
duabus
Romana
missus
injust
gradus
perv
##abor
tanti
instruct
libera
introd
kal
auctoritatem
maledict
crucis
culpam
discern
immol
Propter
frug
neminem
credo
hostibus
amoris
glorific
martyr
semin
bonos
suscepit
salute
Illud
jug
montem
##aciter
sponte
mom
Numquid
individ
##pici
novi
positum
consequens
##aniae
praesertim
reliqua
eandem
Ruf
##erosolym
quoc
tex
Juda
semine
Sion
##itata
dicente
patrum
##imas
reput
colloc
62
64
idone
salub
novit
educ
pervenit
nus
nat
##rica
61
perduc
auctoritas
LX
obsec
ni
liberi
ullo
caritate
evid
errore
dignitatem
figur
apert
class
Socrat
flamm
ju
octav
Chrysostomus
##uaginta
repente
##onius
68
tantam
Ur
libros
##ueret
video
uter
magnis
Iov
tranqu
idol
toler
superst
cst
da
putat
li
illas
63
multorum
mortale
caes
fidelis
##aro
##usta
confl
creditur
ram
coniunct
Daem
##aniam
invoc
Aristot
conp
commut
vidi
Ind
ferro
praedestin
Graeci
discipuli
mix
odio
exempla
##aric
legi
angeli
Judaeorum
Romano
iniquitatem
exped
videbatur
fluv
saev
vine
pari
##ratio
propriam
##icibus
poenae
circumcis
arbitrium
##ariorum
##ucta
adversum
Esa
orationis
quadraginta
subl
anathem
respectu
##erte
quotidie
Jerem
##anam
##ello
##pectum
suffrag
sermonis
poterant
octo
interpretatur
intelligit
creb
Metaphys
Ass
virgo
dierum
##icti
hiem
ordinis
terrena
##actum
palam
fidelium
##acch
dabit
obscur
##let
eundem
germ
##enas
laudem
puls
pav
##τι
##orta
egreg
##icit
Pap
##ordia
sever
##CI
regum
##atori
mandatum
tradidit
vellet
fines
latere
plebis
tulit
multitudine
postmodum
extr
apparuit
##pex
66
deinceps
##iana
principis
##aequ
lucis
##ierit
recta
foli
evangel
propriis
praecepit
specul
monum
fideles
##imini
Cass
##ietur
##actis
adol
mortui
dignus
##antiae
##ebas
75
Bal
forsitan
##idisse
Benedict
##rans
crucifix
##cun
angelus
pig
##uens
arbitrio
vad
##alum
melior
orbe
##emosyn
vino
##αρ
libenter
movet
iubet
disciplina
cohort
audac
##ellam
##entos
Tib
episcopis
##ης
Romanos
Iohann
simplex
palm
ingressus
tenebras
oris
singulos
##oct
##ensem
necessitatem
testamentum
Cyr
consent
malitia
langu
pess
stare
aeternae
publicam
profectus
##uorum
sensibus
fluct
69
erip
contend
dabo
delib
actione
urg
Caesaris
passione
casus
sinc
Vol
lup
adiu
XXI
uidetur
quaestio
##AR
##AL
operatio
justum
psalmo
##abam
sacramento
##VS
recipit
Min
##ommun
luct
##ogo
Fab
Sen
Inde
iustific
##enses
veluti
##oti
potuerunt
similitudo
Dixit
gign
debitum
longa
potuisse
##gressi
##arr
obv
populis
vocat
No
ful
volumus
salus
##ibiles
visus
aperte
mob
distrib
difficult
##mat
inform
inut
parentes
sole
nimium
mysterium
excip
servum
Mos
osc
imo
inimici
naturali
principem
monst
Angelus
ibidem
##AE
Co
uig
opinionem
majest
purp
του
prist
argentum
sententiae
munere
nutr
Iacob
quaerere
##greditur
sæc
judicii
##hel
possibile
dissol
saepius
express
obliv
discrim
justi
prudentia
coeli
vetust
speciei
eumdem
Romanorum
haered
peccare
Corn
nonnull
Sex
librum
CX
intellect
umbra
sta
fortis
testatur
nostras
misericordiae
derel
terras
bonae
matur
errorem
##ilo
pariet
fratern
ostendere
Pont
saecul
Serv
Dam
tun
cordibus
millia
interf
senatu
Quidam
72
humanis
absc
##esset
sacris
auribus
expet
magister
do
vex
Claud
El
patriam
nata
recon
inquis
Bene
maius
resur
voluerit
appellatur
recus
celer
vendit
confic
amar
eamdem
Occ
pp
columb
passiones
ultimum
divinitatis
##ismo
praetor
##ecc
beneficium
veloc
abi
feci
reus
Abrahae
##mentum
##ueri
debuit
digna
fiant
peruen
dolorem
dii
dictus
##ας
inimicos
##utione
supr
senex
fatig
##hem
tenere
repr
peregrin
Hann
##idae
suppl
adn
##ichrist
obn
##oro
##rinsecus
##00
canon
priusquam
gentis
domi
praemium
cc
consuli
praedicatur
Thess
sedem
##age
venerunt
cin
##ariter
defl
aeque
superfl
demum
arbitror
malos
mora
poenas
laque
esur
occidit
Apoc
##iperet
fecisti
van
##ungitur
Pal
##alitatis
vale
##iendi
pronunt
similia
67
##udit
sagitt
pell
##ai
passio
eleemosyn
alteram
##piam
paupert
vag
consue
transt
filiam
cibum
memoriae
multas
##ordin
competit
Ibi
##anto
usur
similes
virgin
bland
venia
Theodos
eidem
visc
auri
restitut
##ulatus
##ebitur
##eos
navig
versus
dixisset
tub
soll
populos
iuss
##iebant
suad
Corinth
resurrectionis
seq
operam
praedicta
Alb
mensura
basil
mit
pudic
amici
refug
scriptura
ol
sedis
les
har
pectore
##abimus
cogitationes
bonam
sanctos
erig
inr
##elu
nuper
LI
aquis
quale
##entior
concupiscentia
futuro
altare
pens
##imos
offend
specialiter
comper
##ientur
simulac
##enes
##uatur
dogm
liter
Exod
73
##υτ
fugit
spatium
iv
##eteri
Pasch
factis
civitates
promitt
capitis
precibus
##uersa
pene
Oct
Ill
##ues
nominibus
amat
urbes
##alitate
liqu
detrah
pueri
nosc
Potest
adventum
reb
import
adim
fratrum
alienum
testamento
vivific
culpae
##ursus
vitiis
caetera
caritatem
ponere
##raes
##elius
matre
##rehendit
exsult
reddere
Hebr
disced
possessionem
##emb
##iretur
Hunc
##antas
auctorem
##iuit
provinciae
comes
temer
decept
conuen
quamdam
##aev
nunti
spiritualis
commin
##illam
##erebant
ossa
Ari
##aces
praesentis
desiderat
hae
Isaac
consuetudinem
sequuntur
summam
Beth
ministr
zel
patientia
conscript
74
Sar
assid
maiest
jure
##inn
potens
sedes
ungu
##amento
##illis
peregr
aetas
Erat
##entiis
iura
luna
subst
homic
putas
affectu
praeterm
diuin
approp
79
rust
##--
sacramenti
##ulerit
lapid
gens
quandam
Roma
domest
##terum
humano
suarum
inconven
Mel
Plat
requi
littera
responde
##iosis
patribus
malus
aquarum
Porro
actibus
Isai
fertur
praestare
error
noctis
admitt
despic
pervenire
illae
significatur
subscrip
creaturam
aliquot
diabolo
solem
uenit
Quint
perfectio
Pauli
consules
præc
sacerdotum
vul
concilio
duces
mere
nullis
tenetur
Juli
potestatis
status
compell
Cre
sepult
##lio
corrip
##iturus
affectus
charitas
oppress
dicamus
dispon
generatio
Thr
rud
retro
effug
infinita
valent
decet
copia
mulierem
##aculis
Hannib
Sup
oportere
##itionibus
Tar
Petro
##riae
##isses
persuas
##ocr
opportun
mentes
dividitur
alioqu
heb
utitur
Romanus
liberos
##issi
abd
opinio
##itatione
noctem
Quantum
76
uterque
##nit
adsum
##areat
specia
porta
prodest
accepta
nosse
85
##emin
##liae
disciplinam
tantae
sicuti
Deut
parentibus
mancip
##aet
divino
Romanum
charitatis
proximi
##illum
poet
oppidum
77
XXII
fiet
effus
bus
expedit
##IC
odium
Te
angelis
to
difficile
pietas
aeris
##erg
##estis
venerit
esto
lug
Hon
senatum
diuit
remitt
conjunct
inest
miles
Mal
##erito
signis
hæ
maiorem
moder
adjut
Vict
mulieres
adjuv
Valent
##ingit
imagin
verus
remov
reliquit
emin
auxilio
vestro
animis
accipitur
Satur
oves
integr
adfect
##........
80
ambo
Cujus
sentire
paradis
vehementer
tumult
gaudio
mense
και
simili
interest
Prima
laborem
Capit
dives
Su
##OS
indust
Primum
communem
itinere
avert
even
Moysi
Poen
fecerat
prost
approb
erroris
83
amare
##aturum
committ
testimonio
Bas
##uunt
auctore
continet
Iun
##LC
crimine
infam
fratri
personarum
dulced
XIX
caelestis
dexteram
tantis
merita
mendacium
continetur
administr
##uls
fabric
frang
##ha
amicos
Judaei
volum
remans
##ss
animarum
veniat
docuit
decern
lact
##atenus
inan
##ellas
artic
esc
irac
filiae
pauca
##entissime
quotiens
coelestis
vitio
##oper
##atia
##veris
Aur
Iuda
fix
personis
##aeum
Quasi
peri
eris
timere
foras
redim
adsc
faciens
opes
Joseph
Nol
vias
affectum
Metaphysicae
##onus
concip
##eis
principibus
81
##unxit
operationem
odor
Vide
lam
nullius
militibus
timorem
uuln
Nonne
dicebant
Postquam
popul
exord
silv
lignum
inesse
praen
charitate
uin
solam
virorum
Iesum
liberis
contrah
herc
intelligendum
habebant
noluit
praemia
78
veram
apostolis
incorp
ultro
possis
medioc
praesumpt
linguae
rot
rip
saeculum
ingenio
iustum
miracula
##odi
mach
magnitudine
litterae
hereditatem
quarto
mortuum
sob
cognitione
quaeso
duce
ultima
officia
##erentes
divitias
necessario
meruit
pretio
iuc
futuri
##enc
unumqu
sati
##rarum
catholicae
Tro
irae
quolibet
perfecte
murm
uerbis
##cili
resid
primae
tristitia
Eccli
Alia
##ertus
resurrectione
percut
explor
##uistis
nep
credunt
acquir
probatur
nescit
patriarch
##ασ
dissimul
utilitatem
intentio
legati
dignitate
laude
pastor
##oed
principum
uera
facis
adha
subiectum
ine
perag
credidit
fidelibus
fov
org
negat
possimus
debetur
##ymp
expugn
astr
##nas
##ecte
destr
dextera
Asc
##ibilibus
Arg
ingredi
utile
Pharis
habebit
fuga
consecr
incid
impon
litterarum
quinquaginta
Cred
##onium
postremo
eisdem
templi
Antichrist
negotium
##ages
intellegi
mensis
publice
Caec
simus
quemquam
novo
satur
Inc
Nic
nau
mercedem
##ulisse
##igur
desiderio
acies
testis
Cn
Herc
##ectione
##anu
peculi
transc
transire
considerandum
syllog
acerb
Eut
diceretur
Iudaeorum
exhort
equites
##UL
##IN
##ialem
preces
partium
Mis
##do
##onio
fortitudo
intu
content
##ommunic
pauperes
episcopos
monasterio
incho
veniet
nihilominus
acta
praesid
##ogen
82
subtrah
ero
Genes
##posita
##itari
superioribus
Mor
divinum
dedi
inimicus
gust
proinde
vesper
##errim
faciant
Hierosolym
repell
clari
prohibet
##ursum
linguam
haberi
proximo
prophetarum
sustinere
ton
consurg
Laud
vultus
It
decre
adip
servos
fate
exult
ulterius
##illo
diuina
usurp
contrist
positus
insip
amicitia
unic
impugn
reserv
ferm
cognoscitur
##ienda
dicentem
apostolicae
cresc
praeceptis
Saul
pluv
uic
imperatoris
Sil
laes
percuss
sermones
##aeorum
sede
Illa
mortuos
ducem
spons
modest
servo
pondere
phantas
testamenti
cecidit
quintum
Aaron
Rex
meret
pietate
fas
amicus
ignosc
negare
##illus
Franc
Rem
agro
recens
finibus
Ed
##olae
intellex
respondere
moveri
sciens
duorum
mess
incolum
plurima
discipulos
##itatio
ceterum
##odos
divini
bal
infirmitate
faciendum
##erique
Sym
##iteri
Lac
diligere
victoria
appetitus
sicc
secutus
personas
iustus
ministerium
obnox
juv
##etem
veniens
voces
dilectio
insuper
Nisi
mensuram
##ibit
debita
Angelis
quocumque
humilitatis
Quart
superbiam
##uad
prophetas
##olam
Pelag
adolesc
##iturum
veri
naturalem
reconcili
Heli
conn
Sanctus
refic
stipul
Sat
##yd
##ardus
episcoporum
##ongo
##unx
unigen
##actenus
uix
Italia
Alexander
contrari
Christiani
honoris
##apropter
tenuit
Alio
legatos
fugam
##issus
cursu
dissip
perpetuum
petere
Evangel
vota
##onos
concilium
Romanae
constituta
intentione
quamdiu
Iob
quales
genit
deg
subsequ
amicis
##ατ
##iterit
regione
reprehend
sinu
rationalis
πρ
##ecerunt
dicitis
passim
oculus
deneg
subditur
invidia
84
fata
dignatus
Italiam
vo
artis
catholica
##rati
generationem
gaudia
beata
Anim
perfectus
videantur
terrib
inex
##idas
credid
contrario
##enos
unitate
cadit
contro
##eruit
pernic
suscep
Comm
gram
equitum
##oniae
instr
##erebatur
nasci
Dau
spatio
Phys
mulieris
præs
Vos
fert
humilitate
laudis
##iculum
##estim
pondus
laetitia
conturb
capita
pecuniae
##uique
extoll
neut
effund
brach
##verter
##incip
agg
vasa
sud
adu
XXIII
veteres
negleg
##ibilium
Alii
##bet
Quorum
debeant
longum
saeculorum
Illi
##olat
alim
nefas
matrimonium
verecund
noctur
sursum
consili
differt
disciplinae
alicujus
consilia
uirtus
diutius
pel
potuerit
interv
unquam
Dauid
occasionem
##yph
cibo
Quapropter
sanctam
prosequ
##acem
multae
comprehend
femina
occurrit
humilitatem
oppugn
seri
##ary
##ioso
epistolam
##riam
uestra
flumina
contig
vides
annunt
ulc
88
offens
insol
##rio
ipsas
mortuorum
contem
spei
martyrum
masc
##πο
lapidem
grau
senect
potuisset
##ades
##acti
proposito
dot
hast
##estig
sapientes
detest
aeth
breviter
thr
posuerunt
glori
mittit
parva
##unctum
apostolica
87
pasch
tela
habita
corrept
moenia
##utionis
magnitudinem
inha
##itteret
Dani
alta
vester
domos
gess
capere
fideic
legatum
castig
dudum
cruce
sidera
brevi
stim
absit
Tol
optimum
consequenter
Eus
locorum
##ifer
Class
temere
ampli
Scripturis
beneficia
ligno
extrema
##ele
Judaeis
Sancti
daret
hol
habuisse
iniquitas
##ratis
jact
αν
##orius
pugna
menti
##cm
ipsae
veteris
##upl
truc
semina
charitatem
aciem
nusquam
intentionem
crucem
laus
fratre
poenitentia
##andas
##eptum
occulta
placere
ducit
litteram
dilectionem
adventu
##qua
##tax
subm
foret
Nest
##ησ
sensit
dit
##inarum
longius
Aegypto
nuptias
##etas
morum
##emit
conform
Disc
metus
Cyp
sermonibus
lapides
consulibus
unitas
videns
column
calig
Princip
apostolos
creaturis
late
##imento
Trinitatis
Hebra
deu
audivit
Des
maiores
vestigia
intendit
86
##ener
deform
vetus
AEgypt
libertate
##istae
abiit
decus
Phara
Uno
beneficio
mansuetud
dere
clav
certo
haeretici
discord
pacific
##roc
inspir
ferunt
pectus
##μεν
dicendo
laudes
##ripsit
propriae
aliquibus
contradict
ferrum
copul
##une
exced
Ea
gentem
quique
igni
iniuriam
quarta
Ost
animalibus
militiae
addidit
oleum
torr
communione
iuuen
respicit
generatione
paulatim
Eli
beatitudinem
Aegypti
Redempt
debit
docere
##pote
originem
unicuique
.—
aquil
lapis
centur
##EM
amplex
##TA
amicum
asp
##yrr
transit
legum
haberent
gratis
tertiam
CXX
Quos
plenum
infidel
manifeste
ueter
##pit
admodum
institu
dolo
redire
extremum
91
Rec
dicant
remedium
##iavit
##verint
speci
angelorum
Sever
##assent
fortiter
recogn
Dan
##pes
##υν
stir
civium
convenire
fructu
foro
pus
abbas
vocavit
##urrere
invenire
sustent
album
##ics
utpote
Apostoli
peper
dicendi
inimicis
fus
agros
crimina
##icin
##ende
veniunt
antec
Euseb
##tamen
##CH
diversas
proelio
##elam
peccator
sapient
exim
dura
universi
Caesare
gradu
suprem
facinus
are
##aci
different
##pta
Quin
studiis
acie
plan
dignitatis
conpl
dimic
Ante
optime
complex
testes
Quodlibet
perpetua
##umenta
contradic
oleo
elementa
obiectum
##quo
##erog
proficisc
feri
##amb
regibus
devor
press
trepid
Simon
sciendum
concub
silentio
volens
montibus
excommunic
reprom
Fortun
##ixt
subscripsi
datus
##eatis
plerique
auctores
immob
consensu
fortunae
patientiam
existens
praecipit
maximum
lax
moll
##usque
istos
ingens
portas
destru
corporalis
##verant
##iator
respondet
Scripturae
quidquam
Theoph
nonnulli
insidias
Bar
unct
efficitur
conu
elegit
manifesta
torqu
Joannis
qualem
##icere
ars
baptismum
facio
operari
Quamvis
infest
ordinatur
compon
condicione
triplic
##ilic
flamma
innot
puerum
Moysen
fronte
VER
##atius
propag
nubes
longo
nobil
terminum
##abilibus
color
##amine
nempe
Vit
Arch
haereticorum
facias
communiter
scelus
interius
##lev
Scripturarum
##agog
secreta
aliquos
allig
crediderunt
publico
rationibus
repud
uiri
aetatem
testimonia
Dionysius
sumitur
Ga
salu
notitiam
##erret
antist
rogo
numeros
Dioc
studia
Caesarem
iracund
opprim
coeperunt
ausus
prouinc
fiducia
Petrum
semetipsum
oculorum
promis
poenitentiae
##itura
Libr
constantinopoli
##illim
scribere
cogitare
Do
animalium
regio
laboris
cun
similitudine
LXXX
dicas
##ectionem
vident
secundam
confug
transeunt
recess
eosdem
Paulo
##igr
##ietis
adiut
cooper
redit
Cuius
cer
bonitas
agri
tribuit
libertas
vini
habuerit
Etenim
beatum
actiones
dederit
pauperibus
egressus
ian
caut
applic
Paulum
flumen
adest
vulnera
fum
requiem
perp
Episcop
##issimas
cives
similem
confessione
iniuria
excit
refertur
consuetudo
consuetudine
ceteri
imperatorem
Steph
Manifest
credentes
miseri
scrut
agunt
religione
reliquis
egit
##acum
honores
cent
valid
##OM
Graece
recipere
loquebatur
ide
gravis
labores
gladium
patef
ostium
displic
universis
viae
sacerdotibus
ej
defectus
Cicero
meorum
creata
Iudaei
bov
##ulerat
dextra
Zach
parric
Omne
gn
delinqu
conveniunt
exterius
dilectione
deserto
velim
innumer
Goth
generat
##riter
##iamur
solvit
Oport
Dicitur
##icip
100
uere
##rips
terminus
impetu
##ono
bened
latus
##ensium
Proc
custodia
Library
sib
Aet
Es
dans
Classics
dimin
tenebrae
cibus
increm
includ
##urn
utinam
montis
xxx
IN
manere
equidem
pull
subven
servare
ducis
certamen
Graeco
pectora
Physic
incur
##ules
immund
potissimum
alienis
circuitu
alioquin
Ter
scient
##episcop
pœ
##ingere
cotidie
lep
##utae
suscipere
##hi
trec
quoad
Arc
praesentem
laudibus
circumstant
dilectionis
comprob
apostolum
##erata
ostensum
succed
Africa
##eramus
implere
##lem
aiunt
fons
generationis
##alam
vitiorum
figuram
manifestat
moli
##lorum
coerc
ingenti
evangeli
drac
factam
converso
pedum
pronunti
aeterno
morem
perit
quasdam
enum
##eritur
facin
##ianae
cruci
mysteria
coc
nis
principaliter
Damasc
##istere
card
renov
tus
##90
comput
philosophi
excludit
##ianis
beatitudo
Salvatoris
XLI
qualibet
detur
tal
##ularum
accipiat
iudicia
videamus
##ipsum
utri
##unde
ingenium
##itius
##orqu
formas
cuique
referre
pacto
tel
uac
##aeo
variis
##vol
orationibus
essem
pauci
minorem
remissionem
sitis
inclus
doloris
egredi
scimus
schism
fuissent
##ισ
adversa
examin
resol
Evangelii
plebe
responsum
insinu
paucos
Salvator
proven
Fort
parentum
absur
Cast
amitt
##95
cali
trit
argenti
##icula
tranquill
primogen
redeunt
teneri
universalis
argumentum
lub
agrum
caelorum
##erantur
inpl
iudicii
fauc
controvers
sciat
Trinitate
holoc
persuad
missi
fonte
Timoth
Herod
stetit
Ipsa
euangelio
exinde
requiritur
membrorum
Hom
servis
periculos
Sum
##aculi
coelorum
##tam
##ilus
occidere
rab
fame
extrane
##εσ
legiones
depend
Apr
distr
##inctus
Homo
##20
insula
##ilior
iniquitatis
Salomon
uit
necdum
procre
somno
Ins
consequitur
ortus
concili
sentit
##onae
##igil
gravius
##idos
##ituper
disting
uxore
##37
maiore
potestis
cursum
advoc
Page
copiis
adimpl
Temp
##ια
##veret
signo
Hispania
septimo
Chalc
##45
juss
uirtute
##uitate
##RA
##arie
##amenti
Add
negotio
potui
exponit
men
mittere
integrum
modicum
corona
differunt
cogitatione
poc
##averint
synodo
perl
fideliter
pern
impii
aequalis
Athanas
pand
##emini
inordin
secuti
conscientiam
Dioclet
descript
Pos
##umentum
##ommod
##escant
privileg
iudex
implic
prophetis
compreh
##91
populorum
cultum
##urorum
magnae
And
promisit
##35
facultatem
Huic
##osus
occasione
barbar
##uci
accessit
religionem
Eutych
##yb
##25
agric
promissa
vices
cursus
visa
venisset
praecl
menses
sop
##hinc
appropinqu
##ou
##iepiscop
##eriorum
credendum
praecepto
Pol
principe
avers
adept
vindict
hactenus
##anta
depon
parab
Constantinop
##65
inveniri
uindic
maledic
agendum
secundus
deliber
ve
oporteat
coronam
Cel
quaero
officii
praedicationis
dicti
uoluit
comparatione
Av
regia
satisfact
iusti
profit
Athen
ingress
artem
##30
La
satisfac
Ol
orare
Supra
Camp
##iderat
magnitudo
ordines
επ
##40
monasterii
scandalum
regula
ignomin
Hist
ioc
bonitatem
Exc
Parth
Ait
Mil
dedic
theodos
Hos
reform
abscondit
Lab
##eda
alieno
merces
continu
liquid
vect
erum
##otes
common
praesidio
##ricem
Eur
muros
##undam
agi
Ambrosius
interm
manuum
prodesse
muneribus
Adh
graec
terminos
##acul
peti
detin
ueritatis
venisse
notum
arbitrii
ung
abn
bonitatis
##illae
spiritualibus
##ως
Vt
##21
differentiam
cli
fru
Vale
decimum
imput
honorific
##ivis
tormenta
rectum
##itudini
##erno
argente
virgine
considerat
##onam
adesse
totaliter
officiis
Ioseph
iun
Del
##ivae
##averis
cognovit
Agn
quær
constitutus
determinat
frem
fideicomm
##ivimus
iusta
superior
conveniens
evad
##taxat
##itationem
valeat
Proinde
syllogism
uers
anx
confessio
dono
gradum
lamp
regulam
coelis
circums
destruct
tecta
significant
##47
vestig
permans
patrimon
##31
dumtaxat
proxima
hoste
inimic
perpetuo
circumf
graviter
loquar
fui
leo
gente
exitus
numeri
##itiarum
philosophum
heredem
Cypri
##vere
quilibet
consilii
gratul
scriptis
repraes
demonst
ros
subiecto
##acus
plebem
tollit
utrique
Frat
singulorum
animadvert
uia
loquor
lapide
definitione
regener
angelos
Brit
citius
Hæc
felix
instru
edoc
consule
Carthagin
##iel
##27
refect
viderunt
locupl
continentur
##98
LIB
alto
supplicium
victoriam
proponit
Urb
##38
altum
gravi
ceteros
##ymph
ostenderet
##arat
agat
onus
Sin
cuc
dens
##rad
ignorantia
tertius
ineff
fen
##esti
immedi
laed
Char
##eca
accedere
turr
terga
plenus
infideli
ET
custodiam
infirmitas
Nab
perfectionis
sepeli
derelinqu
Eo
juven
uert
##ebris
##iensis
constitutum
rid
acceper
definitio
quaelibet
stab
Const
Hujus
##60
sequatur
victus
summi
discess
vocis
accipiunt
singuli
serui
carnes
commov
Constantinopoli
Angelorum
Not
furor
missa
##41
crass
##uxerunt
afflig
pericula
##rast
abomin
amis
gestis
obd
##61
ducere
uxoris
##yt
divinitus
deficit
##ubi
quac
futuram
Nolite
recepit
Corp
indiget
sollemn
##auerunt
##28
secus
cognomin
remun
investig
##μα
impr
XXIV
tenebrarum
Pecc
familia
portam
septuaginta
praestat
spiritalis
##utt
##67
##το
infund
duxit
##entiarum
perfectam
Certe
mel
##tol
##68
voluc
Praec
soror
##ectos
iniquitate
Imp
Audi
Quarto
##icat
##odque
##edon
##aciam
capta
isdem
pontifex
Iudaeis
decess
beatitudinis
medicam
procedere
uolupt
##ectitur
detrim
Christianorum
constit
lass
conqu
liberat
Ann
metrop
providentia
uell
##48
##ulsus
##ivam
dignitas
horam
exclus
glorios
grave
maiora
##quamur
inhabit
suspens
procons
jur
cohib
plurimis
exemplis
##ren
scop
Dicendum
libertatis
repraesent
Mir
##verb
videat
singulas
pia
lumina
Ign
reddidit
quadr
Dix
##aea
##imentis
spar
intelligentia
negatio
infirmitatem
absolute
cornu
confiteri
statuit
plenitudo
##ecutus
uictor
afflict
Ast
Ecclesiæ
delectatio
amicitiae
fict
iung
##rato
quantitatem
religios
Pra
læ
##etate
mortuo
uirum
reversus
##etu
rup
penes
affic
instituit
obsecro
quodcumque
incl
##astis
Aristoteles
vc
inpos
Ib
cognita
urbs
##ymb
Socrates
impend
##97
regnavit
Pho
##idiam
trid
fluctus
Petr
uidit
votum
##ufrag
cultus
generi
operatione
servire
sociis
epistula
istorum
philosophia
certamine
##amina
praevaric
##ramus
habitare
auspic
Magist
##iculo
humilis
Lex
contentus
sorte
Patrum
##nimus
##idiae
vocantur
##IX
advert
dilex
socios
uxores
ου
##MA
matut
Cathol
extend
taed
progen
##iliam
spati
juste
artibus
sexus
resurrexit
rati
diis
dixisti
Unus
salutare
inducit
##ures
ullum
Pis
oppon
accepimus
Hel
##ectam
fundamentum
impetus
intrare
gratiarum
aduers
sarc
sacrae
inconveniens
Ceter
Vis
odit
##usus
videret
debes
aemul
bo
Na
dubi
naturale
judicia
deteri
numm
resurrectio
Namque
publicum
periculis
confessionem
abol
conscientiae
praedam
arbor
##ecerit
##ennium
iratus
exsequ
abys
XXVI
Augustinum
expr
conditione
defectum
Huius
susp
mons
artes
plenius
causarum
repper
exclam
omitt
##allo
tabernaculum
principiis
luminis
instituta
probare
aequaliter
mentibus
Quad
velis
transgress
##alog
pretios
Judæ
decor
consulem
diabolum
##ulisset
securus
humilitas
Propterea
appareat
qn
ingred
religio
ce
comment
annus
timet
furore
##NI
quendam
ostent
superbiae
provinciam
Britann
rhet
##ræ
auxili
##αλ
proi
unda
dedisti
mensibus
Gallic
societate
##ilias
paratus
concurr
ultimo
Samu
naufrag
##pa
videte
cath
cense
publicis
monasterium
concludit
Mon
vii
licentia
silentium
##encia
Oportet
mos
deberet
Verbi
praesidium
caelis
nimia
majorem
pertrans
Sit
Graecis
Noe
totidem
ferri
MV
pict
Etiam
fasc
poteris
commendat
Iup
accedit
cla
Boet
colore
appellant
sacerdotis
utilis
marg
papa
##osum
suæ
eram
opponitur
sequeretur
##antius
voluntati
Augustini
Iste
ge
##erare
utram
uniuers
consequi
Gali
##unquid
##irem
consiliis
dicet
appellat
ingenii
morbo
Vere
pub
##esp
##estus
equos
amicitiam
##issam
contingere
concilii
vultu
conloc
famam
terrenis
prædic
Sae
hil
adl
Italiae
naves
titulo
##ustr
iudicem
mira
ferme
cepit
corporali
##acis
perire
##undis
uener
fortes
societatem
Sive
##rupt
##abas
deorsum
exact
consenti
fecisset
veteri
abstulit
##acium
Maximianus
##mach
util
occisus
##imil
quaerunt
pingu
Adhuc
ho
calid
seruit
damnum
pugnam
fel
diuis
cultu
tangit
##onas
sanc
loquimur
desideria
feminae
Ptol
uet
##imet
##ivoc
Licet
##judic
legatis
seipso
##ibunt
sci
condita
##lex
##itiæ
praeda
Pall
##udo
vestimenta
integra
arat
##ueretur
Secunda
##idius
dicerent
##iliae
regr
uoce
90
dicantur
incomm
condidit
magistri
paradiso
##entiæ
feroc
aperta
fontem
indivis
ueritatem
qualitate
inquiet
electi
insidiis
importat
animalis
Eum
ueritas
novem
psalmi
Ba
superfic
##abilius
##uerent
tristis
loquendo
introduc
conpar
facerent
maioribus
regionem
audiens
rom
##icitur
##idens
contex
##uss
##esper
agimus
decimo
vestras
mentionem
##omach
XXV
Manifestum
sedit
audiunt
creavit
inveni
Crass
tendit
nerv
##uent
VERS
lasc
##erendum
contigit
fueris
constr
ligna
Alexandr
so
XXVIII
Marcus
Assyri
effect
ostendens
diligentia
venerat
litig
muliere
historia
Noli
plang
Scyth
Alt
communionem
theolog
lacrimis
superbi
confite
tumultu
chr
ascens
εν
Inn
epistolae
Justinianus
quiesc
universum
equis
relicta
paululum
paru
consulatum
harum
sanctitatis
aequo
nobilis
caelestia
carcere
##quebantur
acceperunt
opem
commis
##IT
##utam
##abitis
utuntur
apostolo
psall
unumquodque
eunt
##utes
accommod
opibus
vocibus
mandatis
loquens
visio
scandali
industria
##ερ
##rax
##ave
stipend
##adius
vultis
vana
prodig
vituper
##ecr
medicus
confitetur
amen
copias
videntes
considerare
##mata
##icia
sumps
supplicia
uoluntate
pane
##yrum
##EL
invol
deleg
restat
##anem
festiv
Sacerd
fuere
istae
##dis
impud
Flav
Judic
##uria
dissens
fiduciam
Gab
semet
prophetia
##RO
occasio
trin
tep
insequ
##omet
fecund
praeval
gal
exire
##uero
Paul
dimis
appetit
haereticos
Liber
scripsi
##aberis
##peret
interea
merid
hymn
##inorum
cognitionis
separata
fraude
vitæ
delicta
argument
ra
quaeris
equo
praeu
designatur
##auerit
tuarum
##ovit
dederunt
releg
cognoscat
uniusc
quinto
tellus
defendere
ministerio
Hac
seg
amicorum
Diabolus
##eratis
##iniano
##ellit
cuiquam
milibus
falso
Joannem
nutri
##odom
morti
Da
actionis
faciebat
essentiae
humanitatis
virginis
audivi
##iante
Scipio
##pis
##ellarum
futurae
metum
indicat
##issae
abj
nullatenus
Exs
archiepiscop
impiorum
adventus
Multa
##ucti
flect
doctores
meliora
porrig
mortali
anathema
set
inse
dicetur
temporalia
origo
uiam
αυτ
##ectura
##erti
redditur
familias
fortunam
Oce
commor
redig
circumc
incommut
##itr
Anno
murmur
desuper
martyres
Quot
habuerunt
intelligatur
Nulla
Unum
instar
congru
δε
laboribus
reprehens
prospic
scelere
Aegyptum
cupiditate
Nullus
facite
robor
seduc
nex
terg
loquendi
pauperum
Latine
iuli
vap
majus
obseru
exitum
amico
uiro
futurorum
templa
##itarum
testimoniis
bonitate
quoties
allelu
Theodosius
dilexit
##eremur
Constantinopolit
adp
malitiam
Ha
Vest
peperit
##entr
coeper
opprob
Aliqu
superest
loquuntur
criminis
##32
partus
flex
putet
hib
felicitas
Daniel
##aeis
##ibiliter
exort
dicentis
praesentibus
clamat
praedictis
##itans
expell
reum
verae
confort
praesentiam
opinor
Plato
typ
##55
visione
CH
matri
inimicum
possessio
##vo
faciamus
sancte
inflam
##uctum
malam
nominatur
##iform
motibus
peccatoribus
dato
agentis
##ειν
ci
ignorat
sufficere
Hum
inspic
spiritualiter
posterius
magistratus
comparatur
TH
Pil
conson
acceperit
##ponius
uidere
angelum
oportebat
perdidit
charissimi
regnat
communia
abstr
scis
##issimorum
opinione
invidiam
saxa
##ebitis
factae
Beda
##acius
exprob
caede
sexta
obsequium
utramque
spatia
intelligentiam
spirituali
Loc
App
crimin
reliqui
uirtutis
Orient
Men
errores
magistrat
Levit
cornua
avaritia
intem
##issione
Hier
antiqui
Sid
af
civibus
nascuntur
ebriet
Tit
gaudet
radice
familiae
##essi
##iterunt
fluminis
##ebimus
poterunt
civitatibus
familiar
proelium
Rhod
utris
segn
Diocletianus
interitum
cuiusque
accidentia
deriv
Bern
pie
nolo
inferior
plaga
dein
reverentia
Cicer
cass
carnalis
praedix
convinc
Pop
aev
##avere
##illos
surrexit
##ebri
sensitiv
duci
commemorat
amput
oritur
infelix
acceptum
Apud
alieni
operationes
fugere
uirtutem
Corneli
diversitas
diversae
sententias
injuriam
Iuppiter
Leo
gessit
##da
suus
scribitur
iisdem
veris
confestim
aurea
XXVII
Mariae
adiuv
utilitas
quiddam
orationes
altius
Beati
extrinsecus
longinqu
aestu
virgines
frequent
lapidibus
egress
ignes
marm
Epic
priu
aperuit
inimicorum
Multi
quemdam
terrest
proteg
possidere
##imen
##iacon
exag
uerbo
##ait
regina
praedictum
strep
mortalis
nomini
indicium
haereticis
Has
##hryg
notandum
damna
pede
rationi
clementia
viscera
dereliqu
promittit
Psalmo
Vulg
Christianus
urbi
divinitatem
AD
##ricis
quing
sparg
##veh
dicto
sceleris
oblitus
argu
Medi
diuers
poni
##aremus
##ulisti
sedet
inventus
puero
transmut
Voc
##raph
Utrum
requirit
reuoc
theat
Trans
##ulat
divitiis
vinculis
portae
deprehend
tribunus
puella
exar
quanti
generibus
Laz
pius
##ienses
diligentius
##ectae
superven
ortum
efficit
comparationem
euangel
##ulsa
prolix
denuo
pugnae
intercess
bi
dedec
sperare
origine
exercituum
##39
##amentis
##asit
vidimus
narrat
catholicam
matrimonio
Gra
her
το
conatus
timoris
inveniuntur
incorpore
refrig
summis
quietem
viderit
Christianos
confessus
martyris
Baptismum
judex
pueris
CL
Quæ
psalmus
erubesc
utrisque
##xx
percussit
Du
magistrum
vice
##utos
invent
sexto
##TIO
monachorum
robur
##istit
Quidquid
uiuere
tenent
Poss
ει
priore
monet
inscript
##IL
contag
acquis
tantus
vivunt
incol
dixerim
creatus
monachi
Persarum
linea
Syn
##tera
parentis
habetis
facienda
##nm
carmina
uniuer
obtulit
fini
sempiternum
Rub
videbantur
interpell
##ificat
mensur
antiquis
prudentiam
cupiditas
##itisse
maximo
artus
praetere
ping
##erae
comb
licentiam
Christianis
hercle
Laced
fortitudinem
honestum
contulit
amant
##ernum
argento
praedicare
SY
detract
peditum
movere
pietatem
---
xi
colloqu
Galil
significare
discut
equi
molli
##34
prisc
Prisc
civis
fisc
##ensibus
##eretis
imagines
radix
nationes
##ilum
servorum
Prob
heredes
Mod
genitus
##ineant
##astas
immediate
postulat
egred
##oram
plate
patiuntur
maneat
dolores
gladius
retinere
Septuaginta
XXXIII
quaesumus
irration
facili
vivo
lucern
originale
viii
sublev
audita
mortalium
diuer
coeperit
sanitatem
##unctus
gaudere
robust
Me
##ede
repent
vincula
assumpsit
sacrificia
##los
##dom
intest
fierent
Arab
Lucas
##cem
reuer
intulit
libero
insan
mulierum
##onii
contenti
interpos
Pros
necessitatis
negotiis
trahit
##cs
segreg
novam
virga
Mort
AU
Syri
coss
##osi
##ertum
generaliter
impetum
##edum
##acl
##andiu
certis
pall
movens
virginem
abundantia
cibi
oportuit
offerre
Sodom
vocari
Apostolum
accepto
remanet
Can
credat
curia
conversus
cogitationibus
cing
maria
conuers
Dex
imperatore
rett
supplicio
quom
credentium
flumine
Trinitas
Propheta
agente
##pecta
perfecti
corporaliter
##51
redund
fecimus
profundum
beneficiis
holocaust
Quir
impress
max
petra
plurimos
nolunt
pertineat
##uiter
Scrib
discipulus
misericors
iniquitates
Lege
imitari
Africam
respondens
uiol
proj
processit
navis
Py
##dictum
opul
potestates
salt
omnim
##met
##ident
obtem
jussit
facultas
resistere
cave
sextum
impetr
inferioribus
Lacedaem
##estum
##ολ
##epi
##ixa
provincias
Aem
positis
spiritualem
Capitoli
grammat
xii
curae
Pascha
varia
oboed
solius
medicina
did
##36
infelic
inper
Una
dilectissimi
cogitatio
deest
Apostolo
Dat
rug
##TO
deser
excog
discept
convoc
##orii
##aeos
pestil
##88
profund
facimus
age
putes
dilat
veterum
torp
fontes
veste
vestros
inmort
tribulatione
Antonius
idololat
habentem
justorum
prand
creatoris
clamore
desideriis
##70
capi
sacramentis
ueritate
lunae
credi
Augusti
augm
sabbati
Innoc
Aene
Mem
arrog
conferre
deserta
accidere
Iohannes
tempestate
relatio
Fuit
superiori
##inxit
aliarum
positi
caret
audiat
Merc
##uem
prosc
contest
##ivo
##essa
ecclesiis
nover
capti
Venit
##AM
atroc
Galat
semetipso
Opt
agr
incertum
lanc
##iol
##cit
##pexit
praeven
nocere
ministri
##rauit
inventa
relictis
compositum
Cod
##99
##uitas
subter
divites
##actu
sexaginta
Eodem
cos
All
praetorio
sinus
abdic
orta
possim
inca
naturalibus
audite
sacerdotem
Tusc
XXXII
dispositio
##acu
relax
##inio
##decim
exeunt
latet
foedus
##non
sententiis
custodire
fundum
Aquil
##50
Graecorum
uoluntatem
recognosc
pale
captus
cell
vil
##sibus
dej
nee
apprehens
##ulem
conuert
impedit
sonat
Samn
tort
##abilium
dices
plor
caelestium
Beatus
vicem
quies
incumb
multitudinis
sacro
referri
##escens
arca
gemm
Iud
gurg
##OD
universali
baptizati
##ρα
pereunt
##ucis
praedicatione
cibos
Leonis
ago
operationis
futurus
Tertia
##isus
dioc
audeat
teste
honoribus
cognoscimus
##ungi
Mess
secundae
diffin
assignat
totis
inquin
clamor
constituti
ari
juc
##aui
impius
Plac
mam
tis
urbibus
uide
uideri
erog
intellegitur
oppido
##inx
feceris
Sicilia
dextris
medit
visionem
qualitas
##22
liceret
dimittere
contemplatione
tan
prodit
assimil
meritorum
Nost
municip
legere
ignob
equus
adsid
sacros
marit
Origenes
##entii
##ebamus
trunc
inced
turpe
plurimi
muneris
##ativum
horre
Saepe
##iscere
prophetiae
Angelos
patiens
universaliter
dimisit
salva
##inia
quodque
ager
regionibus
pericl
navibus
nubibus
Constantinus
##yrrh
(?
##otam
attin
CC
agris
undis
audacia
altitudinem
Hilarius
fluctibus
inob
legatus
maximam
quaestione
iiii
estote
diaconus
quacumque
##44
Graecos
Valentinianus
potent
naturas
aure
conveniat
historiam
##ecisse
patiatur
inquiunt
Os
superiora
ullam
panes
paenitentiam
Caus
##71
priores
##opere
excess
nominat
sonus
proelia
ax
cale
proximus
alac
senes
benedictionem
praescript
exequ
##itiorum
##rices
Aus
##ostas
miserum
decreta
Donat
detr
dabitur
digni
aequum
nesciunt
Caesari
Interea
differentiae
##ubus
donis
solvere
##itant
##enorum
servitutem
##uu
libere
impro
meliorem
scandaliz
##inius
superv
rediit
Lev
##set
uocem
gemitus
indignum
pudor
gentilium
speciebus
dial
fu
percept
pedem
alleg
decretum
LIBER
naturales
iudicare
diligunt
pauperem
corporalibus
vulgo
Ner
prioris
suspir
augmentum
negotia
presbyteri
desertum
obtemper
Nesc
xiv
##vum
sumere
appellatione
coha
comme
minimum
excedit
traditur
fructibus
lucrum
Iovis
Rursus
forum
exit
praestant
clara
confirmat
meretur
##gnum
accend
patrocin
##ative
Tamen
maiorum
##icul
idola
superiores
Sciendum
linguis
Gaud
της
effectu
mirabilia
talium
Patres
otium
lacte
Fel
litora
sacerdotium
tabulas
##erendo
loquatur
famem
lacrymis
EP
Eup
Mich
extendit
requie
copiam
accepisse
Legis
Pompeius
responsio
##ns
##uni
passionibus
fames
Sto
inopia
##etes
resusc
dilectus
voluerunt
accipiens
intellegere
neb
mutatio
##80
##ilig
minores
dedisse
stren
Accip
Herm
tog
##ba
marito
adin
##istas
agmine
praedicat
subjecto
Veritas
legat
quotid
loqueretur
aurem
baptismo
profectum
Ioannes
Ceterum
##οσ
inaequ
indi
uideatur
sufficiat
condicio
crucifixus
mortua
inferiores
luxuria
##inctum
consumpt
intravit
Respond
apprehend
pura
aliquas
fortitudine
praedicatores
##untiat
incogn
##ianos
calor
thalam
Aliud
##iperent
Saturn
centes
inferre
locuti
poenis
##ativam
reuel
suscit
uestrae
Judaeos
antiqua
intelligimus
montium
crat
pse
##SI
qualia
Inv
constring
armorum
prudentiae
argumenta
Eb
Faust
jan
lus
erimus
oculo
xxv
Eg
Lyc
pridem
veritati
miraculum
Rog
pep
dicemus
parens
infus
supradict
ostendat
concupiscentiam
##uth
credentibus
mathem
substantias
finit
Ose
filias
sollicitudine
Civ
perinde
impiis
diversitatem
permittit
Jos
των
novae
Scripturas
divinitas
sequens
invenimus
notitia
iugum
sentiunt
videant
delectationem
proportion
##imorum
##illas
apostolicam
universo
cupit
dirip
Isaias
jubet
##66
##eric
##itionum
incont
Alc
Thom
##minibus
colla
subjectum
##ecerat
##itatu
quemque
ponuntur
sequenti
tradita
##atui
credatur
quantitas
ruina
Fili
dentes
scientes
operi
##emplo
diluv
sæ
dulce
justa
far
vesc
acceperat
regionis
perdere
pastores
duplici
majestatis
Jac
Ta
pi
tergo
alterut
damnatus
lectione
occulte
ubicumque
diutur
Symmach
##aturi
Anastas
magistro
historiae
Oper
pares
participes
benedictus
Vita
eri
melle
mulieribus
##ace
sedere
ageret
ceciderunt
Mediol
Laur
##ET
paratum
sapere
uestris
aegrot
escam
scripturarum
consideratione
##ennae
eae
##adio
Consequ
repreh
universale
voluptatem
##idisti
eras
recuper
credamus
delictum
assert
Form
##iris
permisit
easdem
Ista
remuner
##ector
##urit
##ulf
teneatur
ponam
Cret
litt
##ελ
##oniis
decur
auras
cunctos
reliquum
relinquitur
Chalcedon
ductus
doctor
equum
tabulis
singularis
daemones
pignus
seqq
mutare
dimens
vulnus
distinctio
Octav
Duo
immod
superioris
##idet
##alon
discrep
##positio
Phryg
trop
imagine
Ipsi
agnoscere
Philippus
quamlibet
philosophiae
##crut
grande
Dol
agmen
mediis
rectam
temporalis
Armen
concupiscentiae
convertit
synodum
Aeth
heu
arrip
crem
superiore
philosophorum
AN
crescit
portum
concordia
habentur
digne
Babylonis
sumpsit
ignibus
salutaris
spiritualia
##incta
nobiles
penetr
##ulare
teneat
caelesti
adfirm
exhibere
dc
erem
praecedit
carnalibus
dicturus
synodi
vindictam
Cy
corruptio
conditionem
moram
minister
noctibus
obviam
##iuitas
dant
ferat
ventum
##umentis
exsurg
beato
caer
arbores
imbec
itineris
mathemat
auditum
gratum
Long
aera
undec
singulari
uoluntas
district
absum
obr
meriti
##81
veraciter
serpens
humanitas
perfectione
fundamenta
recipi
perficitur
Esau
95
dicebatur
commissa
octog
Epiph
termino
proprietatem
Chald
sociorum
undas
##etae
idolis
invad
##chis
uxori
coelestia
meminit
##oras
agmina
dominicae
humiliter
negant
iuste
Sull
securi
veniret
imperat
cogita
iussu
laeta
suscipit
cadaver
auferre
voluptas
consulto
##erenda
##ulsi
##unctis
adfl
mitig
Bon
##plum
constet
septimum
Gallia
Iulianus
Jer
QU
xvi
carb
saluti
Ms
##ebor
incurr
fortuit
valere
consistere
designat
papae
Sine
##iculis
##rior
immun
vicit
iniust
Vn
patienter
desit
Ioan
consecutus
Ele
conuer
libet
praefecto
Sard
voto
diuinae
##ituri
praedicari
litore
Daemones
##iquam
intrinsecus
sacrum
##odox
appellantur
electorum
composita
Syracus
##?)
##erni
principali
cuiuslibet
praemissis
occidi
convertitur
contumeliam
Severus
Ec
cith
iul
##eget
obstr
praedicationem
nemini
proficit
Pun
prioribus
interesse
labia
custodit
campo
videbitur
ix
imperia
definitionem
flagit
occulto
significet
prudens
desol
caelestibus
omnipotentis
victoriae
Testamenti
insepar
##erer
mortific
ducibus
statuta
proprii
idolorum
haes
evoc
moventur
subjac
puellae
senem
dispositione
habeatur
oporteret
palp
Benedictus
quanquam
custos
##ped
##ecuti
petram
##averant
terrore
dulcis
##orat
##ους
Verg
quousque
ope
accipe
destitut
vocabulum
##nos
imprim
bellis
optima
quaestiones
simulacra
rebell
Coll
unitatis
parat
dominis
auris
conval
flammis
Jord
##ilit
libido
superiorem
volebat
regnare
monachus
Evangelista
##iantes
persecutionem
Epistola
pres
##ectionis
criminibus
divisionem
Ah
incess
electus
comprehens
propositio
Habet
Var
την
intuit
orth
principatum
asserit
Cogn
vae
##uitatem
##udi
ordinantur
rationale
clarific
strag
quandoquidem
custodi
cibis
inuis
comitem
recessit
Hierem
desiderant
oppida
##icio
stella
discere
vivendi
proferre
infirmitatis
maritus
astra
concordiam
Sul
fortitudinis
calore
##ERO
possessione
audierunt
##orb
repos
videndum
Chil
##enso
##uerimus
superna
genu
praecess
efficere
secreto
quaecun
praepon
##ivus
laudare
reliquias
bibit
AUG
jura
##untia
aliunde
intim
##ustum
arct
decer
sapientem
##erebantur
##οις
##edo
perenn
spel
passi
attenditur
Boetius
##VM
##ubstant
discipulorum
possidet
iuvenis
frumentum
Elis
consangu
proposita
corporalem
canticum
##raim
mensam
spern
ou
##33
##abar
parere
##uctis
debeamus
credis
flux
remot
frond
##etibus
Sentencia
ignorantiam
caeteri
insult
fortius
pertim
alloqu
describitur
speciali
regul
visu
Isid
sustinet
evidenter
sibimet
cathed
##75
exigit
divisio
Tra
Vinc
##olas
##erisque
quinta
uox
testific
sepulcro
requiesc
principi
plenam
Bacch
cen
##ueritis
debeo
istuc
creaturas
potum
contendit
incerta
benevol
latius
flagell
Ioannem
Oratio
dio
##icarum
apr
qualitatem
crucifig
(??)
##uant
Deest
##inea
stomach
dispar
clericis
contamin
audientes
humanitatem
luxuriae
inflamm
##esi
exin
interven
scribens
synodus
adire
effl
ingem
recto
devotione
Pam
##elae
##acc
recit
servat
referuntur
Augustus
casum
tollitur
Notandum
rc
impium
##iosius
calicem
praeterita
compend
tristitiam
nititur
AR
inanis
suspend
disp
Resp
##ehem
pisces
iucund
diocl
jung
##minis
##eratus
##aram
##acter
operatus
proprias
pueros
sollicitudinem
Naz
geh
##ran
eiusmodi
regiones
egest
spiritui
sinistra
Ejus
Eadem
Nota
tib
priorem
creator
substantiis
plebs
concessa
##inium
moderat
spirituales
onera
ratiocin
uim
##iop
metaph
##OL
spha
creatum
Olymp
##42
##irca
cadunt
venturum
pernici
##eci
##ole
maximus
plerisque
solebat
Postea
Baptismus
vitare
Asia
quaesitum
venerabilis
murum
##episse
##iensium
arguit
remedia
tribuni
##iuss
amisit
carni
Primus
soci
membrum
veterem
Fur
medius
ministros
corruptionem
aspera
inb
deesse
ortu
posteaquam
auxilia
Caeterum
##10
adquir
scias
construct
precor
ciuitatis
Dil
fod
facientes
seren
inferius
essemus
datis
##sae
##issemus
patric
vocatus
labiis
spectat
inferiora
pelag
##alla
malitiae
possem
generum
iudicis
scripturis
odorem
##incti
quaeruntur
magnitudinis
##allum
nuptiis
--
Cato
Felix
verius
secretum
##isa
##iderant
110
futuris
lepr
Papinianus
muc
reip
nosti
divitiae
crede
confessionis
deliciis
##rev
auctoritatis
salvum
ciuitatem
bestiae
Lae
##osis
relicto
retract
arbore
permanet
lacrimas
quodlibet
##ictorum
certus
laudat
mutatur
Baptismo
Philip
tram
propositionem
sepulcrum
Victor
##iudic
Ae
Mihi
geli
anhel
commerc
##ribitur
implet
dissolv
laetitiam
conditio
XXXI
hypostas
esses
Eccl
læt
cx
fores
dicenda
aput
arcam
mercede
ritu
##uuntur
##ertis
humiles
curis
famae
Marcellus
fom
##des
propius
uiribus
furtum
canis
tuæ
Ext
convenienter
bibere
veniale
Fid
elic
##istam
carere
effici
oblivisc
gutt
##96
minima
scelera
appellari
consequuntur
amnis
##46
##upit
grata
calce
captiu
feliciter
tom
divitiarum
falsis
levis
socii
finita
sollicitus
aerum
evenit
##etatem
habeas
uidentur
ignorare
inlust
libidinis
Edit
##imod
obli
urbium
octavo
mittitur
Nunquid
##idisset
##itte
judicare
famul
equorum
mariti
lectio
capitulo
Verumtamen
elementis
otio
Cas
subiac
albus
minori
mensa
extermin
trucid
evangeliz
fenest
##mi
novis
aequales
vulnere
intemper
vade
sanitas
vocati
vacuum
concessit
sequentibus
aequalem
requies
victum
moech
Magna
spelunc
principatus
vom
inuit
vidisset
conculc
licere
interpretatio
obtinere
daemonum
obstin
sciebat
colorem
generali
subiecta
provinciis
parvulis
incarnationis
Bib
##DI
##arist
pre
##aturam
portare
altaris
reddat
beatae
uestrum
apta
affirmatio
Philist
MVLC
##oniorum
##ibat
totiens
conversatione
simplici
hortatur
Mach
τα
##92
trab
##ianam
##ernis
lumb
servitutis
velint
celeriter
fero
##sio
monstrat
petiit
exercere
flagr
coelestibus
Pomponius
##acio
abest
interdict
nominum
immacul
callid
explan
ubert
Cain
fateor
Pythag
CCC
##odonos
facilis
vultum
instrumentum
##cemodi
comit
noluerunt
Immo
robore
Semper
gratuit
Absit
##endens
##uncti
intelligat
vivens
probatum
errare
peccatoris
hodi
##ires
praeiudic
ambulare
permanere
lar
aditus
sciunt
##eptis
##uncto
Ecclesiis
judices
Augusto
Dicat
firmamentum
vocabulo
Mand
Tam
sali
aspectu
insulam
munda
arce
reverentiam
Nabuch
Bonum
uas
##erati
##umen
dehinc
audistis
ducitur
uidelicet
sufficienter
Divin
##77
audivimus
praesente
Ecclesiarum
ultimus
salvus
accepi
consortium
Fal
Lan
macula
κα
##στ
ingreditur
legionibus
navem
contingat
uirtutum
sauc
IIII
##85
##org
##endarum
justo
innocens
sabbato
primitus
peto
Marcell
ictu
Coel
runt
##iciam
##ilianus
lis
##AS
appos
promulg
ecclesias
##errima
captivitatem
consortio
##EC
##este
simplices
jejunium
##terr
praedicatio
iusto
Evang
Christianae
Agrip
pab
squ
##liter
##pi
initia
venenum
phys
coelos
noctes
gregem
Aureli
exordio
auditus
tenebat
fideiuss
militem
vivat
figurae
##utas
corusc
##assis
dederat
universam
oriente
provis
redi
carnaliter
mansuet
exstitit
corrumpitur
exquir
stellae
sero
malae
intelligentiae
quantitate
Venus
luctus
##pol
animæ
canes
SAL
##omed
conm
uniuersa
plenitudinem
accident
baptisma
dubitare
Moses
grem
##tae
advenit
##obrem
volentes
accipimus
effig
missis
Quaedam
firma
hereditas
electio
##uz
novimus
placeat
nescire
gestum
Silv
uan
deserv
judicis
summae
uestri
quadring
cadere
constantia
adulterium
coepiscop
rhetor
peccavit
virtuti
facturum
Ecclesiast
indulgentiam
liv
continentia
product
mole
classem
Tolet
animorum
profug
chart
nube
videris
interior
crederet
universae
##lumin
Horum
debito
domibus
obtr
innocentiae
stad
mul
vestem
permut
privatio
sponsa
Dis
lucri
tradere
majora
dabat
gressus
sciret
fors
ornamenta
stirpe
cedere
æqu
sedibus
parti
remota
leu
quaerimus
coniur
tollere
sponsus
nativitatis
soluta
mediam
ponunt
quorumdam
profecti
negoti
honesta
Judas
spolia
lan
judicem
mulieri
sepultus
mortalibus
anteced
ima
maioris
pactum
alienus
Mariam
orator
synagog
Syriae
Quanto
malefic
praebuit
rescript
Tullius
cort
παρ
##abund
##ilibet
posterum
viventium
seniores
contineri
denunti
aaa
periculi
Quisquis
sororem
morietur
Magister
sig
quaeri
edidit
diffund
alienae
mysterio
surrex
prava
opposita
dam
librorum
uidet
quadrages
pulchra
##odonosor
cis
consuet
##esceret
Perse
mentio
clerici
Eccle
fluvium
Apocal
cardin
Mox
lata
taliter
##lioth
palud
coelesti
Ful
Mus
utilitate
##ebuntur
##ovi
scribis
fraudem
pontificis
Demet
tuba
nom
videtis
##ulimus
venientes
occasum
Cam
uentur
Scio
noverat
triplex
##cos
sacrat
auditis
brevis
inuicem
hebdom
Consequenter
spum
dominica
noctu
particeps
Gaius
pas
##idii
fugiens
nouit
protulit
cotid
Comment
tueri
uent
##mate
cels
ordinata
moveatur
Coloss
gale
niv
##fr
quietis
potu
##obo
domui
Maj
vellent
splendor
##urat
audio
additur
opiniones
Liby
eloquia
rupt
##ευ
adpet
comites
capiti
pau
extemplo
codices
##mae
crediderit
accipiet
Latini
dispositionem
metropolit
##ien
aedes
distinctionem
manducare
declarat
Vnde
##corum
oculum
mig
##abimur
damno
sortem
venturus
præter
salvos
nudus
let
sod
insist
eleph
medull
laudatur
cuncti
lavac
##propter
exi
coen
subvert
laetus
consensum
possib
significationem
##allis
tenebros
sempiterna
suggest
Muli
volat
retr
CXXX
minoris
impia
donavit
Videte
Us
gentiles
##itioni
##arer
audiant
testibus
coniunx
ariet
##EG
solitudine
summus
diversum
raro
activa
tenentur
speculum
retrah
portis
Iudaeos
Legem
abstinere
Moral
Dim
tes
##uin
##script
coniung
citra
pœnit
Had
generatur
merg
familiaris
electionem
Alexandri
revera
perhibetur
##oso
##alus
incidit
##entias
fluctu
conspectum
miserunt
Scriptum
casibus
maiestatis
pann
obliqu
Prot
Scr
diluc
innocentia
exceptis
haeresis
adstr
##part
flore
cognosci
lapsus
herba
alleluia
datam
##atii
nihilum
reme
105
ruinam
transtulit
##quae
ancilla
Zen
##elas
##otem
praeex
principalis
##uosa
##ublicae
liberari
monachis
Salomonis
Mass
ite
natos
##itato
erroribus
Omnipot
Hebraeos
servitute
##11
##iosam
vincere
##agoga
stultus
intellectualis
cognovi
aura
periit
Quinct
facturus
sentiat
Nica
uast
curv
creatorem
mandavit
missum
extremo
Ios
Sign
attoll
##rimque
aves
abstrah
fastig
##ins
Gracch
portus
Hispan
Vae
ventis
δι
partum
praedicantur
muris
immerito
auctoribus
quindecim
abh
Sapientia
Seneca
dentibus
potentes
mad
interdictum
appellatus
descendere
ascendere
tardius
Nabuchodonosor
.-
Rel
lectum
##ymn
amoen
ponatur
Bernardus
Dilig
manens
aguntur
habitant
coqu
tracta
istas
auctoris
distat
subjecta
Respondit
incendio
alimenta
uelle
##CO
##irentur
##inemus
collo
mendacio
##hum
##ucere
##entiant
cognoscunt
furorem
aestus
felicitatem
elementorum
orthodox
Recte
curas
misere
dispend
tumultus
Idcirco
stultitia
ratus
sonum
##urrat
dixeris
carnali
restituere
distinguuntur
juris
repon
ambula
beatam
angelo
baptizatus
ventre
transeat
Claudius
Hor
##alo
contrariis
castitatis
equitibus
aperit
mou
utrimque
plene
promissionis
XC
quor
##iciunt
quapropter
minora
Verbo
pudore
tempestas
Rab
##uca
parem
carmen
##ulisper
praesentium
alienam
restitui
sepulchr
pectoris
ecclesiastica
tetig
nor
votis
##utibus
##itationis
patientiae
minore
arborum
referatur
indiff
evert
mass
miseria
delectatione
Gloria
amplect
incommod
date
##onias
inept
##etsi
dominium
iudicat
noua
agnus
augur
scelerum
Sane
αλ
##adisi
oblata
commodum
invisibilis
Cle
contentio
intelligunt
septentr
Amp
nouum
promissum
defuncti
gerit
sedens
modos
aperire
admonet
incontin
coactus
imman
Scaev
mitti
Gregorii
obscura
obsidione
Antichristi
canc
iuram
nuda
##nes
##dr
audisset
##dicta
Prius
necessariis
aeterni
spiritali
Tyri
misi
concessum
justos
corruptione
mansit
institutum
##idiacon
pudet
exordium
mitis
uitia
vento
##vero
infirma
majores
Joanne
##numquam
folia
CON
doli
rost
120
##athan
arcem
sorores
angustias
tactus
##ται
diuersa
Quoc
crescere
operantur
abbatis
##enna
##endorum
significatione
diffus
diverso
absolv
Ephraim
supers
quantitatis
iussus
purpura
##entissimus
stellarum
possibilis
duarum
inveniatur
valetud
oliv
ritus
venti
maer
actuum
mutata
criminum
innocentem
Ægypt
##itul
nocet
singulariter
certamina
Elias
Offic
##ulch
unanim
sita
situm
existimo
solidum
nobili
ossibus
poeta
tabernaculo
priora
praesentes
altari
sustinuit
Alius
profundo
classis
crebro
Francorum
##istarum
incub
##uxerat
cuiusdam
ardore
hospit
ictus
hec
##ST
aliquanto
venientem
suscepta
significari
caecus
vulgus
potus
Apostolorum
relinquere
Lc
implevit
deport
Hispaniae
prouid
prospera
repugnat
videbunt
probari
damnationem
Pon
pes
##ribere
creati
uires
haur
cogitationum
Iord
parvo
Hannibal
faucibus
amo
incons
iudiciis
solummodo
feminis
converti
benedictione
strid
remissio
dubitationem
tripliciter
dialect
febr
##94
##σι
scitis
parati
plect
furoris
lacess
multiplex
campos
contemps
Ra
##atarum
deprim
posito
terre
##erto
quantus
Graecia
##ultum
Adae
sequentes
proximis
vertice
tormentis
χαι
Dign
Euch
secuta
intelliguntur
passionum
procedunt
somnum
presbyterum
contemnere
dotem
vectig
imprud
deven
##esto
abire
seminis
imple
maritum
eloquentiae
##yro
pridie
coloris
##iantibus
rogat
greges
impietatis
incorpor
reson
artifex
praecipitur
duodec
Host
απο
ostendi
praesent
perpetr
proficere
Veneris
sumptus
desinit
lint
nequam
fecistis
accipiatur
doloribus
cruciat
carcerem
Illyr
aen
##usit
inprob
aduen
naturis
relin
parvuli
ciuitas
menda
##rific
sanctitate
codice
sors
Ten
sinum
##odum
constitutis
ciuitate
uv
volui
quantam
miraculis
##ativae
Febr
adc
mutuo
denomin
lector
meminisse
ceu
##26
Quar
apost
genua
notis
atting
inimica
claritate
procedat
germin
obtinuit
discrimen
ingressi
quiete
levi
agno
spero
divisa
tangere
boves
##τη
priori
reuert
##aturos
inspect
lau
Surg
Susc
##stis
##iloqu
unicum
decl
paulisper
vivum
edicto
attinet
bid
##ρω
interiorem
amator
numen
instit
dolet
Arb
epistulam
restituit
##TIS
confusione
aes
illarum
importun
ecclesiarum
Antiph
praecepti
##ONI
quartam
conceptus
praetermitt
Varro
agentes
misera
instaur
marc
recipiunt
perpetuam
multipliciter
Licin
fato
pecus
gloriatur
militia
aegre
sacramentorum
debetis
flagella
frigus
Magnus
tetigit
PRI
##verem
regiam
vitis
##uxerit
carnales
intelligens
sensibilis
diabol
bestia
dor
perempt
sanctitas
fortem
sensuum
Asiam
astut
Origenis
Cornelius
##hac
##ulph
causatur
furt
delectat
foliis
Theophyl
sata
quodsi
aras
##ifera
felicitate
dubitatione
exprimitur
Hort
##imb
memini
infirmus
Quadrag
Deb
subinde
possitis
carmine
commixt
numeris
miseris
permis
##aneum
arcus
paterna
consensus
με
dea
sciant
asse
constare
feras
forn
innov
sperat
Simul
Lep
bab
τον
##ursu
posui
flos
##XXX
proprietate
currit
eth
pateretur
sanctitatem
mediante
frui
provinciarum
ventura
##eratum
utatur
annunti
intellecta
##ixus
Romanam
Matthaeus
creaturarum
PH
aerem
##raverunt
##ianorum
111
obedientia
consuevit
prostern
Theophylactus
symb
pereat
parce
vestibus
Gratia
Homin
objic
peccandi
##ograph
vivi
Theb
claritas
inhon
temporalibus
mss
noll
inlumin
Maximus
claritatem
aduersum
Theodor
German
Doct
Hipp
inferos
forti
continens
##ennio
proprietates
moenibus
Phoeb
Mont
insulae
liberavit
graves
plebi
electione
describit
Equ
Ge
oro
##aeter
##exa
praeceps
maximis
existere
noui
epistolis
conversi
feminam
nuptiarum
splendore
##etam
##aculorum
scept
propugn
dicite
regit
concret
gradibus
heredit
crast
currus
gloriosa
sensibilibus
emitt
titulum
##ose
remis
##iensi
oblect
innocentiam
nonnulla
Anima
daretur
feb
ventus
vidisse
refut
radices
thesauri
superf
acer
decorem
enunti
Virgine
deliqu
tric
defuit
iniqui
suscipi
XXXV
faciendo
singulare
subscript
jun
##oler
exitium
consulis
infert
multam
vestis
poenarum
liberorum
cessat
euangelium
sinistram
Mer
Vox
##uitatis
excut
pertulit
character
Moab
libidine
eritis
plum
animabus
##olim
apparere
voluptate
pascha
Europ
durum
##87
acciperet
invenies
oderunt
nolle
obiecta
Aequ
Nept
utilitatis
subire
innox
vindicare
uiui
societas
libidinem
derog
voluisse
rector
proprietas
##ederunt
scind
obumb
equest
lacus
praetex
Clem
lunam
jugiter
Lent
##adoc
##atiz
credas
ignav
domic
uiros
diversitate
varietate
##MMA
perscrut
scripto
ostendunt
olei
sterc
bestiis
distinguitur
instrumenta
tuta
##ογ
Amor
Asiae
dogmata
ruit
##vus
##icæ
habebunt
indisc
receperunt
discedere
petunt
hostiam
quaestionis
haereditatem
musc
habeamus
commem
aeternitatis
##imonia
Augustino
rapit
frequens
cupiditatem
Flac
insignis
prouoc
cacum
Def
manent
curare
suspect
proposuit
foedere
Baptismi
divi
desunt
ordinatione
nimio
hereditatis
Venite
exinan
Apocalyp
pt
##culum
facillim
humanitate
diversos
parvum
Hib
lin
ridic
##otio
##riis
seorsum
quoquo
insens
sensibilia
portat
sufficiens
umbram
Eug
dantur
lor
##vent
deced
audiamus
cupio
conversationis
tacere
appetitum
conjung
Hieronymi
adulescens
Moyse
cicat
fung
foss
##ptis
solito
visionis
judicat
arborem
Flor
Hebraeo
iuvent
Quinto
Die
habentibus
superabund
ejusmodi
auditu
magnas
aperto
clericorum
natu
medici
viventes
Expositio
enar
differentias
particularis
##ularis
interiora
##escente
decima
universos
Ital
cy
rite
##idat
mord
falsi
quaerendum
funditus
reperitur
codicibus
inhab
praerog
genitum
diffusa
exsecr
simplicem
conditionis
praedictam
baptismi
Isti
consultum
gloriari
similibus
numina
lumin
Martyr
praefectum
Jun
Pent
tametsi
discurr
##ancip
successit
purific
sponsi
ecclesiasticis
cus
##endat
cras
recre
Siciliam
mota
leve
separari
lecto
Ulterius
Antoninus
minis
clementiam
basilicam
rar
##anea
desist
adversis
mutari
electos
praebere
eligere
praefectus
Herac
hypocr
##yris
primos
tenens
##ebras
ueniam
somnium
determinatum
reipublicae
tar
##rent
perst
habebis
frumenti
interfecit
##dific
credul
altitudo
meliores
eloquentia
Apollo
Sulpic
Az
telis
intrat
acqui
maled
mediet
appetunt
Tertium
Vat
##cn
##iculos
cau
moriatur
furti
ornatum
uoluntatis
retinet
resurrex
##ja
##acibus
trax
novus
august
ornatus
tabernaculi
pulchritudinem
corum
fef
mitter
despon
caelos
similitudines
tribunal
subsistens
columbae
adipisc
benedixit
perniciem
actis
accipiendum
cognoscant
alienos
gladiis
vixit
consolationem
reverti
flammas
##versa
ullus
immat
Illic
conversionem
concupiscit
impedimentum
archidiacon
Psalmista
Reli
fau
vv
##erub
##esis
carp
multarum
fletus
evacu
Chri
voluptatis
campis
convivium
Eusebius
Aper
aditum
provenit
Philosoph
injuria
##ee
habui
##itasse
##add
virtuos
transi
dummodo
aequore
praemissa
electis
argumentis
sumpta
ventris
geomet
degen
parata
##iatores
actionibus
fortior
timens
aceto
calli
divinitate
nutu
pour
Ezechiel
inund
conui
##ectas
struct
continentiae
aequora
Loqu
boc
quaerat
superbus
doceat
delictorum
##pice
Christiana
integro
omnipotentem
contemplationis
##errent
defectu
margar
consecut
necem
secura
nostrarum
tenui
ferens
Perg
attest
Regula
iacet
audito
dignetur
bellorum
iniqua
monstra
CIC
##ituros
induit
crep
senior
damnationis
ordinibus
delectationes
condicionem
sabbatum
Tandem
conatur
agendi
minas
appellare
proxime
recipiat
subiecti
didicit
Hae
fera
ti
##ecum
##ucto
absens
nasceretur
caeteros
orient
medicinam
Pharisaei
muro
sulc
##uff
##issio
nativitate
discrimine
mendax
Liv
pir
tene
castrorum
artium
moer
ovium
##ecess
credens
communes
cupiens
Ibidem
feminarum
deficere
nigrum
Andre
Sus
##metip
##itet
nonnumquam
sapienter
socium
tolerant
facitis
siti
immorta
arboribus
Salvatorem
decreto
Fratres
##uerim
impios
circiter
Vides
demonstrare
defensionem
##eae
adun
deserit
classe
praedicatum
propositionis
gestorum
originis
frigore
celeritate
inebri
##ellos
volv
reddet
sollicite
Hispaniam
conscripti
##93
amari
poposc
hereditate
existimant
epistolas
syllab
quorundam
cessit
recedit
diligat
continentiam
adiecit
voluptatibus
persequi
insinuat
##biis
iniquum
laborare
substitut
justis
reddita
videor
Mes
incre
intellexit
perfectae
consequatur
ambulat
natalis
nun
μη
cumul
sacrorum
##iosos
##iferum
delictis
spirituale
exemplar
optimus
acceptis
##itores
congress
supernae
confring
ponat
atton
Verba
extremis
premit
Iust
Janu
cere
lui
##elem
deitatis
tue
interempt
quispiam
fecerint
terror
præcip
ministris
haeresim
indulgentia
dicent
reos
praep
##unci
resum
mandato
stulti
Bethle
Aust
Sax
##erentem
putatis
miserere
accipiant
doctus
sermonum
umbras
martyrii
hospes
αγ
##ectorum
##riv
##essent
committere
##epto
remin
beatitudine
divinorum
imperatori
virium
paulum
arboris
cordi
turbae
baptizari
divisione
sororis
cuilibet
Past
sanus
##adibus
partur
aeternus
ingenia
Martini
Interim
Opp
era
facund
ferarum
reliquos
fundo
undecim
prudenter
paternae
supervac
Iterum
versa
colum
vivis
timuit
Martin
monachos
Pompeium
crebris
Vig
illico
divinus
impedi
relictum
portio
gerere
Tyr
hirc
##ecisti
constitui
petimus
gaudent
vulneribus
uirtutes
obedientiam
raptus
Apollin
momento
stagn
Cog
fess
continere
pugnare
pulchritudo
martyrium
##bard
leguntur
quibusque
necessitatibus
propositiones
tabernacula
contemptum
hæret
obliu
brac
##retur
compr
toti
audet
pone
ordinatus
radicem
renunti
tribulationis
intoler
venient
evas
exteriora
##ichil
quicun
matrimonii
Virginis
##tes
appon
carissimi
profut
praeteritum
pretiosa
titulus
orientem
inferno
monumentum
Rav
pecora
infans
laborum
pulvere
providentiae
Cot
fet
##λα
impass
summe
digito
instanti
##menta
##ema
##idimus
naturarum
moras
generationes
diversi
holocaustum
Huc
Idus
egressi
##esn
conse
cogitur
impot
tradunt
exalta
Oriente
inobed
##aturae
parentem
solit
sanctu
excitat
passuum
licuit
renasc
nonnullis
Rest
foc
cognitum
colles
Præ
putare
honos
reddi
praesto
quaerens
conscius
benedictio
baptismatis
benigne
Gu
##ρον
##aticin
perterr
sana
stabat
pecud
Inst
minoribus
cunctorum
Intell
festum
institutus
clausa
suppositum
idipsum
videbat
defendit
inventum
vivus
aequalitas
custodes
uestram
dioec
##mas
##των
stellas
servit
carnibus
delicto
permix
assist
locuplet
Eff
Sag
tell
perim
##issionis
profl
considerari
immortalis
columba
remansit
##agesimo
area
absurdum
##odis
##anth
exitu
nesciat
SI
lust
agatur
insurg
materi
edictum
uenire
mittam
nuntius
tribulationes
Pompeio
jucund
Euph
Pala
adora
##eraque
invitus
exting
latitudinem
dirigit
##PH
##edia
##aciae
significans
attulit
plenitudine
corporales
sollicitudo
nuncupatur
transtulerunt
fatum
aestate
augetur
communicare
conloqu
Rep
adprob
vivimus
uiuit
Platon
##uentes
##nth
vestes
memores
transierunt
adhort
exterioribus
stern
idoneus
planct
viderentur
animali
fortassis
iudice
militiam
pluris
lucerna
aequivoc
differre
disciplin
Postrem
celebrare
jugum
sincer
Tarqu
Od
tutum
vali
απ
##argu
##ippe
agis
agebat
indoc
recond
usquam
relinquit
dispensatione
Domi
Iac
##emque
immens
Chron
habitatores
attribuitur
injuste
dependet
Cilic
qni
##iculi
imitat
sca
invenerunt
apertum
comprehendit
iussa
caeci
Herodes
utilia
##endunt
prohibetur
##empli
mereamur
Tob
##iscit
veniant
nequeunt
dedisset
uidemus
latera
conditor
uigil
zelo
poetae
lament
Kar
##ellere
##ulti
malle
naturalia
quosque
praecipimus
occultis
excepto
quadrup
Dios
fuc
genti
##ama
peccaverunt
Inven
credebant
sapientis
solitudinem
recol
moriuntur
report
depreh
scripsisse
valeant
octoginta
Quesn
solos
appellavit
##limus
Isaiae
vellem
expertus
demonstratur
descendens
currere
##CHUS
Dico
uulg
autumn
verm
secundi
servari
mereri
spiritalem
tribulationibus
secundis
seruus
Siquidem
proclam
negavit
episcopatus
scripturae
senatui
liberare
indef
restit
qualitates
temperantia
Merito
##ARI
abesse
indec
perfecto
adversarius
##inctu
Quamquam
faciendi
Angelo
suspicionem
conclusio
##24
magnos
Amph
surgit
audaciam
Quocirca
Cav
paradisi
creditis
leonis
Impp
praemio
majoribus
laetitiae
feminas
sono
falsam
disperg
Fabius
Caecili
pio
##erari
conspir
diligens
parvulos
possessiones
innocentes
SYMMA
##NO
habeam
##isce
salvi
sentio
mirari
deterr
sacrificio
experiri
apte
sumptum
Felic
PRO
negationem
timent
aeternitate
canonum
daemonia
ais
cep
ipsarum
domina
supp
uelit
diligentiam
custodiat
divinarum
Sec
Ve
reatus
paria
debell
confert
Latinis
defunctus
avaritiam
potestati
debitam
matres
nescis
praetore
negotii
persecutionis
serpentes
aggrav
Doc
τι
##ricum
exstr
commissum
fluit
aeternitas
miror
saeculis
vinculo
uerborum
Neg
inerm
genitor
debitor
reditum
docens
imperatores
Christianum
candida
Magnum
exaudi
ziz
##lii
modico
pecunias
Sancto
eloquium
horas
ausi
Platonis
deterius
ubera
Constantinopolim
soph
viis
##issionem
comprim
novissima
Aliter
calorem
damnatione
ostendimus
cujuslibet
occultum
fluvius
ulcisc
Corpus
Nat
uag
##iata
maiori
subminist
pla
mutua
exterior
faciatis
##embris
##ebar
##ipat
pleraque
libellum
superare
operetur
miserat
sapit
distantia
uiris
requis
meruerunt
perficere
consummationem
considera
Occid
ina
postero
flores
colere
prophetiam
emancip
perveniat
exteriores
incipiat
participationem
XXIX
unumquemque
uisc
##vimus
##urium
##aeam
comedit
obitum
indub
dolus
mandatorum
dubia
praestitit
infirmi
uersus
terminis
plagis
89
Mari
duplicem
explicare
insignia
Forte
nect
##uerentur
videbit
partu
Phot
gemitu
exposit
ciborum
fontibus
plagam
Tulli
dimidium
arbitrantur
felicitatis
nug
##culi
##erendi
recep
intelligamus
faciebant
Virt
triumphum
hieme
tonitr
Pamph
Desc
varias
morbi
vocare
ingrat
colligitur
##espas
inhib
deae
coegit
directe
complac
sacrificiis
pontificem
percipere
terminatur
clipe
Ir
tiam
situ
posteris
dedign
dolum
subjungit
clericos
Gallias
sublata
naturalium
praesidia
specialis
putamus
finitum
pauperis
dextram
angustiis
obsequio
##ambul
infidelibus
SYMMACHUS
##icium
##ada
donat
licebit
turbas
consideratur
rationali
spiritaliter
voluptates
exponere
Circum
Confess
##quaque
marmore
feruntur
horis
moris
ovis
θε
##rici
##orae
##iteris
amph
simplicitate
seipsam
fraudul
angustia
Syria
Modo
##edes
utiliter
agam
placent
praecipua
vicissim
conversa
exposuit
Dies
Gord
disi
ly
##anius
versum
mortales
Prom
Abel
exteriori
corporalia
scelerat
Clod
assidue
sist
##orsus
##quot
##deat
testem
irrig
delectatur
##icho
##................
unigenitus
Fortuna
Damascenus
fol
##lest
parit
dividit
disponit
fiebat
promov
iniuriae
Terra
pedit
##ertia
nullas
discordia
iudici
relatione
oportebit
ludos
infideles
Spec
Cyrillus
Assyriorum
Scaevola
Part
Rursum
##anes
petitionem
septima
Responsio
inuenit
turpis
catech
candid
evangelista
alve
##escet
##atiens
voluisset
emund
praeceptorum
lacum
sinit
familiam
nonnunquam
Orientis
pollicetur
contentione
verecundia
bip
uehem
##inensis
perstr
impudic
vestimentum
antiquorum
perseuer
commoda
reversi
Quas
scab
commisit
traxit
damnati
cogitationis
Caput
tribulatio
pendet
visceribus
nostræ
minimis
moralis
participatione
revocare
Redemptoris
Clam
##τον
##ulsit
regiae
impune
recepta
ultionem
vincit
perfidia
resistit
mortalia
militari
98
##cae
utendum
##plicet
indict
congruit
pulverem
crudelis
manducat
defensione
conceptum
contendunt
comitia
turbid
videas
Judaea
deprehens
Flam
hem
consubstant
debebat
leviter
Trinitatem
campi
....
vineam
Honorius
ueri
##bo
##enem
legato
ignorantiae
##austa
praebet
controversia
EPIS
Osee
rh
ueli
##15
##raxit
fuero
discessit
##iemur
Imm
##ennam
sæculi
Aliquando
##oboam
tione
##olet
sciam
tenu
transitum
terræ
arbitratus
coelestium
mentiri
funera
sterilis
conantur
formis
liberam
doctrin
sacerdote
infirmum
beatorum
majori
argumento
posterior
detrimentum
opprobrium
Symmachus
Amplius
Veter
##utorum
ident
mirabile
mutu
rogatus
ardor
veteribus
temporalium
cecin
distincta
contumelia
professione
circumcisio
sacrosanct
##uribus
potero
stans
audis
Nonn
praesup
benefac
hosti
uirgo
recti
adiung
tyranni
Nullum
velociter
Bel
mact
rut
patimur
##itudinibus
odore
somnus
persecutione
thesauros
iuvenes
care
aderant
aliquae
praecessit
placitum
licitum
promissio
proles
insigne
defuncto
impietatem
basilica
iracundiam
porr
##prehens
sanctarum
##iensibus
Unigen
trai
continent
præst
moveat
direx
rationabiliter
cernere
pudoris
##propinqu
cuidam
dæ
vendere
intelli
potior
solutio
aequalitatem
turbam
subiungit
constituitur
illustr
Vespas
pract
manente
concin
recitavit
aeternis
dictae
implor
aufert
inopiam
Carthaginem
cæter
scal
sanum
respir
##rice
suppliciis
octavum
adfectus
veget
suppet
relationem
cupiunt
aedificavit
subdiacon
praedicto
Sacram
cera
subn
agendo
ostendam
##uenit
Graeciae
nativitatem
cereb
coaeter
##actae
putatur
108
senectus
##erva
eduxit
generalis
figuras
arcana
exhibuit
appreh
colligit
uniuscujus
Mens
iidem
depl
dominos
docent
iudicum
Psalmus
canones
majoris
Acha
excelsis
respondeat
adeptus
auert
amica
commo
credant
crederent
invas
Erant
vivos
captum
aspern
incredul
eleemosynam
Stephanus
DCC
sar
##ez
inane
##enarius
invenerit
respondi
ardua
obedire
anathematiz
paupertatem
Sir
##serit
##fam
Quicumque
superat
maluit
foederis
luxuriam
latrocin
nato
peter
##olos
iudicibus
certi
promittitur
continua
Samarit
Enn
neutrum
Tibi
declam
Prim
dignos
proprius
praedae
ordinationem
privata
constantiam
Interrog
cognoverunt
squal
##ulp
capr
nominatim
notus
egerunt
uerbi
procedens
nativitas
##adii
liberatus
additum
peccatorem
conventus
Ult
cruore
latrones
æternum
of
πε
##ecisset
replic
infantes
absorb
diversorum
cujusdam
congregati
suspicio
exilium
solitum
clarius
perfectius
spectaculum
Pompei
97
Pla
tectum
amas
putavit
impert
ambit
traditum
Capp
honeste
barbaris
serpentis
prostrat
##uxi
Erit
faciemus
temporaliter
fidelem
Consider
thesaurum
demonstratio
Eust
inpon
deper
neve
signorum
appellata
compens
XXXVI
constanter
parietes
##imode
Lectura
Mss
Pag
ejic
##osth
queat
remo
signatur
latitudine
fugae
laborat
haereses
Philippo
delicias
difficultate
Palaest
avis
##sibile
ambi
##atoria
distrah
Gallorum
praedicti
reducitur
incendium
lacrymas
Hadri
οι
unita
concepit
existit
responderunt
interpretati
abbatem
pontifices
Cer
##ibulum
progress
nepos
humanas
portionem
Ammon
traduc
impleri
eloquio
vehementius
oscula
Eucharist
praejudic
hostia
ultimam
Postum
nequitia
vertit
excelsum
Postremo
muri
clarum
liberati
perfidiae
audierit
determinata
Diaboli
uiginti
volucres
lasciv
Pass
Talis
utimur
intueri
constitit
115
futuros
gress
apparent
quadrig
conceditur
dulcedine
Tantum
infic
une
vestrorum
ullis
Athenis
facultates
Regn
cohortes
aspectus
aenig
92
Mit
cnim
##andorum
stant
flere
passum
hostias
uideretur
sustulit
praetorem
episcopatum
scripturas
statutum
iniurias
quartus
Quemadmodum
Ptolom
.....
fuisti
exquis
epul
morbus
##iosae
notam
noverit
somnia
videbis
sordibus
luctu
prosequitur
gremio
PA
fulc
##iatis
##ORI
inaud
sumit
infirmis
constitutionem
interrogatus
inped
exsting
disperd
eun
##ομ
dixerint
sapientibus
litem
excellentiam
itidem
caedes
committitur
decore
constiterit
mandati
officiorum
figuris
Intellig
nequitiae
mysteriis
providentiam
noxia
interced
Catena
Philisth
##cre
##iniani
verg
##ictu
locutio
mirabiliter
altitudine
agni
Marcianus
haereticus
tuto
praedictae
vindicta
qnod
Dictum
Jov
purum
##TH
adfic
curat
defini
relationes
terrorem
vicina
Latinum
cadat
ludib
syllogismus
Fides
##sas
priorum
##usto
redemit
excaec
ignorans
privatis
templis
fatetur
nuntia
violenter
Antonium
tyrannus
apertius
erump
##ID
##actam
principale
ceteras
habitavit
siderum
Aff
Lig
##CL
redarg
absente
relict
adverso
accepisti
satell
incendia
Ei
Jerosolym
Mun
xix
##αγ
esca
ostens
gloriosum
putaret
inveniat
euid
renunt
Praes
egreditur
##tas
humilem
misero
singularia
fic
##estinus
##ultis
##iciatur
succumb
corporalium
medicinae
specierum
uellet
Quadrages
tactu
peru
##pres
iustis
diversimode
existente
diues
macul
excelsa
Turon
dogma
superfluum
MLC
Pyr
##una
##ptum
Quum
solutionem
legata
essendi
reditus
servata
mensae
remanere
proscript
##ille
##perent
seduct
veneno
servitus
medios
humanus
suscitavit
uides
consulatu
corruptionis
Alexandro
dimitte
occurrere
piscium
log
pulc
##UR
propiti
impie
iussi
Graeca
accusator
gladii
institutione
immortales
adiuu
nationibus
##olem
ulli
addita
optimi
meridie
tentationem
electionis
Vitelli
bracch
Mut
##entissimum
arida
usi
observare
interioris
inco
legunt
##ativis
firmitatem
oppositum
ætern
##errime
Trib
##AB
Quic
praeclar
ignarus
civitati
necessariam
130
eques
ardens
integritate
Bl
dabis
tul
τη
##aest
exempli
##versus
tradiderunt
apparebit
Chl
solliciti
rump
Agripp
Usque
cedit
##deb
##veretur
paribus
milite
praedicant
castrum
appareret
uisum
prolata
Macedoniam
connex
brachium
Rust
##ucc
##64
##ecost
exiit
solita
principii
civitatum
reliquiae
gravia
testimonii
appetitu
##errimum
campum
legitima
cognovimus
corrigere
infernum
Nil
causat
suppon
testantur
creationis
voluntates
profuit
conversio
interpretatione
cernitur
praecedentibus
villa
##oriam
adempt
sequebatur
verter
impun
auditor
floribus
turris
castitatem
evan
impletur
prohibere
stultum
cernimus
projic
conspici
ceterorum
prosit
nudum
clericus
vasis
illuminat
neglex
SU
ingr
possemus
assequ
indigent
essentialiter
quaeritis
frontem
monstratur
dulcedinem
Nomin
Natura
Plus
inique
##ereat
consign
regim
feria
miseros
sacerdotii
constituere
Galliae
individu
Melchis
nepotes
##rach
##erente
##occ
Etsi
Christe
Phoen
fundi
perfru
versibus
confitentur
fist
litus
δια
##usi
coeg
quali
manip
refren
latitudo
herede
assumere
accusare
Maximo
vertitur
Catil
Donati
difficultatem
CXL
praeput
##opotam
ath
Ing
excr
discus
Amal
pleni
imaginis
ecclesiasticae
salubriter
Causa
ημ
conpos
perpend
curiam
emit
dictu
mitte
incipiunt
dubitatio
poma
mixta
Lam
Mam
navi
villam
##iali
subit
locut
ulter
civili
tribuat
lateribus
dictorum
egisse
navium
institutis
Britt
quandiu
aderat
##elmus
eventus
paucorum
completa
competere
Corinthios
profitetur
cf
adsit
##olli
contione
quaerebat
audiri
##ribit
iniquitatibus
tentatio
subtiliter
presbytero
nonnisi
admiratione
apertissime
vinea
va
deberent
fletu
circumv
breuiter
impeditur
contemnit
formidine
monumenta
messis
expressit
Vade
venter
##aeae
utcumque
consim
naturæ
redem
aedibus
puerorum
adjecit
exhibet
obiit
certaminis
aiebat
##be
execut
venerant
capiunt
glorietur
longitudinem
collecta
optimo
pertract
Quamobrem
accedat
Testamentum
entis
nes
##62
##τος
exivit
sedentem
decimas
putabat
cognosceret
notatur
diffid
crudeli
cubitorum
Africae
vadit
homicidium
Baron
Ju
vor
adst
##verent
potuissent
##uiusque
##illatim
statuam
trahere
ramis
Thomas
Omnipotens
deli
scorp
amittere
resolv
civem
offert
iras
dimittit
confusionem
originali
terribilis
seriem
caligine
incrementum
##78
nono
illec
intern
##adas
studiose
religiosi
metuens
cupiditatis
sublimis
clementiae
convivio
amnem
supple
diur
agentem
aequa
Ipsum
inferiorem
confusio
periclit
tectis
tulerunt
prid
##ueram
documenta
##iciuntur
petat
radic
allel
polit
limina
unigenitum
bos
##utius
ilico
legatorum
curavit
exercet
mutatione
portu
subiecit
heredibus
termini
aevo
Vi
interitu
inveniet
praeterquam
ministeria
cornibus
Lango
Cup
Sele
converter
errat
##ineo
Perfect
sacerdotio
remedio
pergit
Diff
hercule
positionem
alis
redde
extingu
referunt
mirabili
praecipuum
consideratio
consentire
tunicam
speciale
Barb
Ite
uocab
stultitiam
persecutio
evadere
uniuscuiusque
##mum
##lust
acrius
debil
timeo
profunda
epistulae
adsign
Benedic
bel
fuimus
titio
συν
##TER
suburb
agenda
impell
101
##itiem
aequitate
convent
assumps
inmut
Antiochus
ibat
Satis
dap
##onom
##rap
tris
plaus
vidisti
infer
mini
indutus
profert
ingentem
armati
consulatus
auar
datae
##BUS
adaequ
##elab
##endite
coeperat
propitius
locutionis
moriens
adversarii
forent
Omnibus
subjecit
gemin
triang
contigerit
april
.\
vocata
##tinam
praedicator
obsess
lucra
intellegendum
vinculum
Christiano
cessare
adhibere
Athanasius
fenum
hir
pin
##ellius
reprim
neget
feru
vinci
inhum
excluditur
videbimus
lineae
Melchised
vanum
##alt
exeg
modica
vocabitur
manifestius
propositi
inducere
solvitur
respexit
cet
τε
##υσ
##onea
unc
##itauit
carent
visit
egerit
clarissimus
linguarum
digitis
Constat
uitium
supern
oras
voluerint
agant
inviol
extrah
significantur
miraculo
catholicis
respice
intervallo
Nero
Vix
pure
tir
##osam
concut
humi
Ecclesias
Chana
apprehendit
temporali
irasci
originalis
Esse
habe
socius
considerationem
Aquila
vespere
avaritiae
adjutorium
io
vidua
caedem
praeterito
opinionis
abstinentia
ventil
Philippi
Aristotelis
distinguit
Samuel
exempt
reddam
loqueris
nuntios
tunica
Tempus
meridiem
Aed
fetus
tia
##εγ
##depol
uideo
sacerdoti
lapidum
Virgo
pondera
instantia
inferni
palmam
##quaeque
inmin
##entam
sitim
croc
acerv
sensibile
iustorum
optim
prudentes
declinare
camel
pluvia
amplexus
dati
ædific
vivet
notas
perpeti
interpretes
gregis
invidiae
imbecill
Fit
quantumcumque
petens
mirabilis
Maur
succedit
breve
moles
hier
legitime
iuvat
securitas
Gad
Pan
Sig
puro
##ustis
alas
Adj
coniect
Antonio
επι
aliquantum
clade
rectae
metuit
Virtus
vulgi
abscondita
vivificat
nuntiatum
Norm
mulc
uultus
comitis
ageretur
XXXIV
mentitur
adorare
fornicationis
penetra
paupertas
Soph
luto
##υμ
##untiab
capiat
displicet
ducunt
dubito
tacet
depop
Cyprianus
Idum
Rob
αι
refl
probationem
iustos
praedia
quaeratur
lectionis
aptum
violentiam
resurgere
plagas
Factum
Volunt
mobile
hasta
praeuaric
heret
tantas
longae
enarr
militaris
morbum
producit
triticum
commemora
DI
Sis
fumus
##iur
##cam
arcum
plumb
moreretur
ostende
existimat
assumpta
securitatem
Tot
ecc
potuerint
contenta
humo
excepit
tribuere
gaudii
catholici
perficit
uictus
##ANO
Credo
calidum
pseud
intuitu
uitiis
decora
misericorditer
videamur
aedem
prosunt
proximos
conversione
conduc
beneficii
iugo
agnoscit
diap
immortalitatem
fauces
Cappadoc
##iditate
reatum
abrupt
stabili
incurs
necessarius
spirituum
offertur
Secundus
horrib
semetipsos
chrism
Loth
perierunt
unio
quamque
dominatur
clades
##oquo
colunt
carnalium
timentes
Arn
Amos
ordinat
noluerit
transferre
incongr
530
triduum
pact
##ber
##euit
##EX
aliquorum
aureum
gravitate
expositionem
Martis
poscit
circuitum
Mosen
praeclara
THE
##ομεν
memento
perfectis
vicin
caeleste
Thessalon
mic
extrinsec
##erentium
Art
philosophiam
Salomonem
##rob
solvi
##ernus
clarus
infinito
cubiculum
dubitet
barbari
transmitt
bestias
objectum
ente
Baluz
Hesper
indu
indag
responsa
emerg
attr
ministrat
possessionis
synagoga
tutor
spond
psalmum
abneg
mili
solatium
amatores
debebit
debeas
operae
epulas
miseriam
advent
Pars
temporalem
diadem
percussus
Multum
Novi
iniustum
Dard
bac
cinis
sos
vaticin
##bat
capac
excub
falc
edere
fugiunt
praestet
beatos
##axat
cogitationem
lectionem
parvulus
rationalem
Testamento
martyrio
viat
spinas
primas
medii
senioribus
diversarum
Macedonum
Lug
serviunt
defendi
nesciens
conventu
XXXVII
somnis
occupat
sublime
thronum
Sacerdos
EX
##umento
seuer
sciamus
##iger
venis
putent
aeternitatem
asserunt
majorum
consecuti
disputatione
auster
mendacii
inopin
fastid
mobilis
Timotheum
Firm
aust
uex
##estio
subita
poster
concus
novas
##emplum
gravem
tutela
schol
redemptionis
machin
Fiat
fudit
##mar
##ibo
solitus
intelligibiles
Abs
deprav
XXXVIII
frigida
archit
noscuntur
94
uias
habito
venissent
labora
125
altis
offendit
culmen
uestro
Isaiam
rapinam
triste
designantur
foedera
Octob
Dext
auc
##ivers
##entas
perquir
##ensu
confut
Patribus
edita
grandi
ministrare
Rufinus
nutrit
CICERO
uon
reatu
illinc
posuisti
aliquant
curru
mediator
communibus
significatio
valuit
consulere
grass
custodiunt
augeri
tractare
spectare
Hieronymum
purpur
foribus
scul
anteri
colores
scriptores
saevit
damnare
tractatus
tribunis
Magni
uirgin
circumcisione
consentit
Quirites
Tac
Vet
volet
usui
petul
communionis
118
iniquis
majore
Numquam
coelestem
imposuit
intellectiva
iulianus
columna
##iamini
decoc
optat
Galliam
pervenerunt
indicia
lignis
surgere
candelab
Sabb
Magis
fruges
claustra
##metipsos
az
damus
milium
##δε
calix
##plend
interitus
orationi
commot
dividi
##erato
sale
festa
indicio
deficiunt
contemplationem
linguas
surge
surgens
redemptionem
ualet
pronuntiat
Hierosolymam
exprobr
##ubuit
##ugit
impat
celeri
quaestionibus
intellegit
exteriorem
suscipiunt
Alioqu
captivitate
iuga
Port
Sep
amissa
humilia
principiorum
invit
longitudine
notae
ordinare
tribunos
obstup
Pharao
tangitur
Mediolan
Gem
pium
ruf
delig
deberi
retulit
protest
integram
desiderii
Age
discretio
silvest
tritici
primogenitus
##familias
##ιλ
##peram
reo
coept
facient
contendere
decurr
cogi
demin
ignorantes
constitutione
antiquum
##eunte
facultatibus
Ioannis
monumentis
comprehendere
limo
##ulsum
voluisti
capillos
loquentem
senis
Ord
proportionem
paradisum
Rut
rix
arva
induct
capax
laudabilis
invenio
occiderunt
cessante
Sanctum
nutrim
singularem
ventrem
inutilis
simulacrum
Priscilli
Melius
fatu
sidere
##iditur
tenuis
laudari
Chan
hospitio
patriarcha
Tart
linqu
##abul
acri
aspir
epit
servatur
professus
adhaes
ambitu
uerecund
trahitur
allegor
puellam
cavere
##iebam
##ιαν
##rie
manna
insect
medicum
salutari
redderet
firmiter
separatim
reperit
spiritibus
postulare
dormit
pudorem
Jacobi
reminisc
Vr
xiii
Quarum
Quippe
decum
sequetur
senator
adduxit
expi
radicibus
disposuit
exstingu
exspectat
ualde
mereatur
retrorsum
Pann
ferebat
versu
habuisset
divisit
abundantiam
fateri
luctum
diuersis
Lys
agentibus
impar
##ixi
donare
Stat
Contin
##ycl
peius
consanguine
paroch
millibus
vindem
vetera
praesumps
Antiochiam
iniuste
Pharaonis
XLIV
Abi
Data
aula
tendere
##mut
adpropinqu
coinqu
turpiter
terrenum
Atqui
alienig
onere
nubere
absoluta
Maximi
93
Ier
Perc
Plin
sentiam
superc
nullos
Manichaei
imperfectum
Mesopotam
Langobard
,—
Cad
rectus
##tos
solutum
intersit
styl
posses
regimen
dominae
praeteritis
ignorant
complect
mysterii
Philippum
Infra
##itivae
ductor
paupertate
##aad
##entissima
unoquo
stantem
agite
persecuti
Alter
probantur
exsecut
infirmos
lapsum
##aremur
Aegyptiorum
confitemur
scrup
Iohannis
senectute
Hen
Laet
iurg
vov
##οπ
mearum
praeerat
stantes
castitas
altaria
coniuncta
separatae
interpretatus
iuu
percipit
adoptionem
egregius
Ptolem
forsan
Jon
dent
##OC
##orn
peribit
progredi
unionem
comitatu
obedi
imperare
passa
emolum
Graecum
Neap
exigere
inuoc
Gregorio
subditis
ramos
##dae
transiit
docti
doctorum
præf
intellego
nobilitas
abunde
societatis
corrumpi
molestia
Orientem
procurator
infidelitatis
unoquoque
ba
danda
##atrix
situs
capitibus
maximi
adversarios
addere
turbine
quatern
corrupta
excusationem
tolle
vetustate
modestia
Litter
Nobis
gig
##ligo
exanim
##ande
saltus
remig
relev
antiquos
gemmis
seipsis
gurgite
uiuific
Mithr
Vbi
rim
##VL
abjic
habenda
venio
clero
invitat
102
visibilis
retia
valens
reliquerunt
pauperi
conduct
biblioth
distinctione
ethn
##udine
crux
probatio
longitudo
universalem
perpetuae
interpretationem
claritatis
agnoscitur
abundant
versatur
fallere
calumniam
perversa
volumine
Oth
praedixit
detulit
presbyteris
contemptus
facillime
postula
magnopere
tenus
fortia
defecit
dignosc
novitate
grandis
tristes
favore
erigit
inanem
peculio
vot
inlic
positio
capess
recurr
persc
formarum
frut
cetero
lucet
unaquaeque
Praeter
mutat
damni
pleno
dirim
oppid
literas
Redemptor
Officium
dunt
evit
inanim
curios
Arel
victi
uestigia
adjung
reperta
auferri
suspicione
animadvers
Off
##TE
abierunt
annot
vereor
deficiat
disputare
duxerit
tolerare
Eu
Ger
cip
ms
##icius
transitus
scriptus
petitur
Babylon
professionem
diuinitatis
cruciatus
pocula
dæmon
##efic
reli
parvis
arom
##escent
quibuscumque
sentimus
efficaciam
fallit
fallacia
promissionem
Audite
irascitur
impietas
instruit
infidelium
##racta
##IO
##esin
##enius
adam
sedebat
sequere
dignam
dimissa
ostendendum
corporea
prohibuit
Angelum
abbate
funere
limine
iuvenem
refugit
Heu
vili
##utor
coepta
elabor
labe
optin
propositione
Theud
potentias
sollicita
suscipiens
accepisset
saecularibus
evenire
permansit
Juxta
uitio
##abi
rept
habitudinem
sequentia
studiorum
iniquo
inimico
codic
ovibus
Syriam
Bass
das
recumb
humanarum
##avero
##ublica
##ricus
captivos
eruditus
explicat
interfectus
inquirit
individua
##poli
##iciens
sacer
nolumus
consideremus
alicubi
difficillim
Boe
haeresi
pollicitus
pudicitiae
exagg
Hec
Math
caerem
haberetur
vela
amittit
peccando
præsum
apparuerit
quaerentes
desiderare
eloquii
##εις
pepercit
diluvium
96
Turb
##eravit
abut
reciper
redeat
nominantur
sacrament
iniquus
condign
Latina
oblatio
trahunt
maxum
JUL
ah
dentium
iri
##ρε
##arct
adrog
conquir
caesa
dixerimus
credite
##uxisti
continuum
rectius
consularis
viveret
victores
praetoris
integer
consuetudinis
devotio
crucifixum
Hierosolymis
Mulier
##auerat
##jur
Quaes
incurrit
praedicetur
Johann
interrogat
horde
baptismate
revertitur
insipiens
ficta
oli
##uium
facientem
##apsus
istic
terreni
pallium
complet
quaesita
observari
experimentum
accepistis
perditionis
sublato
organum
Drus
##ibil
trices
incus
notarius
verumtamen
294
disciplinis
incomprehens
processio
juvent
Dolab
Hell
εκ
##loc
inpr
regulae
diligimus
septu
psalmis
decretis
##ippus
combur
Ii
Ot
##facta
prorum
presb
amara
venimus
carnalia
sensibilium
##yss
conversationem
cultores
participat
transfigur
alba
deceptus
abduc
Epir
cenam
cilic
##uia
##yx
##alb
ancip
##apis
excepta
supere
cuiusquam
septies
canibus
spiritalibus
ablata
tymp
##bis
##ωσ
##odie
aram
concrem
dominorum
sententiarum
publici
permittitur
ordinari
silvis
aeger
gerens
Quandoque
sordes
Sempr
æterna
literis
PRIM
rura
##odorus
deh
potuimus
necnon
viderent
atro
Dominicae
quemlibet
107
compunct
proprios
quadru
nituntur
natis
##iar
##uente
parua
ignota
instig
oce
caloris
clamorem
existimet
Hebraeorum
particulari
Domit
Pilatus
eradic
migr
nemus
tecto
conper
dicebantur
facerem
Indic
delub
ferret
refell
uidebatur
prodigia
præv
palma
pulvis
vacat
tribuno
praescientia
Nempe
herbas
ancillae
virginitatis
adipisci
Chanaan
rit
uari
##sim
quiescere
libello
primord
audientium
occisi
##ordecim
ponebant
absentem
Abb
culpas
tabulae
nobilitate
nuntium
pascit
proponitur
fati
##hus
##UN
##ericus
##urius
locutum
mirific
munific
ambitio
arcess
nuptiae
accedens
declaratur
Melchisedech
##entiores
nostis
debiti
constru
voluntarium
tributa
contrariorum
direxit
philosophis
rogare
cantus
nubila
##abilior
uirtutibus
prosperis
incerto
fideicommissum
hii
uota
##eundi
seminibus
despect
Mater
illicita
indicare
audiendi
Marte
Simplic
dispensationem
attende
purpure
admitti
##dudum
##itie
imitationem
spret
infantia
dolere
casta
discipulum
odisse
Dicunt
privatus
indignatione
albo
triumpho
hyd
deris
tas
παν
vivendo
uoluerit
Valerius
falsitas
mascul
theodosio
brum
lutum
##cula
##01
##oles
interi
commotus
concedit
miratur
Pax
satisf
delectationis
uocant
dulcia
facultate
clausis
conclusionem
virginitas
Reb
##oros
##opon
##adum
rectores
exsist
xxi
subditos
obsecr
valentin
alioqui
Gothorum
Sy
##gi
Quanta
sanitatis
fugientes
diuinis
conversatio
interpretari
pastoris
colligere
subsistere
exorn
idoneum
Suffic
decrevit
Praecip
fatis
##tius
viderat
maneret
##ingitur
Apuli
substantialis
celerius
frequentia
indigne
interficere
abhorr
Ratio
juram
##ementum
##abel
contubern
quidnam
videbant
stellis
##audi
vincitur
sceleribus
Constantino
proficisci
praedictus
prouincia
calefac
Cris
Dor
edic
##∗∗
##inæ
##aso
##ratae
infruct
praer
vocabatur
novissimo
latro
Ars
liberabit
prospere
caelestem
momenti
circumcisionem
tergum
coenob
Sina
inania
##enu
parente
ani
##ullus
toties
crederetur
redargu
cognito
numine
contrarius
saeva
constituto
531
lineam
illustris
saecularium
fixa
Capitolium
Haud
On
purus
##onensis
##ulerant
univoc
praelium
libi
bone
persolv
formata
putabant
effudit
uxoribus
Sallust
vacua
fabula
XLII
Hannibalem
99
pug
Etrus
respectum
##assem
gloriab
Paracl
descendunt
hospitium
homi
falsae
innumerabiles
regressus
rara
##αμ
##δι
rej
quiescit
Quatuor
positam
interdic
petitio
spiritualium
haereticum
Jacobus
myr
intendere
esi
result
vocabula
Patet
corruptibile
duritia
peruenire
adjutorio
Coss
Ili
ventorum
##λη
##igi
peccaverit
decoris
tenemus
uolum
viarum
superbis
habitaculum
duritiam
praedestinatio
urget
##enarum
imponere
comite
accendit
Incip
imperavit
ponens
plurimas
damnata
turbis
pervenerit
felices
promissione
coniuge
turres
##ορ
semitas
invito
intelligenda
quantis
aequor
praedecess
movit
quaereret
vigilia
dulci
pulchrum
devotionis
alterutrum
hypostasis
rus
ευ
coetu
##annis
viciss
adjunctum
inferioris
abbat
proeliis
contemptu
inquirere
Iovem
Laod
Gunt
Paris
ara
hest
##entissimi
idus
stabit
propin
antepon
ulul
##tha
plurimorum
singulae
percont
custodiri
reperiri
traditionem
susceptum
ventos
promptu
parietem
incrementa
riv
τω
##05
##ractum
jejuniis
regenerationis
Pulch
##iemus
inani
coetus
posthac
ostia
timeat
Arct
notat
proderit
philosophos
praefigur
Brutus
##aedific
uulnera
mucr
indiscret
sulph
##AC
##oriae
solere
agerent
decid
deditionem
dolos
Scripturam
cantu
mendic
Gregorium
qualitatis
caeca
condicionis
eunuch
Ion
##itta
##iculus
##quc
fruit
negas
milli
plurium
traditus
consequentibus
virginum
vigiliis
comparantur
uocatur
##auimus
ciuitates
inducitur
praesidiis
##oe
##ulsis
##ituram
faces
##avis
patiantur
primordia
##itaverunt
remotis
misisti
aureis
Corb
deteg
impletum
eget
antiquae
euim
repetit
##ONIS
uictoria
exceptione
caedis
pessima
telum
parabolam
Childeb
piis
##pectus
epulis
perspex
civilis
##uauit
emere
substantiarum
ense
Galaad
oblationem
fabulas
monasteriis
celebratur
perfici
XLV
frumento
inconvenienter
aevum
obtrect
Eius
Ierusalem
querc
nonum
humum
credendo
testium
sequest
vivam
scriptorum
times
terrenae
exsilio
præd
Anglorum
restaur
nubem
dissimilis
Seleuc
Auct
Ber
utilius
diceres
imitatur
supell
Prod
factorum
furto
antiquitus
nobilior
uisus
obedientiae
conspicit
pignora
praepositus
dilexi
hierarch
Pri
dando
pru
dicerem
quidd
##ineam
servavit
ullius
adversario
Gallis
tristia
tristitiae
Alexandrum
receptum
blasphemia
majestate
Tres
γαρ
##ibulo
depell
concedere
discuss
continue
gaudeo
nolit
narrare
mendacia
christiani
ignominia
Bona
avi
bat
heri
nationum
##yz
##inoct
examen
interu
Dominica
longis
rectis
alte
dira
respondent
Lucret
subjecti
nobilem
composuit
Academ
splendorem
pelago
XLIX
typum
Cand
Hy
Lux
##asm
##iremus
reor
vern
divitem
regere
mortalem
creditum
voluntarie
novissimis
contrariam
##inamur
chir
135
irrog
irru
intellegatur
solium
doctrinis
appetere
ambulant
confusa
maculam
Ciceronis
Domn
Vind
##otae
##ptus
spre
superesse
decr
nescitis
blanda
observatione
Tertius
congregatio
proficiat
vacare
pastorem
serpentem
Pontific
sagittas
sponsam
iracundia
promiserat
Iudas
Tanta
evers
##ibant
##aca
conspex
secut
longam
odia
nimiam
praemiis
salvari
Paschae
Pentecost
SEN
[=
##vam
##xerunt
addic
exas
incensum
probata
census
possidebunt
compositio
##eronom
oriuntur
remaneat
excellentia
Macedonia
vestigium
azym
nuc
##vicem
##ocles
doceret
adversarium
aequale
irre
ignoro
Aquile
triduo
Isidorus
tenta
##iare
##uarum
##erentibus
resip
##ullo
credidi
reditu
praeceperat
carnalem
viventem
impleatur
occiditur
gladios
exhal
Antiocho
Compl
perditionem
festinat
diaconum
liquet
Duc
Hyp
eliam
inpet
loquentes
peteret
tributum
mensem
##rico
convenerunt
præm
simplicitatem
Statim
##ardi
introire
pudicitia
columnas
##drub
Pert
Tant
cari
funct
##ulata
##ilur
potestatibus
magnanim
miserae
uirorum
exsilium
gravior
respondisse
expositione
quaesivit
duximus
##ithyn
Iuno
nauig
interdicto
Fecit
##alc
parent
soles
viventibus
##ativus
praemis
comparat
molem
festo
accusationem
Valens
ruinae
exprimit
auditores
imperfecta
talenta
liquido
dotis
sentiant
##uendum
accers
superiorum
serm
instinctu
Græc
cognoscuntur
mutab
castellum
dictator
apertis
considerans
subsidium
Hilarii
Creatoris
suprema
Monach
agrest
zizania
vina
uteretur
legatione
agrorum
intelligibilia
loquere
miseram
damnatum
uolo
gaudens
Lucam
mitto
suscipiat
suffoc
pontificum
campest
limen
amaritudinem
sagittis
refugium
conuenit
rudis
Honor
Miseric
προ
schismat
inimicitias
##ron
##oriis
uniform
reginae
Antiqu
auxiliis
orate
indignatio
intentionis
fontis
collega
eremo
Hodie
mellis
rata
tionem
tutus
##ribi
##entissimo
stulta
accur
tenuerunt
testatus
sequantur
sapienti
generare
uester
tentatione
pulchritudine
pristinum
amaritudine
appropri
vesperam
Mors
Sib
Tri
posteros
recenti
Necesse
infinitam
umbrae
impedimento
frumenta
Diabolo
Papa
CXVIII
superflua
deterior
coinquin
Ti
##usti
atqui
pecorum
orando
volueris
##asses
recedere
Nondum
negotiorum
horae
persequitur
Porph
incarnationem
cœlo
ferox
##eratio
intum
unitur
meæ
Qualis
sanat
carissime
intelligentes
militis
certior
auctori
laudant
admis
clamare
quater
spiritales
omnipotenti
inuenitur
deprom
piscibus
infidelis
translata
contrariatur
Aeneas
Orat
Taur
ces
cic
iret
lecta
natione
##RE
##asin
quaque
##apsa
sanctas
##olium
medico
involv
Praet
permixt
Latinos
subtract
presbyteros
suavis
cavendum
discernere
aduentum
dandum
##ulatur
poterimus
##obr
tamdiu
audisse
Presb
dilectum
aequali
reddunt
subjungitur
perfund
legisl
consistat
exstat
dextro
percipi
##ORUM
securitate
magistratibus
decernimus
Nolo
ritum
##RAT
animatum
obprob
pecudum
tempori
credita
gloriosus
cognoscens
reliquo
palatio
silva
consistunt
aevi
flammam
articulis
Hir
##uetur
fretum
reprehendit
damnatio
victu
##inctos
impleta
separatum
spiritalia
##TIC
temeritate
praesumptione
feris
iunct
##dal
##unus
consulum
##ugur
audisti
dederis
falli
valle
dictam
copiae
monasteria
cervice
Nob
gaz
pendere
##ecimus
##asa
nona
compress
peccant
vivant
ludis
sempiternam
coniugis
interfecti
expressa
Haeret
Sirm
dote
nup
##tio
##itiva
perperam
##ustus
malit
venite
quass
Thar
ordinatum
##uriarum
respiciens
coepi
saecularis
fud
hu
lent
##udinem
spinis
manes
decant
credebat
magi
castitate
pharet
damnari
fructuum
Carn
aestimare
obediens
videbitis
frugum
quocun
Malach
Arcadius
tate
##he
conspect
cognom
sentitur
vall
adversariis
lapidis
Latino
Iudaea
capitulum
panibus
itineribus
tyrannum
ebri
difficultas
fraternitas
sensitiva
strepitu
Marcellinus
Dist
##po
##QU
comedere
##ratam
venena
usibus
persist
diligis
Spiritui
vetat
concupiscibilis
Constantius
jejunio
Africanus
Benedicti
fisco
Modestinus
satag
##mb
prolis
adsequ
erept
arr
##epos
insania
servitio
gloriantur
cuiuscumque
150
indignus
expers
participant
nupta
##erretur
subditi
pravis
didicimus
Democr
Esaias
audacter
cineres
concupiscentias
suscepisse
Hebraico
Viv
##elech
habenti
habebatur
idolum
indom
mortaliter
ordinum
delicti
103
pertinens
prodidit
radiis
brevitate
contemnunt
Babylonem
nigra
thesauris
balne
brachia
AEgypti
Memor
PER
tons
varios
##isum
depress
quaerebant
sacras
##ircum
leones
reddatur
reliquas
superba
acceptam
censura
consolatio
Maximum
subsistit
Hebraei
Volsc
integritas
series
suut
deseruit
excid
inquisit
voluntaria
Condit
offerri
irrep
scribendi
##erosque
frequentius
prolem
bestiarum
vado
didici
prandium
For
LIII
oec
pej
uider
##ihel
alumn
legationem
duplum
persecutus
putaretur
cognoscendum
Pauper
assent
Graeciam
Gallos
dimitti
digitos
parcere
benignitas
intellectui
hebet
Basilius
Cec
God
LY
Mae
edepol
fusc
##oz
perrexit
oriri
induxit
diligentissime
demut
Proverb
cupimus
Videamus
expositio
violentia
scripserit
gentilis
praelati
ripam
Dal
cuper
dissent
##ensio
diligamus
significandum
contract
attrah
collum
collata
exemplaria
arbitram
clamavit
auferetur
Paradis
Sanctorum
flammae
Jeremias
iuuenis
mollis
consentiunt
Crassus
Bell
fe
eramus
Etr
aliqualiter
auditur
curric
serva
servetur
106
justitiæ
eman
denunt
salvare
inferiori
tutelam
excusare
artificis
integritatem
Euphrat
careat
sess
uitiorum
##cul
neu
obru
voles
##uxisse
glob
eluc
putem
ceterae
miseratione
cha
placuerit
damnat
perveniunt
aedificationem
reperire
spiritale
determinatur
seipsos
Baptista
turpi
magnificentia
herbis
ambiguum
Remig
ilia
εχ
##θαι
conflig
circul
putr
dignatur
novos
memorat
præpar
ardorem
difficilis
difficilius
largitate
nuntio
deposita
cott
perspicuum
ignominiam
Ref
Sing
##itorem
##iatoris
cognitis
putaverunt
respondendum
separatur
aedificare
exponitur
quonam
resurgent
pulchre
eripuit
pristinam
intellexerunt
satisfacere
ps
##uno
pote
tern
patere
glac
mutavit
innit
palatium
nequiquam
vetere
inmund
quaesi
ornat
exiguum
habitatio
Possum
hilar
Vatic
AL
Dci
Sara
gerunt
execr
intrep
caute
dupl
salis
intelligibilis
tumulum
latenter
praemon
spernit
daturum
lupus
messem
antistes
comprehendi
Hasdrub
Tales
##vir
debuisse
indeb
certius
viso
ducum
140
##ativo
angelica
obliti
reperiuntur
titius
congregatione
Theodorus
praesumat
adulterio
susceptus
querela
corrumpit
προσ
Summa
Tir
darent
eor
gerebat
litis
##ason
utilem
veniente
mortalitatis
##fectus
petebat
petentibus
agnum
completum
Marci
repetere
diuturn
negligentia
emptor
euangelii
saxis
pelagus
ham
rore
##uantur
##ιον
exierunt
peribunt
lego
excol
excedere
teneret
munerum
accidentibus
naribus
instituto
commendatur
Habes
fastidium
velimus
eleemosyna
zelus
censeo
AT
Bithyn
fib
mum
υπ
##aldus
##abamus
scito
subint
putavi
scripti
sentiret
existat
accidunt
virginibus
breui
tacuit
laborant
fraudis
contumelias
rustic
Antichristus
mansuetudinem
superficie
imitatione
libr
minimo
immor
collatione
uenisse
rapuit
impetrare
monachum
Hieronymo
##ANI
morbis
suffragia
nu
##icc
caver
debuerunt
remoto
persol
Scimus
retard
mandat
pulsus
turbul
tacitur
meliore
grege
silvas
praenunti
dedecus
Solus
sedulo
##ext
aspectum
numinis
transiens
intelligendi
timeas
arbiter
movent
##ANUS
XLIII
christianus
individuum
homicida
domesticis
Bonif
exasper
grex
nc
##ιας
##ement
amatur
stoli
##ascript
admov
recipitur
Iouis
Joanni
ligni
capitula
laqueo
intelligo
Cord
Ligur
bub
ferebatur
norm
tium
debeatur
totos
aequinoct
sacrificii
sesqu
Gratianus
Sexto
largitur
Relinqu
Nomen
Toll
gulae
##las
praegn
cris
sera
audiret
vestimentis
loquente
evol
compass
beatis
gravitas
licebat
mittunt
tactum
antiquo
nequit
arduum
Samaria
lacrimae
diaconi
Tarrac
ueteris
ingressum
Michae
coact
contineat
possed
formaliter
lacu
virgam
quotquot
##ουσ
honorio
praecedenti
pondo
##ULUS
Peccatum
nummos
Nescio
inbec
Lup
hie
lu
##iciat
ino
##uriam
##asus
viriliter
legionum
discuti
tenebatur
instat
Thes
promer
demer
indigna
excusat
ascenderunt
funus
desperatione
vendidit
ibo
incredibile
Rufino
omnimodo
Beat
Fav
Trad
murus
ratum
##hab
##imarum
##ulatum
admin
dejic
sequebantur
##ificatur
morales
labef
simplicitas
sufficeret
absolutum
exspectare
sortis
astris
accedunt
ponderis
impietate
Po
##iale
coapt
##ebatis
amores
auderet
##anna
universas
mutationem
##eperint
manifestatur
diuino
separare
adjunxit
obiurg
commode
decipi
octava
lucernam
Diosc
Eorum
pereant
##ensius
parare
plerosque
eph
sapientium
noceat
permissum
tradi
patroni
victa
uocat
obscurum
puritatem
jubetur
laqueos
##umentorum
##iales
##ulerint
interna
genet
decessit
audax
104
Arim
nolens
accusat
interrogavit
falsitatis
itinera
Gratias
senectutem
Tuscul
superex
Imo
PR
realiter
intima
positae
orbi
Prud
Scilicet
pluraliter
materialis
quaeramus
efficiunt
293
somni
Valeri
tribulationem
exhered
Psalmi
postremum
Jeremiam
peruenit
poetarum
praeexist
Quarta
geruntur
nix
rat
uetus
exac
rediens
extitit
imperatorum
pertinentia
ingratus
cupido
solio
tentationibus
impedire
turpitudinem
proportio
Charitas
Varr
garr
mentium
nibus
analog
quibuslibet
servanda
disj
creat
sensim
generantur
nescientes
sext
Vidi
revol
excelso
pestis
Sermon
attendite
persuadere
Cæ
PAT
##br
##ereret
inert
sciri
amans
tantorum
mensurae
respondetur
pretii
heredi
concluditur
elegi
accesserunt
saxo
producere
Iohannem
complexus
Dial
Spon
Serm
statione
obvi
legendum
regulas
vite
aurium
aureos
uidi
dilatione
dimidia
delectabile
occidentem
antiquus
audierat
aestimationem
queritur
uultis
conuinc
Stephani
Aethiop
Lectio
##tium
##culo
##23
##esimo
exstant
##ulosa
famis
angusta
existentes
uenerit
finxit
accidentis
speramus
possideat
praedictorum
iniuriis
occurrunt
erudit
posteriora
Demosth
momenta
maiestate
barbarorum
Chalcedonensis
Sulla
##occup
Torqu
uinum
υπο
##serunt
pervert
praeesse
praelio
parvi
amet
ferae
petenti
similitudinis
affin
pervenisse
titub
inferiorum
fulmine
cinerem
volumina
catechum
AG
Gentium
##erp
habuerat
volebant
Presbyter
perfectior
scribam
canit
Apostolis
perfug
Styg
indicant
daemonibus
suadet
conscripta
diuitias
idea
luminaria
lem
illus
viderint
aliquatenus
acqu
nouo
Illum
misso
censemus
disposita
sanctificatio
dissimil
imber
imbres
receptus
pomp
aquilae
dereliquit
Det
feret
uerus
χα
adqu
Qualiter
quoquam
promuntur
##ricta
armatorum
opto
ueram
tyranno
crudelitas
zelum
Apocalypsi
Hie
Sper
curiae
transitu
constans
##illorum
lucr
universorum
septimus
finitur
nobilium
relinquens
convertere
spoliis
infamia
sæpe
cæc
æst
utiles
interiori
opific
audientibus
currum
elatus
doce
extenditur
Quodsi
factas
armatus
Petilianus
consequentia
praemittit
Posteriorum
familiari
censuit
Veni
caecitas
sponso
condemnationem
solida
effugere
quominus
##idiis
exilio
opitul
audiendum
claust
excessum
occursum
loquetur
susceperit
liberius
produxit
ambitione
infirmitates
proximorum
pugnas
occasu
punitur
phantasmata
Machab
declina
fefellit
pecoribus
oram
peccandum
fecere
sensibili
ueluti
manifesto
magistratum
divinas
incipiens
abundat
invisibilia
interfici
Emerit
inutile
laqueum
hæred
Ov
pist
##iamin
cautum
praeli
##iscum
virus
capitur
creditor
ignotum
scripturam
castella
noverunt
tentationes
experientia
compositionem
multiplici
Leonem
uberi
##itterent
boum
Dio
Mane
pelli
examine
negatur
laudabile
phal
tentoria
requiruntur
dispersi
crudelitatis
paenitentia
idonei
Eos
din
duro
intentum
sedi
##paret
vestræ
colit
signi
seni
altior
Matthaeum
granum
conscia
tractatum
referens
celebrari
ecclesiastico
inops
inlec
discernit
Claudio
cinere
nepotem
Put
mu
##ELI
dicenti
potentem
accel
regulis
specialem
effecit
uideamus
fugitiv
mittens
privatim
consecuta
dormire
Actibus
bracchia
##his
##ecuta
sue
paral
subrog
anus
##ingunt
minut
flatus
deduct
crevit
sensisse
Alp
diligitur
uenerunt
religiosa
requirunt
Tran
Dionysium
maledictum
Pelagius
despons
Gom
hisce
poli
var
##uebat
adde
Quaec
contrib
sanari
##ictos
ducat
121
aequitatem
##eperant
eventu
Prof
perdur
conversionis
nascatur
tacita
obtinet
maledictus
jugo
spatiis
Felicis
punctum
ro
sest
sont
##acitate
pateat
inferis
##iatorem
fuerimus
carnific
##ifero
regnis
obsides
probe
portione
magistros
superbum
levia
exigitur
iugiter
##TORI
Josue
Aesc
gav
nymph
piac
intantum
semini
putred
compesc
auget
rogavit
fabulis
seipsa
revocat
fornicatio
ieiunium
sincera
sepultura
praesumptio
expresse
Mad
tatem
uesper
##iebatur
##wn
plana
quempiam
tenentes
humanorum
loquantur
praedicatorum
tertiae
contractum
attig
salvator
contingens
obtulerunt
jussu
permaneat
respicere
successionem
sepulturae
hæres
sobriet
nollet
Noc
Vin
dos
piae
##me
##unum
unica
##hramn
fiebant
tribubus
exercitibus
apparatu
quædam
avium
egere
firmum
comparatio
aedificium
tractus
Constantio
patiebatur
catenis
inclinatio
favorem
latronum
Genesi
meretrix
Lusit
Ret
SS
quamcumque
subrep
peccet
circulum
speculo
fren
tantos
Psalmis
sexu
quaestionum
subjug
firmitate
privato
occiderit
sanctificationem
cleric
oravit
quaerite
thesauro
carceris
rescripsit
Manichæ
patriarchae
differentiis
Dux
Missa
Sime
nt
crebr
infel
speciosa
apostolicis
Mars
beate
avait
complectitur
400
##errimus
numerorum
Finis
##yli
dealb
##ocris
##ude
progressus
viduae
crescat
resec
minatur
extor
praedicavit
suscitat
susceperunt
aedis
respondemus
psalter
Parisi
inpro
descendat
consolatione
Decemb
irascibilis
fluenta
suscepimus
adiutorium
Prosper
eaedem
Misit
PS
uul
plaud
teneant
honorum
petis
exercitui
uideat
perdat
tacitus
praeparavit
cedat
exorta
emendare
adjuvante
massa
THEOD
dente
vib
##cas
quosc
##undae
venere
docebat
fraterna
aequitatis
laeva
ministerii
religiosis
avo
considerata
arcu
oratores
Plur
compositis
consideret
exprimere
hyac
professionis
obnoxius
columnae
MA
Rach
tibus
uend
coeptum
crura
credam
fleb
teneantur
ordini
praesag
gaudeat
superbos
conditiones
sonitus
pompa
Ced
ualid
##son
##edam
exul
servitium
electum
arguitur
certatim
accipite
reluct
contrariae
cunctas
denot
palli
gravitatem
mittuntur
missae
perfidiam
retinent
transmigr
sagitta
sectae
Carthagine
risus
diuturna
Auf
Nequ
Utinam
eut
##pugn
##urio
##ulto
genibus
genui
antiquam
signat
documentum
intellige
effecti
confitebor
leniter
Iove
mansuetudinis
felicem
duntaxat
Pae
Pac
Tab
mine
uale
##PER
inton
contrem
libras
decert
miseretur
elong
prophetica
duceret
collis
Video
##lax
beatissimi
turbata
praetores
femine
faciendam
cecidisse
Agath
captivitatis
xvii
iurisdict
Rufini
intermissione
Alioquin
durus
unxit
propere
incircum
##aptiz
145
gaudentes
ueni
admittere
radios
caterv
suscepti
Saba
steterunt
Sacrific
##τερ
mancipia
throno
tranquillitate
dubie
Gaz
Meli
sesc
##yre
##LA
##aminis
##uturum
##alli
##ensas
coacti
##ratu
apocr
##ubio
divort
insidi
scriptor
cogatur
155
ueniat
perduxit
nobilitatem
tollat
Sancta
inuenire
defensio
revelationem
professio
amnes
naues
decesserit
immateria
##ieri
##reg
##entae
##osae
utens
dijudic
infertur
excessus
insaniam
##ixum
extorqu
feram
117
miraculorum
culmine
pueritia
experti
daturus
dispensatio
sæculo
περι
duris
nichil
pcr
##iculam
pri
deque
erupt
##plac
nominari
distant
blandi
dulces
Constantini
cubiculo
commodis
celebrata
Obs
sinistris
pseudo
Burg
Nunquam
ner
##erici
##omum
unione
interpres
dominici
supplex
regnante
singillatim
Praef
statui
160
religioni
separat
ascendens
herbam
accessisset
incarnatione
dubiis
stipendia
Allelu
Fund
Myst
lict
mero
tax
spont
comminus
##itudinum
sumatur
arguere
accipiamus
judice
aperitur
perdiderunt
Impos
defensor
abstinentiam
pupillo
pejus
gignit
contempsit
Athenienses
Cornelio
norunt
##marag
bucc
cjus
##ensam
quieti
intemp
contine
legatur
dixero
##ormis
audimus
audient
audeo
vocatum
intelligibile
relictus
leonem
imaginibus
ciues
Maxime
iugis
Persas
coepisset
entia
Discip
Ham
Polit
cella
latum
##69
caud
bonas
venust
##integ
usquequaque
Them
appellatum
hujuscemodi
titulis
Parmen
tutius
exponi
coepisse
diiudic
tumultum
archiepiscopus
ubertate
Seb
μεν
##ILI
coli
consed
operante
mediae
circuli
viva
maximae
generale
succurr
benedictionis
providere
foeda
pascua
communicat
raptim
Inferno
Galliarum
Manichaeorum
Emm
Febru
Dict
πολ
##29
deerat
peccatori
divus
civile
vallum
diuini
praestari
sacerdotali
iuuent
subdita
absolutus
circumcisionis
Minerv
suprascript
paupertatis
menstr
demonstravit
##verbium
pelagi
hero
##απ
crit
obstant
certitudinem
liberalitate
conveniant
uolumus
irris
ingeniis
beneficiorum
Alexandriam
turpia
expectat
legitimum
scripserunt
tendunt
supposito
expedire
Herculis
Eun
##culis
facito
imponitur
concinn
discumb
fecerant
coloribus
creare
attingere
conjuncta
##itemini
xxiv
crudelitate
hypoth
includit
barbaros
Ciceronem
sculpt
Dana
He
Nar
libentius
acriter
##ove
debuerit
armatis
existunt
Marius
subiug
lectiones
uoces
##uosum
corporale
censum
instrumento
adnot
stimulis
recesserunt
fisci
##usum
intuens
comas
amori
credibile
ordina
alternis
negativa
senserit
probant
quantae
pennas
180
accidisse
divisum
Gloss
purgat
elementum
prorog
respectus
Enoch
januam
tarde
pedites
Cin
Cust
Nom
gut
##63
intentus
vocifer
doctoribus
missio
complures
subtili
Treb
depositum
fornicationem
benignitate
editione
lupi
innotuit
patrimonium
cucurrit
uictoriam
plateis
Hispanias
Ly
Oz
adse
arrept
interpon
deserere
intelligas
laudate
attingit
traduntur
præb
occident
superbe
confirmare
Leont
affirmat
Beniamin
loquamur
particulare
frugibus
obdur
effectibus
εξ
##lur
exitio
##ensionem
##assum
magnan
insulas
delata
grauis
probandum
uideantur
noa
reliquiis
offerunt
scribo
sufficiunt
existimare
subditus
subdidit
indignationem
##aphat
reverter
affirmationem
occisum
moriturus
Delph
taedio
##ritate
##uleris
utros
coaequ
habendum
##pressit
praesep
sequentis
distantiam
muta
Str
impedimenta
benignus
dulcedo
saluatoris
exopt
cauda
##uite
postr
filiabus
primitias
minui
proceres
latent
merentur
incipere
adorn
tolerat
videbo
obsequia
reprobi
tremore
evidentiam
noscitur
articulo
Desider
Episcopus
Rad
ausc
mitteret
##uissem
##issos
opper
agamus
deceat
##iensem
dedimus
creatis
monitis
donorum
studii
copiosa
gemina
impediri
sacrarum
coniugem
morbos
seminat
olymp
deuot
thesauriz
apocryph
HS
mug
##herc
##elo
faciente
intelligendo
sensui
Alpes
institui
affert
placita
damnavit
sextam
epistulas
##aphim
demonstrationem
inconstant
loquebantur
Judam
ancillam
adoptionis
monstravit
biennium
Lugd
##idior
sicca
##ustae
##isco
##uba
Augustum
beatissimus
criminos
Caro
pontem
possessor
cohered
cœlum
ripas
Agnosc
romae
Solis
ferit
tond
##itabat
Quant
habendi
sumi
indur
audent
obsist
probavit
exercuit
septing
reliquae
luminibus
praestol
fures
umeris
acciderit
tabula
gestarum
prece
nequitiam
proficiunt
temperat
pontifice
paenitentiae
Iovi
mixt
discrimina
mediocriter
Gentes
##peretur
##rea
idonea
regium
##upere
##ontis
tenore
equitatu
custodiae
lacer
fundus
pertrah
omissa
punit
##ENT
fulmina
perierat
incommutabilis
AM
cnm
joc
scint
##igere
stabant
volentibus
saltu
freta
usquequo
Ans
referat
attamen
175
Graecus
Carth
euad
oner
Justus
attribuit
perhibet
nonnullos
Quinctius
Surge
Commun
Iudic
MAR
Nin
bina
sider
vates
##49
##iciis
##aros
vidistis
nosmetipsos
colitur
transiret
sapiunt
vivente
fundata
arces
Aegyptii
metuunt
ruinas
pupilli
claudit
discretione
uirgine
Ariani
Muc
Rosc
mes
##enario
##oma
admo
erexit
recom
inveter
##erenter
alienas
conditum
opinionibus
Esto
dividere
quintus
ferrea
piscis
quinquag
inutiles
mansuetudine
draco
Arelat
AP
cata
fust
ficus
ri
##icuit
adgn
senatores
ambitus
uolens
quæst
lapsu
libertus
exposita
referam
stulte
Theodori
##eccles
supplant
Tota
Xen
##ulsu
##oprop
##ulibus
trago
seniorum
Siciliae
dilata
longi
iniquorum
tentationis
vindictae
ctum
nunquid
adqui
exur
maest
dominio
misereb
disert
tribui
publicas
nemine
Abd
infinitae
subditorum
Multo
provocat
vanitas
Episcopo
##ulfus
##erubim
Hip
Lyd
Mur
SE
##mir
##43
acum
manebit
confido
actionum
absentia
113
dolori
castr
fuge
##elicta
convertatur
exstiterit
capituli
concedimus
Apollinis
Mosi
iuncta
vilis
##arint
acut
locos
inventi
scriptam
communio
diligentibus
ordinavit
graviora
fundamento
octa
exponens
dextrum
instructus
Occident
tubae
Succ
05
bomin
##erentia
praeg
amarum
peccasse
decimam
insu
insunt
fecunda
corporeis
penates
indicavit
290
disputationis
transfug
digest
saepissime
Hildem
scribi
enumer
euntes
Populus
Barn
volut
veniamus
venefic
discat
flav
eorumdem
circulo
docendi
fract
##iferi
##iciendum
labitur
existentibus
uoluc
offer
exigua
instituti
##euntes
coronae
cernit
crudelitatem
nedum
conati
potentiarum
impendere
inquiens
demens
mutatum
cupientes
Gall
congrua
fraus
ludi
currunt
gregibus
facinora
aliquantulum
Fa
Pub
fient
ras
vario
##ment
##ander
modul
regionum
##elia
flatu
fletibus
haut
mandamus
pretia
supplicii
rapta
defunctorum
excipit
squam
quand
inen
##enarium
##olor
secess
impio
humilibus
rediret
colub
signaculum
nominavit
probabile
huiusce
165
Marcion
constituunt
Benj
seruare
Salomone
accipiendo
Serap
laqueis
peregrinus
inaniter
phantasm
Ostendit
debitorem
atrium
carminibus
Admon
alterc
Praedic
nescimus
ascrib
familiares
adfuit
aestimatione
caeco
Agg
adhibetur
pulcherrim
nigro
sacrilegium
Bethleem
##IM
unicus
sani
humeris
##ernae
extendere
leonum
furta
admittit
delectari
200
Contingit
puritate
faen
successione
pascitur
##ologia
ebur
rescrib
Spes
mixtum
Cyrilli
moderatione
adscrib
ripa
progenies
Altissimi
reprehendere
Ianu
lite
##han
queri
coag
patior
interiore
##oremus
glut
turmas
ultionis
directa
admisc
consideranda
conditus
occidunt
interpretantur
Levi
exstitisse
remaneret
solidos
interfectis
martyribus
inanes
tranquillitas
Dexter
rettulit
Male
Requ
##ugo
##urrex
fregit
immunda
Sca
quaereretur
videam
185
Omnium
laeti
baptizare
melioris
obiecto
amicitias
orientis
contemplativa
sponsum
remissione
seruire
meminimus
suavitatis
Urs
Deuteronom
Nestor
saluator
periculosum
satisfactionem
Innocentius
gusta
##iditas
imis
parta
usuc
vitulum
servant
privatum
stipulatus
defensionis
##itteretur
vehemens
obnoxia
Capitolio
utrosque
Dianae
Mt
SER
tre
##odoro
erg
paries
capillis
clang
##olio
docetur
putemus
honori
dignitates
tumulo
profertur
damnatorum
corrob
referendum
disputatio
geritur
Antiochiae
iurare
risum
sæcula
pudicitiam
maiestatem
adjutor
Accipe
Vult
uana
voti
##nr
##ulissent
dicatis
##ensae
erra
meherc
committit
concepta
servientes
huiuscemodi
sexc
licite
vicino
Salvatore
clausum
favor
##ravimus
Hebræ
Thren
privilegium
coeperint
benevolentia
Bala
puncto
##iades
##iderint
orantes
miseriae
Convert
exercitatione
adversariorum
fugerunt
quaerentibus
adsunt
successor
blasphemiam
aegritudine
vestigiis
gehennae
Intellectus
Diacon
##uisses
sanitate
resplend
incidere
clare
insper
moratus
auream
consequantur
transferri
consolationis
Metellus
recordatus
diuinitus
confiteor
Ian
rota
##imelech
##ecae
nonam
quiet
pecca
frustr
praedicans
maximas
collect
Utique
avunc
tituli
auferat
Actus
ecclesiasticam
##IVS
pagina
##ENTI
raptum
redemptio
pulcherrima
innumeris
pavore
Balde
Satanas
Totum
pinn
moderam
##ixerit
invasit
fretus
109
visibilia
generari
membr
agnitionem
uestig
tractatu
statuas
trahens
caecitate
satius
frument
Kalendas
Ambrosii
restitutionem
removet
sudore
arietes
deplor
Aux
lium
##ecerint
nonaginta
##ocumque
verax
incr
magnorum
puteum
petitione
angulos
ueniet
sexum
nascendo
exterioris
aufertur
eloquentiam
nudi
inclinat
##τες
affectibus
egregie
sepulchrum
recompens
Benjamin
foen
##uio
##18
##αυτ
##eriam
##atæ
intrinsec
habeatis
inflig
ponebat
profan
liberaret
patronus
##edictus
Apostolos
occidente
suppliciter
cada
auferatur
subtilius
cernens
congl
informis
astutia
Fug
LV
Vidit
Viri
ia
##pus
subrip
interiit
debuisset
creduntur
##ietas
deferre
##ophyl
vigilias
dilecto
tractu
successores
jejunia
devotionem
sancimus
praetereunt
centesimo
fastigium
##oprophet
Fruct
##icias
ada
deam
habuerint
imponit
caritati
ultimis
percuti
patrio
##ylla
finito
mittat
missos
exterr
quadri
promissis
tolli
palmas
aethere
peperc
Additur
infantem
##elio
cognomen
fortium
donata
errantes
socio
##aneis
pugnat
supplices
nares
expositum
flagitia
honestatis
consolatur
traditione
sagin
mercedis
harena
rebaptiz
enumerat
improvis
Nim
faec
promo
##anium
##osos
cost
ils
comiti
teipsum
nullae
circulus
frust
intelligant
labeo
afferre
liberatur
comparari
nobilitatis
rogamus
flagellis
uultu
inquisitione
annuntiab
syllaba
atrox
Baldew
Call
aene
dabant
tuit
##oem
##ialibus
deis
deitatem
deponere
##otos
##igitur
alarum
##ontr
extulit
episcopatu
tribuitur
Arius
palatii
heredis
honorat
cessavit
admonitus
Bruto
Habac
obsequiis
repleta
Aquit
Prophetae
fumo
Avic
Lazarus
Bre
auer
##tur
##uenda
##ATI
##icen
orandum
##ingat
digneris
lites
inveniunt
fallax
congruum
auxilii
rationales
leves
introm
pastorum
puniri
dividuntur
intellectuales
papam
imitantur
incorruptionem
hiems
hiemem
vanitatem
virginitatem
adhaeret
impugnantes
triplici
telo
rabiem
tramite
taciturn
1pr
Did
Lud
Soli
torum
##iditatem
tristi
Arri
terreno
optimis
propositionibus
ministrum
clarissimi
cultura
fingere
amne
egregium
percutit
consiliorum
offensam
subvenire
Quesnellus
PAR
inus
potuisti
conseru
velox
florem
remisit
fecissent
Princeps
judici
mutabilis
amborum
cupiebat
uocis
femin
cadent
familiarem
fortunas
obtest
affirmativa
murorum
accipienda
accesserit
ducti
fervore
Theodosio
despicit
transcend
valida
agricola
Restat
Vigil
oues
æt
init
##illes
locutione
inser
morsu
labori
##iemini
praeterire
##inctis
turbatus
privationem
ardet
desidero
moriendo
eligit
sublimi
Athenas
perducit
Cassi
requiescit
Satanae
repromissionis
##sius
##imul
##ibilitas
consper
##ingi
misertus
coguntur
uident
grac
##aneus
rapere
prona
nuntii
puni
desinat
venditor
Cann
Ton
##ημ
subaud
##iteretur
solebant
libens
amisso
numerat
aquila
significavit
studet
Mattheus
sollicitudinis
##ουν
caecum
eruditione
hospites
Antiochum
fulgore
reducuntur
praelatus
evangelica
avertit
harus
lique
lactis
sequamur
patent
solacium
agebatur
humus
formatur
praedicando
ingentes
portant
Necess
dissid
simplicibus
illicitum
convertuntur
nuntiis
##secro
praecedens
responsione
absced
Nicola
aethera
turribus
incly
lancea
inhabitat
Dir
Nulli
adquis
orationum
seruum
commisc
vivendum
Conven
profite
universalia
avarus
pervenitur
subjectus
plebes
Alexandriae
versari
aptus
ceciderit
uisa
triennium
irritum
consideretur
valentiniano
##ripserunt
circumcid
verisim
Dimitte
Om
Tria
ludic
##ικ
##asio
##issas
##ueras
maneant
##ontem
verberibus
creationem
militi
114
odoris
Eva
Isaia
mouet
Manasse
sanctificationis
exaudivit
sordid
crudeliter
Esaiam
Aprilis
maledicta
Georg
Vic
Vulc
herem
##OG
dicentibus
comitiis
reseru
constern
loquendum
beneplac
probetur
Absal
exsol
dicturi
interrogare
tutores
adulterii
Catonis
increpat
retributionem
vanitate
sponsae
serie
Atheniensium
auxiliante
##erx
inerat
##limin
abdit
habiturum
subr
operandum
vocamus
fron
deduxit
aurig
susceperat
satisd
aedificat
sonitu
renou
observantia
nubis
abundare
inuol
saxum
artifices
Gelas
Talia
aeccles
dabunt
##arae
##pto
##ipere
Quanquam
potitus
##etermin
differat
nouimus
aedium
deficiens
bestiam
resurget
vineae
fraternitatis
pestilentia
Mitt
##ah
##sent
iudiciorum
creatione
choro
praeteriti
Illis
prosecut
praemisit
assumit
confirmationem
aduert
perseverat
Cruc
horrida
discretionem
Quintus
circumspect
destructionem
Dixi
Eleaz
cruciatibus
Meg
Rogo
buc
##dec
praeoccup
##alim
genas
disce
##asce
accipias
universus
damnatis
170
canone
fundit
avibus
dilecti
oneros
VIIII
patietur
persecutores
permanens
Magno
dispensationis
narratur
deducere
diacono
imminet
dogmatibus
circumstantia
poculum
superficies
indifferenter
Porphyr
PP
Terr
ceru
##mos
componitur
aggreg
decuit
induere
##damus
vocum
factos
optare
admix
Salut
fundatur
disser
recipiant
defensores
consurgit
Hebraicum
argentea
contagione
Titus
##ulere
deesset
illata
commota
eloc
immensum
luci
chorus
damnatur
intellegat
augere
exiguo
aestimant
coronas
Hispani
persequuntur
dirigitur
assumptus
contumeliis
eleemosynas
basilicae
incolumem
Veteris
Bos
Ceph
sidus
##mentis
##uinus
##rh
adiit
##otibus
##rigitur
##opat
liberet
legisse
##epimus
actor
signatum
fruitur
negari
effecta
famulus
saevi
appellationis
vicibus
perveniret
cogitans
cadens
XXXIX
ascendet
suspicari
propinquis
militare
ictibus
comminatur
foveam
intuetur
nocturna
abscondito
Jordanem
Coelest
diluculo
obumbr
pseudoprophet
supellect
Mol
##chramn
##iniam
##edine
seruos
concedi
usuras
testator
accipiuntur
nocens
contractus
armatos
circumscript
appellationem
pennis
penuria
videar
impleat
oratoris
devota
frequentes
inuidia
pastoribus
cupiditates
nuntiavit
Legimus
insignibus
XLVIII
negligentiam
Confit
vineas
meretricis
Plinius
inenarr
Ded
kai
##17
##ype
##ulso
##omi
peruers
agas
agenti
cognatione
Adri
teneretur
dedere
uelis
plenissime
ordinatio
pedis
nequi
cogitet
parumper
addito
intende
lepra
Terent
##uræ
##ortum
correx
Anat
relatum
demor
contrarias
aequalitate
exsolv
efficac
sonant
inconcus
redemptione
##itivam
suavitate
responsionem
eleemosynis
adloqu
Nazar
κατα
Rev
##eriae
##itisset
##urri
exan
diat
contionem
conser
apes
amantes
aspex
defecerunt
viventis
timendum
pertinebat
vallo
aequitas
##ativi
efficiens
Resurrect
pretiosum
ludo
deposc
Acced
Sabelli
Daemonum
naufragium
incommoda
lana
paed
parenti
consu
locuta
indica
desi
##iane
judiciis
exercent
appellati
statua
offensa
iniquos
religiosus
Impl
definitionis
temporale
faut
exhaust
deserti
communicant
obstat
varie
Zacharias
Oceanum
Aes
Ram
fax
gall
tura
##alorum
exeat
coarct
abrog
facilem
dominam
tenues
dedistis
creatio
timentibus
motuum
hostili
##orrh
meruisse
Judaeae
caetero
aedificia
congregata
agnoscat
cupiditatibus
transform
conleg
praefecti
pulcher
impositum
Origenem
idoneos
includitur
claudic
PRIMUM
Dare
Iugur
dantis
potentiis
peccantes
venirent
dominabitur
decebat
##ordiam
deducta
donatum
Exp
longior
dimidiam
discipulo
conditoris
spectant
possident
inpud
380
thesaurus
monumento
Nestorium
proficiscitur
patefecit
Huiusmodi
stipendium
augment
αρ
##iari
##verse
impub
tenebantur
medias
formido
Priam
sequentem
loquentis
uideret
cognoscatur
differant
asseritur
cupis
caeterorum
mansionem
praecedente
sentiens
fornicatione
herbae
decepti
alleluja
adflict
Adeo
Vera
dinum
euen
##vs
##PI
inmod
potentis
posuisse
crescunt
creatore
##averitis
simillim
apparuerunt
mysteriorum
tutelae
dividatur
commodius
moleste
cognouit
confidunt
ictum
retributionis
Helias
Nestorii
deliberatione
magistratu
Lazarum
Public
cena
##itatae
praedit
concit
despici
Romulus
creatori
absentes
susciperet
invenisse
Maii
charissime
adsuet
sustinent
vindicat
asperg
Scipionem
Rufinum
hiemis
Sarrac
credidimus
amplific
AEgypto
immunditia
cusp
Relinquitur
Poll
tute
##leg
##του
##inet
##edem
conqui
solemus
commendo
putarent
chord
armenta
septim
ordinetur
diuid
custodibus
##incto
coniectura
190
magistris
caduc
multiplices
respiciunt
respex
clementer
Prophetam
objecta
Fabio
majestatem
expressum
peregrinationis
Jordanis
dioeces
Pe
tatis
##odus
habente
componere
quaere
venisti
venientibus
conclam
totas
epi
teneris
fracta
refulg
mutuam
gravissimum
pertineant
cessant
renes
deposuit
obsidionem
maiestas
aduoc
Neronis
Cognosc
domicilium
Volo
##acii
scirent
amov
simult
veniebat
novissime
attendere
reliquorum
210
corruptum
conject
obiecti
aegypt
albedo
triumphos
irrid
Creator
praediximus
Mithrid
Glossam
Sor
demus
##itæ
##imenti
eruct
stru
Iniqu
curs
contrax
verbera
famuli
112
generans
aede
praemii
externa
institutionem
Alexandria
conclusit
Scipionis
germen
harund
sepulturam
facinoris
juvenes
Stoici
Domus
leth
##anæ
##anarum
##utiones
adesset
##asum
conpell
##ulla
servet
iudicet
Scit
simulatione
compat
odii
separatus
catholicos
statuere
fallor
histr
percussa
triumphi
condemnat
incorruptibilis
eciam
iusserat
cathedra
Purg
Ux
##ibilitatem
comitatum
commeat
distulit
ultio
Mai
ueniens
subjectis
catholicorum
Agam
exceptionem
corrigi
incertus
dogmatis
corripit
administratione
senectutis
caligo
dissensio
Eud
HIS
uo
##cl
##unis
scrin
scutum
secern
amissis
necessitates
Anax
promisc
lucro
parvulorum
dispositiones
admonuit
participem
adhibita
propinqua
suave
Dionysii
psalmorum
æternam
Bald
dogmatum
Julianus
adscript
adepti
calida
metaphor
Gorg
Inim
Manus
dorsum
##esus
##iceret
utili
subvers
istarum
dominari
dominico
inspici
domni
nocendi
ambobus
manifestus
offerat
correctionem
pulsa
definitum
narravit
relinquunt
append
cerneret
falsitatem
##ρισ
gignitur
parricidium
scientiarum
repentina
haesit
Lap
diligo
Dehinc
sedentes
positione
venerint
tenes
##ernam
electa
Univers
deditus
imperatoribus
##aretis
contrect
apparens
captis
externis
Regis
honestate
rumor
sortitus
discretionis
injurias
aspicere
exsultatione
acquiritur
perniciosa
trecenti
materies
inaestim
Nicae
Spart
cs
##otas
##itatam
patuit
quaenam
interposita
stich
gratus
freg
ponentes
accipiam
emisit
praeterit
asserere
evag
eventum
enut
Videns
prohibentur
materiale
agnosco
Samariae
paternitas
translatum
penetrare
pulsat
rebelli
uulnere
lampadii
εις
Equidem
dabatur
##visse
##elus
habeantur
##ratos
pluit
planum
plaust
oramus
meditatio
diligi
iustam
cognosco
Antoni
gaudiis
agnoscimus
resurgens
##ologiam
plagae
egredietur
incognita
caerimon
gratuita
cellam
iumenta
##rit
##ulter
##pte
crines
malas
multus
fortibus
mediol
sequimur
significata
convenientia
vicinis
gladiat
mystice
subsidia
aduersa
iacere
propinqui
semetipsam
obligatio
Platonem
Hebraice
concurrunt
Chaldaeorum
Dedit
cutis
seditionem
##iterat
remp
persua
putantur
##iuid
miro
##imonium
reliquerit
intellegimus
missam
occupavit
Septentr
posterioribus
caesi
crebra
claves
controversiam
trinitas
adprehend
uiscera
Titum
gelu
xai
##θεν
inebr
##aneo
##abere
##ilitati
##estas
amando
colonia
##atorium
diluu
mirandum
Arver
contritio
studios
victis
quaeras
225
parvus
Planc
relinquat
canticorum
Venerem
commendare
deduci
Rhenum
haereditas
escas
stipulatio
correptus
uasa
inibi
##aluit
##ilat
##eba
poteram
superi
veneris
indesin
##itti
credenda
reduxit
discite
meditatione
profiteri
ingentia
permisc
adductus
clamabat
mentitus
persecutionibus
sublimitas
limite
occiso
elegerit
incompar
adulescent
conprehend
requiescere
improper
dicimur
acciperent
antef
specific
praedicandum
exercitium
##ublicam
lateat
127
aequalia
attendit
ordinati
ueniunt
Lucae
pecuniis
adjac
benedicti
scandala
ducta
confidenter
decipere
oscul
Bethel
immobilis
holocausta
rupes
suspendit
pecudes
chirograph
Gent
##odit
autum
propior
incit
antichrist
minimus
cladis
reciperet
vivorum
perfectos
##ricae
scribendum
accusatores
fluminum
revertatur
remanent
feceritis
Latinorum
piger
debitores
privilegio
uetust
Gaba
lumbos
Baet
San
##uebant
##icii
ade
exub
faciles
habentis
habiturus
libellos
superos
possedit
##ado
legio
minuitur
##iosas
teneamus
documentis
necessariae
Videmus
ignoras
195
efficax
privati
sorore
nuntiab
veneratione
adhibenda
frigoris
strict
falsos
sumptibus
concordiae
varietas
herbarum
conpreh
debitoribus
supremum
inordinate
Locus
sensitivae
Vindoc
Impossibile
Sur
Tanto
facientibus
aris
posside
confidit
decim
redinteg
cognitus
sequerentur
Scot
ueloc
corruptibilis
tentare
inmorta
exhiberi
XIIII
prole
revelata
Antiochi
inclinationem
repleti
lacrymarum
consueverunt
abyssum
Ruben
Cyn
Lic
Natur
Pec
tio
inacc
dicerentur
positos
libelli
tenebant
altern
saporem
##iantem
ducuntur
demerg
vigore
festina
censes
spectacula
praebeat
agnosci
Martyris
frigidum
verticem
abstinentiae
exorc
Babylone
risu
Cassius
inration
Celt
suspensa
Unusquisque
Oceani
idololatriae
arbitramur
Tanc
utar
interioribus
legionis
capilli
immundum
probet
mutato
fugiat
circumven
student
patrono
mittet
firmata
215
230
ponto
definita
oblatum
referenda
jacet
conficitur
metaphys
Ce
nactus
##pem
##emodum
##arim
##anio
tro
probo
Phaed
latebat
attent
revolv
240
confirmata
compositione
transfertur
consolari
abbati
assumptum
DEM
collegae
sepulcra
solemnia
confici
unctus
tuetur
##iscunt
##ientiæ
geniti
immensa
cognoscentes
longanim
corporeum
enunci
Marcum
Gallus
nobilius
Marcello
existimans
##ONE
##iaci
recedat
Turcorum
incolumis
stimul
Frater
qnia
egressa
dimensiones
Hieremias
Pud
ga
##uendo
##ectere
praeest
pecoris
peccantibus
graui
necessitati
misereri
eminus
materialiter
contrarii
calice
vallis
ambitum
scribae
conventum
300
remanebit
adveniens
perducat
eripere
effusus
cithara
Tan
rari
##enia
adult
videndo
annua
ostio
senibus
praeditus
conscend
agnovit
efficiat
confessi
omen
sollicit
titulos
cultor
levius
requirat
singular
umbris
successorem
blasphemiae
reducere
saint
canonicis
hastam
pusill
pullos
graece
auspiciis
Memento
erigitur
prouidentia
visi
utantur
atra
superis
sanctissimi
mortes
reclam
excidit
##posuit
beniv
praesunt
trag
diligebat
Ard
porticus
sacerdotalis
patronum
expost
laicis
ignoramus
concupiscentiis
definire
Contr
ornatu
mansiones
365
Chris
daemoniorum
deducitur
folio
gemmas
adinvicem
PHIL
Cycl
lectus
niam
vasc
##iunc
sanare
plantis
aggredi
##iasse
moralibus
effud
relata
plenae
subiectus
conditionibus
narratio
Iudaeus
Capuam
commemorare
caedibus
Daemonibus
Julii
juvenis
Baronius
Agamemn
##ortis
scap
infimis
localis
morsus
timuerunt
praedicamus
manifestationem
pedest
apparebat
205
antiquitas
laetatur
spiritalium
punire
introitum
clausit
remediis
reduci
cognoverit
psalmos
uirgines
sopor
Possumus
Pyth
Tyrrh
fatem
nutum
tart
##ais
##aco
dicentium
ila
##ineas
patens
infima
confidere
annonae
supput
putetur
civilibus
ferant
ducenti
cognoscendi
lucul
rectitudinem
praeteritorum
existeret
socer
perdet
thym
aetates
relinquatur
requiratur
impediat
derid
Antiochia
tormentorum
aegritudo
convivia
suffragio
severitate
distribuit
Helv
Jub
##psi
##υχ
inire
##entiorem
intenta
solutus
ans
obu
tenera
feratur
Phar
128
terrenam
Illo
canere
missas
censu
frequenti
commendavit
disputationem
replet
Persae
lineis
Virgilius
textus
suffragium
respondeant
contentiones
saltim
relinquam
Eam
lut
##onym
subest
##avisset
superemin
indiuid
clype
##positum
docebit
creari
##anni
respondeo
noti
generalem
leur
addi
completur
ardentes
observantiam
aestimat
reproborum
peregrina
adhaerere
unigeniti
excedunt
rabies
sam
sentis
##amentorum
##ibis
##idarum
connum
cara
urgu
probatus
famulos
liberationem
reliquerat
offerimus
Lucius
definitiones
fabulam
Brundis
sanctificatione
conclusiones
perhibent
desinunt
maledicti
pristina
contrarietas
nocturnis
confiteatur
indubit
Nig
ον
intermin
decidit
vitii
discer
fortissimi
immundus
famulis
dolis
pertinentes
ultimi
nolebat
agnos
Libani
Later
ornamentis
postulavit
##itorio
##itorium
cohors
Carthaginis
perturbatione
momentum
hymnum
abstract
identidem
Fam
Rich
##rina
##onios
##ques
##quod
##ubium
superatus
peccavi
constaret
uidete
##atha
existentia
diuinam
sextus
uestros
Plane
purgare
molestias
promptus
suffragiis
Fabric
Nicomed
incolumes
verecundiam
centurio
patrimonii
pii
paras
comis
allic
alexand
conferat
despex
operando
audias
flevit
dignior
judicet
ducens
##ricibus
exspoli
##rime
uestras
consumit
subduc
ornata
captivi
consummatione
Calli
uincula
incorruptibile
prostratus
amittat
laedere
Je
##inensi
peracta
posuimus
venen
inducta
discre
immemor
dementia
condon
comparare
libertati
gestas
pietati
divisionis
contemplatio
voluptatum
repetita
istiusmodi
objurg
Iulius
kalendas
Theodosii
compertum
iucunda
clavis
Cypriani
iuramentum
gula
lilia
vici
##olorum
animantibus
sanctæ
nequeat
activam
diversam
ueritati
codicem
oriatur
demonstrant
torque
jejunii
Boam
Scipione
Edom
acceperis
Suscip
inprud
usucap
Bur
Ius
Zeno
questus
superavit
credatis
affectio
liberalitas
saeu
altitudinis
desideras
parvulum
prudentibus
repertum
trahi
suscepto
conceptio
Sermo
##τικ
majestas
valeamus
spelunca
παρα
diffunditur
pelle
rent
##das
##anias
##ope
peccantium
usuris
continentes
continuis
ingl
ostendatur
uoluerunt
furem
conscrib
festis
oblationes
melioribus
versantur
promissiones
adultera
tabernaculis
propinquo
paternis
narratione
Novati
immortalitatis
immutabilis
superstit
Creatorem
Teuc
satisfactione
Phoebus
Pilato
ebrietas
lumbis
labefact
##har
perisse
coenam
solacia
obf
##entesimo
multitudini
vestrarum
doceri
novissimum
ocius
emerit
mensas
Antig
victorem
congrue
lectis
laetific
praefatus
tollatur
sorb
distinctum
insignem
pergere
pignori
instructa
salubri
severitatem
pronuntia
diuites
destruit
destruxit
peculium
mansuetudo
uertice
matutina
typo
patrocinium
Fulv
Sulpicius
aucup
diam
hed
exitia
alit
divisi
debui
fueritis
curarum
gloriosi
valeret
aequis
saeculari
sperant
corrupti
stultitiae
persecutiones
adhiberi
cubile
depraed
clericum
dubitari
conservare
imbribus
praecedentium
legitimo
pulchritudinis
dirigere
gentilibus
cervicem
unguentum
conjunctio
redimere
murmure
dissimulare
bovem
pœnitentiam
cognomento
mites
##pti
propemodum
reser
insulis
occurrat
processus
factura
miserias
generationibus
convenient
memoratur
Christianam
honestas
Bruti
ova
falsas
perseverantia
ibant
saeculares
peregrinis
pluviam
Orientales
lauac
gymn
nive
##imoniam
##imentorum
conplex
peritus
soleat
alg
orabat
aspect
principalem
iudicatum
exercitat
haus
ultione
rapitur
320
descendisse
persecutor
inueniri
confusus
cedunt
Germani
instructi
caesis
detrimento
Baal
Utrumque
Gordianus
sosp
Hyr
Peri
dn
fimb
##uso
predic
libellis
fida
debuerat
cladem
discimus
insit
##positis
necessarii
Anna
emissa
significent
mirac
studeat
expav
umor
admisit
responderit
restitit
subjicit
lectulo
nobile
260
aufer
amplectitur
Macedon
affectione
maligni
rami
Hierosolymit
contradicit
excommunicationis
adiutorio
scientiis
distingui
##espont
galli
consanguin
dorso
hypocritae
Factus
LII
TI
rarum
##ρο
##iso
quan
##ecerant
##quin
habuimus
solas
viduam
superadd
peccaret
semis
minuit
confertur
elationis
elle
humanæ
petita
effusa
ingentibus
altiora
socia
Omni
arbitretur
separatas
comparata
ponti
definitur
oblita
dimittat
demonstrari
durat
ibit
pignoris
adducere
idolat
Hercules
intellexi
adolescens
proconsul
Remigius
Gentibus
Hym
lymph
##mam
##rant
deerit
##olarum
sei
amice
operationibus
nominare
foramen
simplicis
constitutio
precatur
Israelit
cadet
inmacul
experimento
calciam
##τας
inscribitur
adduci
aerarium
rudes
concubitu
provenire
Ignis
Samuhel
Cist
pae
##ideris
##perb
spur
subrept
alex
alvum
dominicam
conferri
discant
deductus
Eras
grauius
cogere
##ueh
munita
Galatas
ignoret
difficili
capitulis
abscondi
sublimitate
proprietatis
Macedoniae
imposita
adducit
perducere
cohortis
Tiberius
silvae
prouinciam
horrea
Narb
cist
##qne
##εβ
peror
sedeat
sitit
inculc
vestimento
diversific
evasit
denuntiat
plusquam
delectantur
ueste
tacito
Plerumque
sonitum
ornamentum
dispositionis
325
315
desideret
horarum
cernis
temperantiae
traditio
sectam
iniusta
introduxit
sagittae
destruere
trecentos
cucurr
Chilper
effigiem
exaltavit
Front
Hactenus
phet
quit
conlig
##ira
divert
##orti
atter
accub
infusa
morae
collibus
universales
paci
quaerenda
oratorem
inmerito
##redus
##USTI
divisus
385
nuncupantur
perspicue
fingit
textum
superstes
##ARUM
acerba
exortum
supradictis
Damn
Ora
Sang
ceperunt
pabula
conteg
nece
dominicum
discedit
suspecta
##illelmus
responso
##oriarum
liberae
perdita
dirept
avec
tentat
observandum
fluminibus
coeleste
hortum
molestum
prosperitate
interfecto
afflu
praedestinationis
oppressus
resurrexisse
Ira
Nas
Ro
Tarent
bys
cymb
##norum
##αθ
##quaquam
##olentia
utebatur
facilitate
animata
excitare
circu
doctoris
fructific
220
adfert
##LIO
brevem
ludere
##rumpere
revelavit
consummata
XLVI
contempta
translatio
saevitia
restituta
Basil
Symb
brachio
sestert
Hippon
Aen
Dulc
So
consulta
secula
confecta
defuisse
##ripsi
retent
placuisse
portantes
canum
suscipe
audiuit
tristem
nuntiat
albis
##iaco
exoritur
editis
producitur
cohortibus
industriam
circumspic
discutere
pertimesc
Iosue
praesupponit
cadauer
Facta
Miles
ως
input
##abeth
atria
inserv
transisse
transgredi
iudicatur
famulum
quantas
armata
percurr
offendere
gravibus
##itamur
clarissimo
definit
testamenta
absolvit
##eroni
trahat
praeparare
durare
hortis
eligitur
baptismus
otia
defunctis
LXVII
organa
ineffabili
hebdomad
paralyt
Crat
Hal
Pen
##use
uterum
##ilas
vermis
##veritis
caperet
patebit
praecell
Atl
nesciebat
Cha
pugnatum
conditorem
caeteras
congregatis
obtentu
occupatus
confitendum
eruditi
itur
deprecatur
desperatio
excelsus
immortalem
tauri
sacrilega
concipit
consurgens
Eusebii
periculosa
acceperant
hiberna
fenestras
Rachel
Balaam
cles
ueris
##omit
habitas
haberem
praefic
activae
##atorio
##iantis
tradiderit
intellegunt
285
uiuunt
##RIS
revelatum
exceptio
horror
brutis
Novum
sinistrum
monstrare
text
Hercule
προς
parabola
longinquo
Homines
Martyrolog
Diss
py
pod
scd
##escentibus
redeamus
disponere
ferus
falsus
uiderit
dictio
intellegamus
restring
sperans
infinitus
rapina
congregationem
mansio
constantino
singularibus
indigere
percussi
reducit
uinculis
ductu
Opus
vesperum
cognomine
sciatis
commeatus
Tub
Tract
pore
piorum
taur
##minum
##isis
quoe
amantem
acul
ignari
praeses
transvers
senserunt
dele
aucta
laudata
ediss
retic
123
dubita
infirmitatibus
religiosum
occidat
prohibitum
accusatione
repertus
baptizantur
jussa
desidera
venerabili
iacent
Obsecro
evangelicae
pessimum
voluminibus
acquirit
excedat
ueteres
ingressu
Epicurus
Nonnulli
aenigmate
depopul
Caph
Seg
Sola
averter
ll
##iculae
##abilitas
obmut
accessum
multiform
##ramet
aspici
creauit
dignitati
studuit
auctoritati
corruit
mares
observant
exhibetur
compositus
appare
sumptu
paterno
inclinatur
conspiciunt
pestem
collocavit
uulnus
murmura
aggere
aether
satisfactio
Historia
Illyricum
euidenter
Lav
Nili
aulae
##sisse
##xi
##ις
##atig
##istus
esuri
##avisse
semita
defertur
negatione
visis
haer
damnatos
expedi
vicini
235
tenebitur
370
expectare
Infirm
Hebraeis
variet
ibis
calumnia
solemnitate
exaltabitur
portavit
contrarietatem
patefac
Timotheus
Galilaeam
cancell
Reliqu
leni
secta
##sorum
##alur
accensus
regalis
indut
audiet
excer
teneo
testa
donationis
nocent
latens
pacta
mollia
consumpta
contingeret
omis
existimas
tentationum
spectaculo
absolvi
inuid
robora
sublimia
otiosum
Redd
opportune
popularis
Antichristo
turrim
quingentos
Chloth
Dens
Nox
felle
##enium
##inat
##alter
##aba
habendam
paravit
sumunt
antem
transmis
dignis
##urge
tribut
redderetur
scriberet
Cham
Iouem
subiectis
indiciis
relinquentes
honesti
codex
deficiet
patiar
ovem
defendunt
tempestates
indulgentiae
serpentium
tribuunt
suavitatem
Servus
omnimod
deprehensus
Voluntas
rempublicam
Bea
Byz
lustr
τοις
##MO
##irp
peruer
##ensur
##adi
decenter
epil
##ietate
praedicatoribus
promittere
laetum
adjungit
iniuriarum
rapi
caelestes
convertantur
##euntibus
determinatam
aestimari
obscure
vertere
remissionis
calamitas
infamiam
ulcera
ianuam
praedixerat
plaut
Capt
lani
trip
##cat
##TUS
##usis
subuen
animale
alae
incut
incant
concidit
concurrere
vitandum
elatione
cogantur
cogente
judicabit
hostiae
substantialiter
metas
Matt
convenientiam
errori
accidat
separati
oblatione
iubemus
cibaria
subdens
Brutum
breves
colligi
pavor
parietibus
simulacris
praenunt
Tempore
medicamentum
fasces
Anastasius
littore
cadavera
lavacro
misereatur
).
Trip
he
jurg
lustra
tulerit
##ereris
##edis
##escerent
sumat
excessit
insistere
miseriis
docendo
moneo
grana
expand
scribe
conscripsit
efficiuntur
arcad
gestae
relinquo
iubes
singularum
cupidus
hospitem
revelatione
consummatio
creditori
humiliatus
redemptor
collegam
Incarn
April
nervis
sideribus
Lect
Vetus
ccc
tund
##ner
##lestis
ades
##pert
coac
legationis
##ullum
ostensa
sensibiles
tantundem
Grec
pertineret
perdidisse
consequenti
ingenitum
condition
iubent
admonere
qualitatibus
Theodorum
praeparat
digitum
habitationem
Habent
quinquages
christiana
cruor
restituat
administrat
incredibili
facietis
præcepta
Nestorius
advertere
Donatistarum
Ic
Paph
Tem
##eor
pere
periret
progred
contulerunt
idi
venas
##busta
suspectum
frena
scriptae
pertinentibus
Abimelech
147
Interd
confirmavit
indigni
postulabat
captivis
Arianorum
Pastor
Ruff
ctus
pavid
##acitas
##iliarum
curator
##erne
nego
Explic
diligenti
liberata
collaud
denud
sufficiant
ponte
Marcelli
catholicum
digiti
barbam
Crucis
repletus
serpentibus
narrationem
particulares
interficit
plantae
Benedictio
Thessali
mereantur
organo
Pharisaeorum
neglegentia
indivisibile
Nath
Spar
nid
uino
ægr
##μον
prœ
incendit
inferri
carens
divitis
decies
essetis
invitis
humanos
petentes
editum
doctorem
nescius
epistulis
constitutae
sperantes
destitu
poeniteat
cesset
adferre
praedictas
415
schola
receptis
scitote
instrumentis
calamitate
Emped
inquisitio
assidua
peregrini
lavacrum
commixtione
LVIII
TR
lavit
uiae
##ier
##cript
##lixit
##idissent
##ensione
##ebra
interiores
accessus
acule
decimus
fortissimus
formatum
imperiis
iudicari
abscis
traderet
errorum
optamus
245
ciuium
Timor
revocari
XLVII
niger
Attende
risibile
egregia
##ρωπ
exinanivit
Chananae
Burgund
indesinenter
Puer
eamus
uicit
##pius
##ities
aditu
perplex
uteri
##ripe
scri
incedere
debentur
##uxisset
poneret
dolorum
rectissime
dubitas
paterentur
tradat
addisc
pallio
expoli
succedere
responderet
indignos
extremam
405
430
425
admirationem
procuratorem
Galliis
Diffic
conflict
fulmen
conjunctione
Athanasium
abyssi
Vergilius
biduum
Oc
Sch
uariis
##eon
##εως
##ison
conprob
##iluit
veras
solatia
orandi
audeant
iamdudum
testatoris
moti
significatum
munit
correctio
Lucifer
delectant
taceam
Marco
conjungitur
flagitium
honestatem
fatentur
pudenda
##errimo
excusatione
500
premitur
miscere
Ezechias
Frustra
Magdal
Regnum
aspice
inhaerere
displicere
acceperint
utilitatibus
Dignum
##uffl
Apollinaris
Bore
LU
Luna
dandam
mers
ϰαι
adplic
seditio
habebitis
scies
comitibus
plasm
obesse
resper
manebat
excidium
praecordia
servilis
docuerunt
putares
honora
##areth
Altera
proflig
editus
uolat
Petre
contingunt
congregavit
Manlius
obiect
honestis
solvendo
condemnatus
Antonii
concedat
didicerunt
Columb
##OSI
pluviae
masculum
patrimonio
##ranse
tellure
Thessalonic
febris
natam
##ortus
##ige
staret
##alio
modice
nominatus
Quodque
pharis
dimissis
asserens
scribas
admissum
prosili
Judaeam
molles
institutio
dimittimus
descendentem
duxerunt
410
Orph
Concup
fragilitatis
eatenus
adulescentia
sublatum
gustus
iuuenes
trecentis
privilegia
Quartum
Licinius
Diu
hal
inlud
##enen
##iden
sedent
necis
peccasset
##escentes
latine
terrenorum
generandi
ingrati
mulierc
expend
separatis
perfecit
oppidi
250
levibus
inpugn
395
nefanda
temptare
benigna
solido
Capitulum
dulcedinis
volumen
Gede
TO
bot
gros
λογ
##her
##τω
perrex
alimentum
##andarum
unico
propit
orans
opum
oppressit
divulg
debitis
dominationis
minum
recessus
praecurs
inserere
##posito
delere
turg
permissa
innuit
custodias
aetati
protectione
##uosus
cogitavit
tractat
##LINI
Martyrum
caecis
xxvi
##AND
obligationem
##ENS
excellentiae
conceptionis
##ocrates
frangit
Aetoli
incurv
suspensus
hyacinth
Vitam
crap
exegit
habendo
paret
solitudo
amantis
##rogo
secundas
oracula
gratiæ
redhib
praecedere
misisse
ponimus
domorum
mutus
clamant
condere
protrah
salvam
catholicus
exhibeat
dispositum
occupare
disputationibus
Glor
adulteri
angusto
insigni
Boh
iuvenum
demonstratum
hypocris
Sext
interfuit
discordiam
infidelitate
ianua
segetes
Aethio
effigies
Ling
ferc
hinn
nate
tc
##oi
##iciet
coacta
propuls
reginam
inserta
remittit
constabat
##upta
timeret
passioni
fugientem
scribendo
victimas
congruere
clamavi
acceptio
omissis
pravitate
Decalog
celebramus
improbat
penetrat
cervicibus
vetustas
adimplere
scopulos
utilitati
Gabri
derivatur
Hieremiam
stagna
stylo
Hellespont
metaphorice
.................
?\
ME
Umb
lenis
tig
##MUS
inplic
corrum
comam
stratum
sanctissimus
dominationem
audes
praecogn
miserr
prodere
portans
geminos
cogitari
adsist
levitate
390
purgari
fastidio
proportione
coniunctione
columbam
virginitate
Recogn
Episcopi
quadragesimo
bipes
Politic
Hyrc
Ves
leto
mella
##ensimo
abit
trina
arund
oremus
##ictam
conch
conciliis
vestium
##iciebat
judicavit
perfectiones
ingentis
aperti
viper
arcae
precario
fallitur
durius
Interpret
respuit
tendens
haeredes
recusat
transcendit
contradictionem
nummum
Divinitatis
Major
immater
profutura
Pipp
Zeb
fuistis
haed
puram
##elph
conput
abus
##verbiis
praeemin
comoed
tractum
##inax
paupere
morari
principatu
transgressus
extim
Congreg
Psalter
compati
custodem
captam
respondebo
habitabit
bibat
335
fait
campus
ampla
520
servituti
peste
decipit
India
nuntiata
fermento
inspicere
CCL
quoscumque
ef
##uui
##icun
initi
##unia
perh
##raud
positas
vitem
miserit
donatio
considerantes
pervenisset
praefin
inuenimus
confitentes
susceptionem
hucusque
Septem
sordida
ibunt
uirginis
administrationem
ripis
Homerus
agricolae
felici
Galilaea
strage
interveniente
elephant
Ennius
Philisthim
Anaxag
DC
Dco
Helis
Nor
mire
τοι
##onorum
##etarum
##angitur
##estae
##itatium
bonarum
divo
specula
##ascitur
cognosce
generos
palat
integri
octing
observatio
Venet
praeparatio
competenter
deposito
subscrib
clauditur
rescind
aegritudinem
recedunt
fraternitatem
inquisitionem
Palat
domestica
cautela
Posset
Possunt
CCX
αλλ
Platonici
##ipatet
cecinit
cæteris
Quaecumque
citer
quati
cumulum
intret
contentum
solst
##exum
memorem
putabatur
##iferis
certiorem
mirantur
castramet
optum
superborum
perfor
255
accusatus
lignorum
occasiones
inuad
Brutt
Calab
editio
fluvio
dissolvi
peregrinos
suadere
contentionem
primogenitum
vapor
Synagog
Iordanem
Pach
SO
bum
nibil
##uentibus
inferna
activum
ponamus
propheticum
conveniri
evigil
131
exsul
auctoritates
copiarum
acceptus
##ichi
fortunis
adflig
renatus
admonitione
secretis
Acta
elemosyn
introitus
neglecta
scripsimus
consortes
imminere
tranquilla
Aurelius
aduentu
proveniunt
absurd
jussione
praeclarum
incorporea
furtim
adoraverunt
uehementer
obprobrium
Emmanu
Fulg
Sue
cutem
functus
jumenta
##enarii
coal
solitudinis
acuta
commisso
crediderant
remissa
elap
tribuum
doctis
addunt
compulsus
Galba
philosopho
Judaeus
##uosis
subsidio
Aegyptus
Regum
abundantius
legitimam
Nullo
committi
lamb
aream
arietem
pannis
##robique
olympia
AB
prata
imitatus
securum
pateris
anime
supernis
commiss
##fecto
Anc
petrae
tertii
contracta
moventis
propositis
intellegis
clamoribus
salvatoris
perferre
fabrica
dispositis
340
dormiens
persecutoribus
insidiae
barbara
creditoribus
emptorem
detrahere
persuasum
Antichristum
Piso
ATTI
sedecim
albi
orestis
##enturum
frons
Conv
uiderunt
contritione
mutuum
141
furit
silentia
Evangelia
275
ardere
deficient
aegrum
sortes
conservationem
Istud
musica
concludi
xviii
ualere
Papir
oblivisci
aliquoties
diuitiis
immobile
constituerunt
Imppp
sentiamus
dignoscitur
exacerb
Agr
Mans
deitas
intue
comitatus
##ulte
superari
agebant
##iatam
mediantibus
monuit
119
Persis
metuo
celare
cultoribus
Tertulli
divisiones
composito
frigidus
jubente
Cresc
coniuges
iuventus
discreta
permittat
textu
audaciae
Minuc
canonica
Hannibalis
removetur
Poenit
nauibus
fateatur
Celsus
Dixerat
abyssus
Levitae
pinguis
Auster
imitatores
praeputium
Bat
Tale
sy
vinctus
##bam
##uriae
##enio
habuere
pluu
##adium
concitat
impatiens
latuit
universitatis
munitiones
placeret
consulari
dissenti
magisterio
vincat
consumps
adorant
imbrem
Achab
incerti
Socratem
conuenire
consecrationem
Miserere
ignosce
adolescentia
centuriones
inclina
pubert
fortuito
Ravenn
Crem
Perd
##ηρ
##raverit
libram
legionem
manentem
usuram
novissimus
sentientes
luceat
capto
culmina
silentii
tractaretur
dimittitur
toro
excludere
tendat
injustum
Assyr
pristinae
nocturno
transeuntes
praeclare
repperit
terrestrium
Martinus
Quicquid
Crisp
Dialog
Madian
Hildemarus
Masin
Nep
Sust
Vobis
pare
adgredi
peractis
##iplic
animantium
stabilis
procella
aeterne
ducentos
Ismae
territus
rectorem
##rosa
lapsi
prospexit
pertranse
destitit
veneranda
nudo
barba
obligatus
Donec
familiaritatem
lucernae
conuersus
iuramento
resipisc
AC
Ho
Pisc
Templum
Ub
tin
tegit
uentum
##serat
devit
##unam
##uerem
##iterint
serua
divitibus
##raeque
docente
##averim
##iuimus
116
ducebat
latebras
circumsc
ordinatis
ministeriis
coniungitur
Latinus
assumitur
femur
cantare
inpend
Leone
LXXII
Simile
benedicite
piget
concubitus
Herodis
vestigio
exclamat
insequitur
omnimodis
facundia
ATTICO
Prat
uictum
##erans
##isio
sanis
stilo
##escum
legendo
volt
sumuntur
loquimini
##illarum
instans
effod
diligitis
missarum
ueraciter
conditam
Leon
falsitate
humiliat
inopem
consensit
tyrannidem
parcit
magnifice
molestus
additis
fluunt
Epistolae
stagnum
imaginatione
rotund
torrens
Orientalium
Commentator
Flaccus
haruspic
Tig
Zeph
pila
##ecam
##rau
tuom
quoi
securis
stram
##ihus
deferri
freto
imperi
regnet
labiorum
laudabiliter
emittit
mutantur
portarum
ensis
impleretur
turbatur
convol
solidi
nascetur
pretioso
festi
caecos
desertis
polluta
tempestatibus
celebrat
horrore
invisibilem
expediat
##ortavit
fixum
instruxit
repudi
comprobatur
intestato
thalamo
indefin
fossa
##ll
##οδ
seditione
antiph
confer
principales
supponit
putre
miserabilis
instare
plurimae
latam
mensium
particula
oppidis
gemino
rationum
280
aedificiis
eloquiis
torcul
fulgura
Saule
incarnatus
vocabulis
coniunctum
peregrinum
distinguere
infunditur
vcl
Aquilonis
Juven
postridie
CI
Haem
Picta
rav
sym
##aient
##andr
quidque
##ivas
aridam
incent
infortun
##agi
contraxit
formula
grauiter
praedicabat
angulis
statuerunt
Martem
nolentes
uenerat
periculorum
fallac
Samson
propinquum
seruorum
scripserat
cuicumque
anceps
sublatis
persuasione
innumerabilia
succedunt
aratro
immunis
supernatur
Core
Fuerunt
Hect
Nativ
Sint
lxx
ratis
##onensi
##entioribus
amamus
virili
redeant
##pliciter
diligentes
rete
circumst
Antipat
propositionum
ministrorum
avus
arbitratur
cogitant
intrabit
Regem
ambulemus
ruunt
redempti
nigr
attributa
intendat
maledicto
Socrate
respondeas
instruere
Cornelium
corrobor
Memin
gerat
##λησ
##edibus
adpar
coroll
tremor
librarum
serius
commodo
audiam
spirat
credidisse
Adv
cognoscite
pertinacia
assurg
separationem
existimes
habitabat
statuae
310
tutorem
quintam
adulteria
420
ensem
coniugio
Catonem
deputatur
processu
animaduert
contrahitur
masculus
paschae
theodosius
refectionem
superficiem
ascensionem
Opera
Forma
Cleopat
Pacem
υμ
##ersit
veritus
tred
etiamnum
velamen
videmur
operationum
ignora
transacta
##pha
timeant
ducenta
ultimae
munia
148
diuinum
correctione
finx
aestas
vigor
270
relinqui
haudquaquam
fulgur
molestiam
perseverare
didicisse
repugnare
ambiguitate
crescente
Edess
intervalla
Andr
uellent
Dixerunt
Paulinus
Donatistae
toga
undecimum
cardinalis
Rabanus
Bethlehem
Jejun
Nymph
Veron
natae
phr
piper
##λι
##atiab
suco
proveh
tuli
gene
coloni
proferunt
129
Max
noverant
iussis
misericordes
condict
possessionibus
Quamdiu
Aegyptiis
pectoribus
##etipsum
successio
haereseos
ligat
postrema
moriturum
Diabolum
osculum
adnunti
discordiae
unctio
nexibus
ebrietate
exarsit
resuscit
septentrion
candelabrum
Nequaquam
Pic
Tel
##dos
##itoris
exaequ
viderem
stellam
oraculum
conferunt
asinus
auditorum
humor
transivit
sequar
salutationis
personaliter
rectitudo
ambos
optimam
condiderunt
liberti
oneri
possidebit
determinavit
deficiant
praeparata
dextrae
perditis
Prophetarum
haereditatis
amaritudo
erigere
infidelitas
Crasso
rebelles
trabes
Bellum
IM
Malum
iec
##tia
##inf
##anensis
steter
atram
similium
##eratos
curari
vestitus
serviat
##iciendo
accipientes
ducentis
miraculi
uocibus
gemitum
Marcellum
infinitis
honesto
##araug
excusatio
peregre
derelicta
reverend
revertetur
paterni
misceri
influ
recordationis
innumera
710
sæculum
iracundiae
obdorm
strenue
eripe
Cotta
Eliam
Hun
gord
maev
##ματ
##icon
##inianum
##ulistis
intenti
scin
interire
quemcumque
recitata
moriantur
delici
sapore
vivamus
miserorum
laudatio
anguli
Phoc
ingerit
metuere
dicturum
offerens
expulit
scriba
praecipio
intellegentiam
vicerit
vigorem
habitabant
caduca
demonstraret
asperum
admirabilis
transmar
praecedat
Septimo
cruenta
Serg
usurpare
ingressa
ineffabilis
Praem
sarcina
theologiae
uniuersis
Belg
Lamp
egr
prest
##edinem
conuic
intex
faceres
habiti
consen
concilia
cladibus
nominant
##ixerunt
iudicandum
creatae
Exerc
dolens
uirga
pertinaciter
altaribus
addatur
captos
gravissima
delectationibus
Assum
fabulae
occultus
nutrix
dormientes
Agar
Bened
steriles
ecclesiastici
perditione
deducit
sinistro
collegio
suggerit
comperimus
mediocris
ulcisci
antecess
prisca
Aemilius
rescriptum
sceptra
dinosc
insuffic
Grav
uices
inpar
diceremus
##andro
coma
necne
seruo
operas
curandum
##ifi
delatum
sapor
Perm
saeuit
victo
foet
tribunali
admonitionem
adorabunt
exspecto
440
illuminatio
gubernator
cruorem
uincere
incorrupta
retributio
vineis
acquirere
degust
dotes
absurde
longinqua
spargit
Sodoma
possibilitatem
uva
##orob
para
cryst
commensur
Addit
tenuisse
negaret
Err
regnorum
proferuntur
cognoscamus
reddens
apparatus
Secundam
canonibus
responderi
avoc
simplicia
##erebam
copiose
uocauit
sonare
flagello
330
tutoris
disputat
Leuc
competat
dexterae
##secus
proponere
premunt
grandia
supposita
uirginem
Claudium
extraneum
Carthaginienses
excessu
tetigerit
cyath
Sacrificium
fatemur
Beaus
LIV
fori
matura
pil
##ες
##hing
##υγ
injus
sucus
##ravi
erecta
stil
vocatis
defenditur
timebat
nocumentum
lateri
asseruit
plenis
altus
compag
salvatur
censuram
flagitiis
tribunum
360
temperantiam
turpitudo
solvat
dubitatur
tribuatur
assignare
pupillus
pendens
incertis
aspicit
germina
Tiberio
excipere
sæculorum
oblivio
remanserunt
obnoxium
suscepi
instituere
Demetrius
sepulchro
Jonath
Bonus
Lot
Pyrrh
TRA
drach
uae
##erationem
##inii
##verentur
soluto
docuimus
senum
asser
existentem
dictatorem
equitem
firmavit
praefati
subtilitate
pascere
Consul
concordat
defendat
Comp
tempestatem
adveniente
Macedones
Relig
properat
Divers
remitti
Troia
extraneis
trinitatis
Oceano
pabulum
Sufficit
pellibus
Maec
piam
pios
inrig
predict
##abilitatem
facibus
mais
legatio
debeam
audissent
elud
docentes
probabiliter
Exodo
continuus
Peripatet
mutatus
choros
prodi
enit
palaest
praecipiti
quippiam
convictus
vicinum
profectu
consumitur
levat
exhibent
referantur
ambulans
cupidine
pronus
##εια
roboris
fraudes
candore
##ANC
nigri
congaud
cætera
lupan
aliquotiens
Laudate
ανθ
AEgyptum
opponuntur
Judæi
Duod
cathedram
synagogae
Gracchus
duodecimum
peterent
Quicun
Callist
Iub
ferebant
sel
##iaris
##vae
##RB
##ise
##iciae
##asius
utebantur
utraeque
unitum
sicco
consoc
amictus
primatum
infantium
audientiam
hisp
ferentes
fermentum
##oriæ
Arm
122
138
collectis
enc
peccatore
cruciab
constitutam
confessoris
habitet
praefuit
levare
interrogatio
congregat
compositi
poetis
admiratio
paganorum
pomponius
tegmine
severitas
repraesentat
moderamine
Mare
hiat
lang
pæ
εσ
##runt
##vos
promin
##ulæ
adg
infant
dominicis
semitam
decepit
epig
moratur
colorum
transierit
certos
uidimus
Phal
miramur
celsa
utrumne
##anei
paucioribus
accepti
baptizatos
adiunxit
sacrificiorum
explere
iacentem
libidini
desperationem
emendationem
adulescentem
promptum
figuratur
τους
##OMIN
descriptio
utilitates
Exsult
benevolentiam
obliuisc
inaccess
COR
Vales
quœ
##ulenta
rea
##ebrae
amens
amanti
sto
still
anton
debeatis
curant
elati
format
Prec
imperata
probaretur
simulat
diligatis
Therm
salutarem
ultor
aequanim
rectitudinis
fugiendum
perdiderit
succend
copios
consumpsit
integre
audierint
vacuus
ludorum
nudis
affirmare
recedens
fervor
abscessit
velocitate
##---
Juliani
Agnus
Corpora
quotidiana
Duae
big
nund
##anitas
haberes
consulit
spicula
accenditur
potestatum
regali
iudicabit
novitatem
continenti
151
praestante
uenisset
apparuisse
infirmorum
religiose
pervenimus
egi
familiariter
confirmet
levem
iubente
auferam
aliquamdiu
monacho
constituat
ablatum
declaravit
conclusione
emptori
translatus
rigore
Capitol
fideicommissi
Judæorum
familiaritate
ARTIC
ridiculum
cicatrices
EPISCO
ancipiti
Sebast
indubitanter
ARTICULUS
Pere
nih
##bum
##fi
pref
praevenit
##ucam
paruo
qualibus
interemit
concav
concursu
minorum
vitanda
ull
inviti
judicatur
diliges
exerceat
nocuit
universalibus
altissimi
grandem
quaestor
accidentium
pauciores
magistra
orbes
absolvere
somnos
345
moriar
captivorum
funibus
explicari
introitu
pravitatis
529
libidinum
Achilles
declinat
particularibus
Germania
ieiuniis
promittens
adipe
gesserunt
pictura
calido
seges
theatro
detrect
egestate
duodecimo
immortalibus
regiminis
Beausob
Latio
Tor
vadis
##emata
##etiam
exordia
desiit
operandi
vitulos
immitt
Thiel
quantos
appellamus
noluisti
cogitemus
mystica
305
iubetur
renit
inferiore
desideriorum
adoravit
##efr
uberius
pagani
Psalmistam
festinatione
suaviter
perhibentur
sepulcris
calamitatis
exaltat
superstitione
fraternitati
venialia
phantasia
columnis
Principium
aspexit
Athanasii
Urbis
omittam
repentino
crastinum
Dieu
cuspide
Fide
michi
nium
ribus
erex
consect
solae
solenn
superum
commix
agitat
tenorem
frangitur
sene
laudatus
Exaudi
retorqu
errant
offeruntur
prosecutus
recipiens
subtrax
inuidiam
permanent
permanebit
habitationis
recepti
deprecor
Inferni
coepimus
absconditum
monstrum
persuasit
praenot
naufragio
magistratuum
exeuntes
cotidiana
olivae
tonitrua
'.
Arii
Hugo
##uentem
quietum
Que
parari
paracl
strum
seruat
colle
formalis
##iferam
##iderim
cogunt
divinæ
Respice
suscipitur
deficiente
355
martyrem
venerabilem
transeamus
fastigia
lineas
iuravit
conjugem
Benevent
repellit
talentum
schisma
quacun
suppedit
Bact
Parum
##εται
##endæ
posuerit
appr
agendis
nosset
##ignum
creatam
angulo
fugienda
Illius
reliquisse
Proxim
quaestus
delectet
desiderans
Chorus
proximam
conversum
Libert
separantur
privatae
295
exposc
defensorem
accederet
praevid
resurgit
graduum
fulget
pigr
inutiliter
valentinianus
gustu
obnoxii
alimentis
contigisse
pullul
privilegiis
afflictionem
iniustitia
alloquitur
mulct
Iacobus
Chronico
PATRI
Eunom
tredecim
ομ
prouer
eruit
habenas
##ellem
commenda
credenti
glo
vestitum
processum
ponet
timori
donationem
diligentiae
cognoscendo
lucida
saeua
conveniret
assuet
assensum
odiis
Videtis
delectabilis
dissert
magistrorum
ingeni
Regulae
ambulantes
tribunorum
morieris
captivum
introivit
libidinos
solemniter
lugub
phantasma
torrente
sphaera
cute
##agn
quatu
##enet
##arant
utrobique
contri
Dominicam
possibili
##erator
vocatione
graue
tumor
emi
deiectus
convenientes
captiva
disseruit
firmamento
Propos
pravae
blasphemias
miscuit
ualeat
velocius
præced
articulos
astrolog
honorifice
Urbe
taedium
palea
assimilatur
quandocumque
Was
_NO
astant
iratum
tionis
##esum
##ions
auth
patientes
viridi
infantibus
volub
sume
##episti
recid
matrum
intelligibilem
tumore
##achus
terrenus
charis
fugi
redduntur
oderit
efficacia
comple
sustinens
libidines
Boem
LXVI
osculo
Addidit
Exspect
egrediens
diluvio
Boeot
_NOTE
Har
NERO
Silo
duri
qnam
inaur
expir
coart
##ectit
potentior
scisc
atrio
crinibus
recog
discessum
defuerit
civi
domnus
millium
Alam
passiva
suscitare
##ultavit
vallem
evac
luminum
furens
lacertis
figuli
Caesaraug
proterv
constitutionibus
nobilibus
corrupto
definitionibus
intraret
celebrantur
cubitos
beatific
revertuntur
concede
Septemb
Multis
miscetur
provocare
cœlest
instanter
Ambrosio
Tibur
Hannibale
patriarcharum
##iferae
Simonis
immunditiam
lubrica
anxius
redundat
hodiernum
symbolum
Phoebi
##ontrario
Sos
lag
sentias
vanis
##onarum
##aeb
quodcun
caue
scivit
obaud
debebatur
concert
##eratam
perspici
Patr
dignius
dignitatum
certissime
inveniantur
custodiant
lacert
vicinus
opinari
opinioni
reciproc
mereretur
perfr
laborantibus
postulet
multiplicata
435
stipulam
##RIP
distinctionis
##archus
accedentes
corrumpere
fragilitas
confundit
Ambrosium
obvia
maturius
liquor
επισ
axe
sanctuarium
aequivoce
Didym
Genn
Sangu
##ynth
##eceris
##ossus
deitate
##iram
erupit
consac
##alius
##esce
primorum
impulsu
operata
reflex
simulata
latitudinis
mensuras
Maurit
odi
praecipere
##ludit
sustineat
pugnant
speravi
tacite
gemma
concupiscibili
habitantes
confirmatur
requirere
obtineat
vulnerum
qualisc
puniuntur
exspectatio
vase
amplecti
confusi
Attendite
assumpto
intendunt
exaltatus
astrorum
praesidii
##RATIO
agricult
deteriora
Extra
fastigio
callidus
Januarii
Tharsis
eorundem
PLINI
leti
sq
taet
##amar
##rasti
##iliano
intenditur
unionis
aberat
habentia
arist
quaerant
regitur
grates
voci
fortissimum
laudanda
casti
memoratus
correctionis
quaestum
finalis
molle
Carm
integris
265
tractatur
relinqueret
uberibus
cubili
contemnat
inopes
reparare
tune
offensione
contradictione
evangelium
anxia
involunt
dimiserit
biennio
cortice
Libyae
stridor
mucrone
Cisterc
cem
variae
##vii
ques
scitur
sube
##adab
quisnam
probatione
134
iussum
pulmon
Evangeliis
censor
##αις
descenderunt
percipitur
insignes
coniugium
nuncupata
Ephesum
immortalitate
pomis
taurus
obscuritate
domesticos
Iunonis
vous
parabolis
commercium
lætitia
physicorum
primordio
Dago
bin
pice
##λον
colimus
conspexit
oreste
dominetur
caussa
operit
remotum
##ulog
sensi
certare
petierunt
relationis
Apo
dimidio
Augusta
forin
cupere
conversis
subjic
iuberet
Aegyptios
large
largitus
Brac
conservat
homilia
carcer
pignore
##ithmet
prompta
reputatur
harmon
despicere
contrahit
prouinciae
telorum
convincitur
euangelista
μετα
Flum
Zorob
mas
##elaus
quieta
interd
alum
genita
audirent
praeconia
contrad
fortiores
gloriæ
absentibus
ferrent
pluralitas
repp
nocentes
ingu
manifestissime
aperi
Martha
conscrips
nascantur
CAL
renuntia
praebent
traditiones
persequeris
pulchri
##ESTI
LXVIII
Illos
machinam
deprehenditur
idololatria
pependit
Heracle
Amalech
Nathan
Saec
Tet
##bant
##git
inters
propitio
acetum
peccatur
iudico
sequor
time
certissimum
liberalis
Joel
corporeae
noverint
errasse
viverent
cordium
##limur
quaestioni
praetend
cogitantes
confirmatio
350
obscuro
moriendi
purgationem
funeris
dissimiles
proprietatibus
molesta
destinatum
praedestinavit
repellere
nexus
iuliano
Humili
Galilaeae
Biblioth
praeiudicium
abhor
regimine
cette
fronde
Celtib
aul
gyrum
##fa
##inquam
##arna
adiac
internae
incolae
regiis
audiatur
excitavit
inquies
##uperat
laudo
emers
154
index
cujusquam
gressum
parvam
infiniti
procederet
retinens
hortos
resistendum
semetipsis
festinant
latronibus
Manichaeos
aerario
confidimus
eripi
modestiam
inhaeret
deformis
Archela
Insuper
αυτου
oeconom
##hingt
Washingt
Olim
iunx
nia
##rod
##idorum
##ipit
paratos
terret
solatio
seruis
infecta
debiles
nosmet
##positus
formare
sequentium
miratus
universitas
fundere
perveniant
angelicae
mercenn
proficiant
praeberet
abundans
largiri
pudeat
revertamur
transmisit
serpente
circumdata
calamo
caesus
mature
substitu
fideicommiss
Quotiens
reprehensione
imprimis
reliquam
Carthago
Avicenna
nurus
ty
potenti
parabat
vidissent
##IIS
texit
veniae
transili
timemus
castus
damnis
detrax
memorata
arbitratu
montana
dirum
ignorantibus
quoti
tabularum
auferret
inuentus
ambulavit
barbarus
revertar
susceptam
improba
praepositi
Epistolam
consueverat
clarior
uictoriae
uenerabilis
perennis
cottidie
Eliae
Hormis
fanum
mentum
vanae
##ηθ
inveh
##elum
##oly
perquam
spinae
##opond
viderant
sereno
##ovet
seminum
confectum
capitum
gratius
elationem
##index
certissima
Alyp
apostolico
doleat
manifestam
denarios
mittatur
sustine
auxit
lectorem
Stud
##ardo
intellectuali
caecitatem
mendaces
eligat
pontificibus
editionem
##pendium
describuntur
conjugio
erubescit
evidentius
comprehenditur
correptionem
extraneus
suspiria
triclin
Eub
heros
puncta
##itantes
utrin
arvis
##elium
rede
redierunt
magnarum
intelligis
obsign
placebat
manifestis
indefic
praecipuus
aetatibus
ignorante
nascendi
baptizatis
tolleret
experientiam
vixisse
innocentium
participatio
venerari
450
astu
militaribus
injuriis
Esai
contristatus
connatur
Urbem
hymnis
mensuratur
Neronem
frondes
Pythagor
poposcit
scaen
EV
cyc
geri
niu
##lep
##alitati
coeunt
velamine
sitiens
accensa
incurrere
operantis
fractis
carnium
Prorsus
ponantur
absentiam
loquaris
ferram
124
ambae
137
Omnem
uestem
breu
##rasque
temporales
Theodoro
traditionis
homil
fulgor
tribuens
fiducialiter
assignari
translationem
Manichaeus
numerare
numerantur
evidens
coniunctio
Nou
nuntiare
silvam
percusserit
Catholica
volatilia
Achaia
Simeon
mediolano
epilog
Interdum
quatuordecim
Tent
sile
##narum
perem
coena
siet
solutis
alma
multot
asinum
vesti
mundana
timeri
petendum
doleo
##achim
praestiterit
clamabant
copula
intrauit
sollicitat
concupiscere
possidebat
occupata
hortatus
quinquennium
reuol
ecquid
vanitatis
sepultum
effusione
annuntia
pressa
persuadet
Athanasio
quærit
syllogismi
compendium
uulgo
NON
Obi
rium
μον
dicendus
queant
praeuen
commilit
sumens
duum
plurali
longas
praecipites
intellegentia
cogitando
baptizat
adiungit
Marty
designari
fraudibus
angustum
praescivit
excelsi
nigred
##itivum
Africani
inflex
incommodum
impositionem
tunicas
temeritatis
##ULA
seruitutem
uniuersi
surrexerunt
unanimiter
haurire
Catilina
Puto
Ulix
gu
tenditur
uap
##iati
aderit
##unl
aute
quamobrem
comest
consedit
subv
solitudines
interrupt
Dominici
oraculo
##itasset
locutionem
##uperunt
medicis
circo
freti
Pret
visibile
laudantur
summas
munimenta
132
collationem
auctoritatibus
Dicam
Evag
canem
finium
disson
disserere
vicos
laeto
audiebat
adsert
relinquetur
singularium
indigentibus
##ractis
534
propinquos
clausus
pravum
conviviis
discedat
rusticus
machina
iucundum
draconem
Laban
medicamenta
gloriosam
exortus
strages
dapes
Rhet
REX
iuri
nic
ting
##υρ
##omere
exiens
##estina
pariat
ama
temeritas
regat
operantes
##icienda
ceterarum
distare
dolosa
phil
portabat
patrui
desideramus
pretiosis
poenitens
moueri
praeferre
cantat
exigat
praescrib
maculas
loqueb
Comes
bruta
stuprum
ductum
effugit
tout
Saturni
concipere
Tolle
locuples
introducit
Alexandrinae
Sacerdotes
praevalet
stomacho
Lentulus
Philosophus
delubra
caudam
Ess
densa
pilos
utrasque
queunt
##andrum
##verim
velum
nostre
carus
decorum
operuit
redol
colonis
##illem
laudet
castum
permiss
attentius
manifestare
manifestatio
gaudete
reddenda
conscendit
ascensus
constitutos
familiarum
subtil
praesumit
445
commemorationem
prolatum
revocavit
jubil
Attamen
stupore
morborum
recordatione
confundantur
folium
vespert
Quartus
paruulis
Oseae
tenebrosa
stercore
Gn
Nun
Osc
bacch
mereb
rates
##of
##ain
##iast
##ulatio
##aculatus
verti
facientis
amicam
supervenit
infesta
##pond
istaec
concuss
mortibus
salua
insatiab
remittitur
transibit
putantes
cogeretur
perfectorum
tribue
denarium
moveantur
ministro
fundavit
considerant
reviv
superbo
levavit
otiosa
uicti
percipiunt
conceptione
sectatores
Virginem
latronem
ieiunia
ieiunio
uindict
prouincias
lampades
Praen
archiepiscopo
Sardinia
Agrippa
rostris
valetudine
redarguit
discussa
normam
Minervae
Zorobabel
Hug
Myr
Talibus
lilium
εαυτ
##myr
##nia
##λε
parant
stum
Dominico
legeretur
volente
localiter
signati
praeside
sensibilem
donante
proba
descripsit
descrips
compulit
exemplaribus
perdidi
##ismus
efficiatur
efficaciter
mollibus
dividunt
460
praecedentis
scandalo
interclus
Domitius
conjugium
palmae
adnunt
caliginem
sparsa
stomachum
compendio
Mandavi
supersunt
uelint
Oculi
euert
xat
##val
##iten
suc
congressus
comitum
consuerunt
spopond
soleo
solverit
statis
incolis
commoti
debebant
minuta
usura
mundis
transd
judicari
Cond
profundi
mulieb
noveris
expulsus
scribuntur
ascensum
membro
clamaverunt
virgis
subjunxit
prohiberi
statuimus
sororum
##ειας
benignitatis
Calp
artificio
fingunt
anathematis
palmarum
crediderint
columnarum
construxit
praeual
egestas
stadium
æternæ
Dolabella
Iu
Seru
fila
juncta
##mur
##atior
dicebam
##ivos
amabilis
simonia
testante
##icies
##averimus
hostiis
futuras
collegit
uoluisse
equitatus
iusiur
intellegant
subjung
concupisces
accusatio
sonos
experg
demonstratione
indigentia
umbil
ausa
violare
persequentibus
imbre
concedatur
Sapientiae
recepto
reple
perseverantiam
Prophetas
frontibus
rigorem
instrument
Caiph
sepulcri
confunditur
languore
recondit
conficere
valeas
blandimenta
Labi
Andreas
Absalom
dantes
##viii
##itano
##eme
##emina
conex
siquis
imus
arena
secun
obitu
desint
audebat
recap
vites
vituli
remittere
negando
ponenda
Scripsit
Alex
judicibus
famulo
cognoscetis
126
rectos
enorm
agnov
firmam
indicatur
honorare
baptizatur
indignationis
felicior
exstiterunt
turpes
digitorum
pontifici
uinculo
LXV
purpuram
abscess
compellit
Antequam
confugit
adiutor
profitentur
suspectus
flectere
strepitus
diabolica
Considerandum
irati
myrrh
tulisse
adium
##ereant
##iscus
superu
acutus
##escimus
carminis
##ulia
maluerunt
agminibus
causantur
excita
procellis
absentis
invenietis
diligas
Phas
##imoniae
fugeret
praesta
laici
opinantur
protector
Libera
sepulch
patriis
prudentem
gemini
diac
uiuat
inducunt
455
maculis
improbus
solemnitas
Herculem
pacifici
LXXXIII
dedecore
commercia
moerore
Boherius
iusiurandum
Pith
##emores
##iacum
adgressus
##iturae
##uge
Sedec
saluus
vocas
fortissime
habeto
inval
delevit
ferire
laudabunt
liberalitatis
propositam
separatio
rapiunt
dulcem
consistens
oriens
stultorum
commemoratione
percipite
negligenter
Ezechi
posteriores
entium
offendat
despiciunt
adjuvat
iuuenem
planius
decimumqu
farina
Ordin
Cecrop
Dagob
Bert
Fer
Pyrr
pc
xl
##kra
##entissimis
conetur
##ilc
reis
quiescat
seditiones
consobr
subeunt
solic
ales
orph
infring
antro
Ingen
impendit
humore
accipies
cogito
passibus
Thy
Thebas
motui
lucos
valebit
adversitate
statutis
158
redditus
consulares
sexages
quaeram
respondebit
impleret
avari
perpetuis
rationabile
dulcius
aestimatio
impediunt
abba
captivitas
gereret
ruinis
strang
triumphus
535
paternum
naut
solidis
Donatus
adtrib
frugi
consecratione
infidelitatem
Delect
convocatis
Iudam
galeam
genetrix
Ceth
Sta
Sob
tess
vt
πα
##ED
uterentur
meipsum
quampl
sti
commenta
flens
invita
intelligantur
apostolicum
Exper
rectitudine
producta
praedium
praestaret
laicus
canitur
Cherubim
egimus
arbitrabatur
indignis
observat
descendentes
benedictum
induci
angustiae
tempestatis
comedunt
veniebant
instructionem
inutilem
unguibus
rustici
ingrediuntur
annuntiat
contradictionis
afflictione
progenie
consentiens
stipendiis
requievit
undecimo
ingemisc
Perseus
characterem
Godefr
Dorm
##lina
##pium
##æi
iners
initiis
##alogo
utrorum
verissime
obrep
acumen
dixistis
fle
signata
signanter
elatio
putetis
disponitur
ferendum
cogat
aureus
praediorum
iterato
appellatio
innasc
præsc
pertingere
subduntur
violenta
coherc
communicatio
iugera
confusionis
Porc
attribui
decipiat
mixto
crucifixerunt
unguento
mediocr
incidunt
antistites
Timotheo
Rubrum
SUO
forinsecus
Avert
Cert
Cla
Pect
toris
vinctum
σω
##port
inedia
manentibus
##eliae
capiuntur
credantur
vitiosa
servandum
eleu
delit
apostolici
significaret
lateris
valemus
attigit
dimissus
praecipitem
perductus
nimius
praemiorum
pontum
possessionum
familiaribus
institutionis
aestimet
Martii
patiaris
retinuit
dormiunt
dormientibus
faenum
Maximiano
vindicari
ascendentes
revelatio
Justin
Justitia
nuncupari
perseverant
calumniae
AEth
domestici
Melch
subtrahit
pandit
rupe
Palladius
euntem
hibernis
maerore
indictione
scholast
Mystice
phantasmatibus
obuiam
Li
Laus
SA
ruris
##iatum
##lt
##ynt
##urii
##utin
##abimini
utere
habuisti
subegit
sanctitati
debitae
induti
vocetur
ignotus
praedicata
probati
salutaria
terroribus
studere
##iabat
scribunt
quotannis
exteriorum
uocari
luxu
existimavit
tentari
occasus
aptius
Consid
obligat
incendiis
Hilarium
malignus
individuis
superstitionis
Ascendit
gesserit
fusus
insinuare
contagio
patrocinio
fefell
Get
binos
elid
junct
tomo
preh
perverse
haberemus
sciebant
libeat
flentes
tenebit
Nonas
negamus
accipio
senio
emis
evell
Abst
collatum
161
scriberem
victima
desideratur
cogitabat
fabulos
sorori
exspectatione
noxium
465
oppositis
Commod
magnificentiam
tarda
705
nouem
oppressa
ignoscere
miseriarum
inposuit
Nerone
Felicem
Natalis
diadema
juventute
homm
lorum
αμ
εμ
##ardum
##ibilitatis
##omata
##abulis
##estes
acciper
deserunt
operatum
morimur
docuerit
Alterum
petebant
lecti
Carp
claruit
advol
rationabilis
consecrata
metuenda
voluptati
argumentorum
competenti
respiciat
puellas
dispensator
decreti
limites
imitandum
deducet
tormentum
frontis
circumdedit
seminatur
##CIUS
pellem
comperta
throni
Principes
Desunt
Ostensum
Eusebio
centrum
opprobria
dispendium
Dalmat
Frequ
vile
examina
temt
voln
##ontes
nominati
cogeret
summopere
circumfl
memorati
puluere
egens
comparavit
praefert
praefertur
constantio
transfer
surget
Tryph
epistolarum
clemens
cederet
benignitatem
510
narrantur
eleganter
fervorem
vigilare
injustus
perducitur
reficit
supremo
lampadio
exsequi
uniuersae
paleas
Octobris
deliciarum
injusta
QV
retur
prooem
intel
erectus
intercip
possibilia
acutum
peccantem
insita
putandum
monere
novitas
cognoscerent
portenta
Mario
captae
Gallo
libertis
vincla
lectioni
claro
interroga
referamus
secreti
piscatores
nautae
paenitet
numerari
imminente
iusserit
Platone
eminet
adfectum
avertere
controuers
torrentem
sapientiæ
lubet
Danielem
transmutatio
Diliges
permixta
Sallustius
Certum
Mop
dentur
##IUS
##immo
##ulap
##unensis
##abil
utamur
repress
mav
scat
sicubi
##ivisse
videntibus
amittitur
quasque
remor
imperatum
dignatione
timetur
obsistere
Ther
Greg
mensus
Perpet
chlam
placido
percepta
nouerat
descendi
nesci
fructuos
intelleguntur
egomet
Moes
ardentem
cogitamus
culturam
absolutionem
determinare
vulneris
aestimatur
innocentis
##efactus
catenas
pendent
planta
obscuritas
temeritatem
Quintum
poetas
Teut
stirpis
ideas
nisu
cohibere
subiacet
comprom
aggravat
EPIST
assequi
internec
Harum
SC
lea
lamenta
deambul
autcm
quovis
secuntur
atrii
recur
salui
discit
##olia
osti
dolent
mandavi
nous
audiendo
oneris
datas
matrona
nitore
470
Consuetud
cedo
advenerit
fragilitatem
tegitur
Assur
machinas
consurgere
contradictio
triplicem
auspicia
margine
incommutabili
refrigerium
incumbit
Ade
Aver
CIII
Mete
Motus
tinn
uotis
αδ
##eorum
##lent
##asium
conb
reposita
maesta
spina
liberetur
postpon
##ixerat
factionis
Ald
doni
Apost
exerceri
lucidum
valente
ordinationis
optata
Libyc
meruerit
profecta
haeretica
tractari
agnosce
multiplicatur
exspectant
contemni
Trist
Ordo
posteriore
Medorum
figurata
Sarac
deuor
amplexu
##TAS
parricida
draconis
pronuntiare
vicesimum
commentariis
porrigit
prospicere
Synagoga
moderate
speluncam
Oppian
Caecilianum
Tankra
Gedeon
carum
fil
liu
nn
##dubio
##AP
conpet
erepta
face
incedit
impulit
##iatae
signavit
praesidem
transact
negationis
scriptas
visibiliter
petitionis
edicti
generatus
136
enunt
alienigen
sermoni
conscendere
precem
sufficientia
undae
contingentia
vind
rapinis
censores
consecratum
omnipotentia
rumore
brevibus
oleast
string
cognovisset
conspicitur
Seraphim
natalem
severus
silvarum
ideam
schismatis
Sodomorum
augmento
Chalcedonensi
Abbas
Incipit
Barc
pamp
tinea
##aia
peracto
componit
spad
possibilem
transibunt
bellicos
damnato
uenientem
sexag
quaerenti
admittitur
avia
oneribus
congregationis
commendationem
eruditionis
495
revelare
515
calumnias
LXI
residens
vicesimo
amiserat
Placuit
Pari
Sensus
Tito
Zacch
ili
iumentis
symph
δη
##ge
##UD
##TAT
inlin
##ael
coe
pariunt
concursus
indetermin
doceant
formatus
deleta
necessarios
inveniret
uideant
miranda
liberalitatem
muliebri
ueniret
ignorabat
libertum
Plut
Reges
alloc
retinetur
temperare
adhibet
paternam
pulchro
perditio
qualitercum
Emath
LXII
iustificationem
oppressi
intervallum
inspiratione
eximia
inclusa
tranquillitatem
primogenita
theatrum
colloquia
littus
Tua
mc
pilis
ust
uicem
##pot
quest
inlus
##ence
##utur
imitatio
paratis
arua
dominatione
crederes
Adversus
poneretur
mirabilem
mutetur
praediis
manifestata
ostenderetur
##ynd
palmis
infirmitati
conscient
salvo
subiit
prohibitus
subsann
extremi
inuenta
admonitio
demonstrationis
Metello
turpius
candidum
ecclesiasticum
obstet
Baptisma
Obl
Pelopon
opportunum
exploratores
adolescent
nervos
festivitate
impudenter
Quoties
egressum
Longe
gehennam
obtrunc
medietatem
uocabulo
Sempronius
Enim
Ierem
Tanquam
Zos
aulam
fusa
sirm
vost
##regit
inpens
##aras
adicit
##olenus
prox
sedul
sedebit
quidve
vidu
interdicta
amissione
regebat
asini
curatio
vocabant
transitor
gloriose
absor
visiones
##illat
distans
conveniet
existentis
victoribus
turbati
virgini
materialibus
acceptione
audiebant
differri
versut
nonnihil
375
percussum
surgat
Samariam
accedente
525
magnifica
565
maligno
Socratis
conflag
contendat
mancipium
Troiae
exploratum
Simonem
Ibae
Ebor
consueta
pusillanim
nihili
Minus
Pur
TER
Via
bant
binis
lunt
natio
sistit
##tr
##udinis
verso
Quinta
siccis
arithmet
stationem
statura
acclam
debilis
operor
curribus
Adde
vestitu
putans
uidens
Absc
aperiret
grando
Dicebat
videaris
delectatus
perpetuus
audieris
iuuat
baptizandi
interrogationem
vulneratus
puniatur
permaneant
exhorr
daemon
jejunare
declarant
venturi
medicin
translatione
intendens
credituri
expressius
concipitur
genitoris
reprehenditur
aduentus
pacifice
recognovi
CHAR
pingui
Licinio
febre
inermes
Langobardorum
inbecill
Cen
Set
TIT
pacti
vilia
##yde
exard
quietus
subesse
secure
##ariarum
soluit
quaerebatur
intervenit
superni
venund
semip
##ianas
occur
vocet
vocavi
medetur
pono
ponendi
laudamus
longitudinis
liberaliter
placatus
plenas
157
odisti
rexit
figurarum
rogas
assumens
infinitas
censet
Veniet
dissimile
Antonini
cognovissent
sempiternus
pulcherrimum
concludere
particularia
gubernat
contumeliae
peior
Papae
difficultates
Basilii
graeci
investigare
exclamavit
Samnitium
inoboed
finitimis
inuisibilis
subvertit
quercus
Themist
COM
Dia
iacta
vn
##fug
##ecca
##ialium
##andri
soliti
divum
mino
decedere
clerum
redeo
redegit
nequeo
nominata
alteratio
invitum
argent
civilia
##temur
##tempt
judicum
proferri
Ario
mutuis
metalla
prodire
fugat
convenirent
manifestatione
aperiat
praestantius
prospect
molitur
mysticum
baptizatum
retineri
Baptistae
505
otiosus
irrita
clauso
defunctum
Ephesi
particularem
diaconos
assumptio
incarnatum
maligna
sublatus
Poenus
decernere
gustum
patefacta
Carthaginiensium
detrimenta
Nostra
possibilitas
Ezechielem
Porphyrius
Emmanuel
Dr
bit
lenta
##vas
##IA
##ulsam
adit
##ilipp
scuta
scyph
siccum
interj
postes
acrior
mallet
venias
indumentum
praesides
timores
sentiri
visibilem
probabilis
proditum
saeui
nouam
reliquisset
custoditur
prospex
223
occideret
pontus
rapido
praefatione
requiram
honestius
demonstrans
indigens
larga
##εισ
proculdubio
hortus
habitatoribus
485
Justi
christianum
collegium
praedestinatione
natali
satietatem
Evangelistae
paschalis
amplior
Campania
augmenta
immunes
synagogam
perhorr
Labor
Neo
##ibula
[...]
